{
  "version": "1.0",
  "truncation": null,
  "padding": null,
  "added_tokens": [
    {
      "id": 0,
      "content": "[UNK]",
      "single_word": false,
      "lstrip": false,
      "rstrip": false,
      "normalized": false,
      "special": true
    }
  ],
  "normalizer": {
    "type": "Lowercase"
  },
  "pre_tokenizer": {
    "type": "Sequence",
    "pretokenizers": [
      {
        "type": "Whitespace"
      },
      {
        "type": "Digits",
        "individual_digits": false
      },
      {
        "type": "Punctuation",
        "behavior": "Isolated"
      }
    ]
  },
  "post_processor": null,
  "decoder": null,
  "model": {
    "type": "BPE",
    "dropout": null,
    "unk_token": "[UNK]",
    "continuing_subword_prefix": null,
    "end_of_word_suffix": null,
    "fuse_unk": false,
    "byte_fallback": false,
    "vocab": {
      "[UNK]": 0,
      "!": 1,
      "\"": 2,
      "$": 3,
      "%": 4,
      "&": 5,
      "'": 6,
      "(": 7,
      ")": 8,
      "+": 9,
      ",": 10,
      "-": 11,
      ".": 12,
      "/": 13,
      "0": 14,
      "1": 15,
      "2": 16,
      "3": 17,
      "4": 18,
      "5": 19,
      "6": 20,
      "7": 21,
      "8": 22,
      "9": 23,
      ":": 24,
      ";": 25,
      "?": 26,
      "a": 27,
      "b": 28,
      "c": 29,
      "d": 30,
      "e": 31,
      "f": 32,
      "g": 33,
      "h": 34,
      "i": 35,
      "j": 36,
      "k": 37,
      "l": 38,
      "m": 39,
      "n": 40,
      "o": 41,
      "p": 42,
      "q": 43,
      "r": 44,
      "s": 45,
      "t": 46,
      "u": 47,
      "v": 48,
      "w": 49,
      "x": 50,
      "y": 51,
      "z": 52,
      "à": 53,
      "á": 54,
      "è": 55,
      "é": 56,
      "ì": 57,
      "í": 58,
      "ò": 59,
      "ó": 60,
      "ù": 61,
      "ú": 62,
      "̀": 63,
      "́": 64,
      "ṣ": 65,
      "ẹ": 66,
      "ọ": 67,
      "–": 68,
      "—": 69,
      "‘": 70,
      "’": 71,
      "“": 72,
      "”": 73,
      "…": 74,
      "th": 75,
      "the": 76,
      "in": 77,
      "re": 78,
      "on": 79,
      "en": 80,
      "ti": 81,
      "an": 82,
      "er": 83,
      "or": 84,
      "al": 85,
      "pr": 86,
      "of": 87,
      "ing": 88,
      "ed": 89,
      "pro": 90,
      "es": 91,
      "is": 92,
      "ent": 93,
      "tion": 94,
      "ic": 95,
      "cu": 96,
      "to": 97,
      "and": 98,
      "at": 99,
      "ment": 100,
      "id": 101,
      "it": 102,
      "ac": 103,
      "ar": 104,
      "ation": 105,
      "ou": 106,
      "procu": 107,
      "as": 108,
      "su": 109,
      "be": 110,
      "con": 111,
      "for": 112,
      "st": 113,
      "le": 114,
      "all": 115,
      "bid": 116,
      "om": 117,
      "rement": 118,
      "ec": 119,
      "sh": 120,
      "tr": 121,
      "procurement": 122,
      "se": 123,
      "de": 124,
      "ce": 125,
      "qu": 126,
      "il": 127,
      "if": 128,
      "der": 129,
      "act": 130,
      "ve": 131,
      "wh": 132,
      "no": 133,
      "pl": 134,
      "ch": 135,
      "contr": 136,
      "me": 137,
      "enti": 138,
      "com": 139,
      "ty": 140,
      "contract": 141,
      "pu": 142,
      "are": 143,
      "ab": 144,
      "si": 145,
      "ay": 146,
      "po": 147,
      "ith": 148,
      "ring": 149,
      "ad": 150,
      "with": 151,
      "sp": 152,
      "ld": 153,
      "shall": 154,
      "val": 155,
      "un": 156,
      "lic": 157,
      "ten": 158,
      "ly": 159,
      "ir": 160,
      "ere": 161,
      "entity": 162,
      "od": 163,
      "per": 164,
      "that": 165,
      "ter": 166,
      "procuring": 167,
      "ate": 168,
      "bu": 169,
      "ver": 170,
      "ess": 171,
      "lo": 172,
      "do": 173,
      "ther": 174,
      "pre": 175,
      "ity": 176,
      "ag": 177,
      "pub": 178,
      "ould": 179,
      "public": 180,
      "ex": 181,
      "ap": 182,
      "ding": 183,
      "ta": 184,
      "valu": 185,
      "au": 186,
      "requ": 187,
      "am": 188,
      "go": 189,
      "ts": 190,
      "by": 191,
      "ments": 192,
      "not": 193,
      "any": 194,
      "ted": 195,
      "ations": 196,
      "sub": 197,
      "tender": 198,
      "ard": 199,
      "fr": 200,
      "pos": 201,
      "we": 202,
      "im": 203,
      "ig": 204,
      "par": 205,
      "als": 206,
      "ma": 207,
      "man": 208,
      "docu": 209,
      "oun": 210,
      "bidder": 211,
      "pe": 212,
      "should": 213,
      "evalu": 214,
      "ers": 215,
      "pli": 216,
      "fo": 217,
      "ci": 218,
      "able": 219,
      "spec": 220,
      "other": 221,
      "prov": 222,
      "fic": 223,
      "est": 224,
      "sup": 225,
      "co": 226,
      "min": 227,
      "ser": 228,
      "one": 229,
      "vi": 230,
      "ice": 231,
      "di": 232,
      "ich": 233,
      "red": 234,
      "ated": 235,
      "ific": 236,
      "qual": 237,
      "tive": 238,
      "cl": 239,
      "from": 240,
      "bidding": 241,
      "ill": 242,
      "ke": 243,
      "ple": 244,
      "out": 245,
      "suppli": 246,
      "serv": 247,
      "propos": 248,
      "ul": 249,
      "jec": 250,
      "may": 251,
      "ting": 252,
      "their": 253,
      "requi": 254,
      "which": 255,
      "contractor": 256,
      "te": 257,
      "bids": 258,
      "good": 259,
      "form": 260,
      "documents": 261,
      "aw": 262,
      "us": 263,
      "wor": 264,
      "em": 265,
      "ne": 266,
      "he": 267,
      "cr": 268,
      "mit": 269,
      "low": 270,
      "du": 271,
      "sion": 272,
      "evaluation": 273,
      "cor": 274,
      "ave": 275,
      "ction": 276,
      "tan": 277,
      "reau": 278,
      "bureau": 279,
      "dis": 280,
      "ure": 281,
      "ust": 282,
      "proc": 283,
      "li": 284,
      "our": 285,
      "por": 286,
      "so": 287,
      "such": 288,
      "ally": 289,
      "ied": 290,
      "ow": 291,
      "provid": 292,
      "this": 293,
      "they": 294,
      "tain": 295,
      "af": 296,
      "ties": 297,
      "sul": 298,
      "ices": 299,
      "work": 300,
      "ef": 301,
      "tic": 302,
      "tec": 303,
      "fere": 304,
      "was": 305,
      "time": 306,
      "ical": 307,
      "ob": 308,
      "spon": 309,
      "his": 310,
      "have": 311,
      "respon": 312,
      "age": 313,
      "ge": 314,
      "will": 315,
      "pri": 316,
      "cur": 317,
      "nation": 318,
      "end": 319,
      "tech": 320,
      "goods": 321,
      "ion": 322,
      "compe": 323,
      "ct": 324,
      "mis": 325,
      "cons": 326,
      "cep": 327,
      "appro": 328,
      "fore": 329,
      "fa": 330,
      "bidders": 331,
      "op": 332,
      "ary": 333,
      "plan": 334,
      "coun": 335,
      "ine": 336,
      "consul": 337,
      "price": 338,
      "national": 339,
      "ach": 340,
      "igh": 341,
      "techn": 342,
      "where": 343,
      "inv": 344,
      "offic": 345,
      "clu": 346,
      "technical": 347,
      "ies": 348,
      "bo": 349,
      "day": 350,
      "ance": 351,
      "proposals": 352,
      "works": 353,
      "ame": 354,
      "cy": 355,
      "has": 356,
      "ision": 357,
      "services": 358,
      "fin": 359,
      "there": 360,
      "tenders": 361,
      "consultan": 362,
      "competi": 363,
      "accep": 364,
      "feren": 365,
      "llow": 366,
      "devi": 367,
      "ven": 368,
      "who": 369,
      "lis": 370,
      "mo": 371,
      "eri": 372,
      "ase": 373,
      "consid": 374,
      "arr": 375,
      "you": 376,
      "stand": 377,
      "follow": 378,
      "ll": 379,
      "son": 380,
      "would": 381,
      "responsi": 382,
      "ful": 383,
      "inclu": 384,
      "reg": 385,
      "pres": 386,
      "ning": 387,
      "ified": 388,
      "when": 389,
      "dition": 390,
      "gr": 391,
      "tw": 392,
      "only": 393,
      "its": 394,
      "appl": 395,
      "cost": 396,
      "contractors": 397,
      "gen": 398,
      "um": 399,
      "ant": 400,
      "ification": 401,
      "supplier": 402,
      "award": 403,
      "gi": 404,
      "suppliers": 405,
      "competitive": 406,
      "ain": 407,
      "des": 408,
      "than": 409,
      "anti": 410,
      "ings": 411,
      "comm": 412,
      "request": 413,
      "required": 414,
      "process": 415,
      "ew": 416,
      "gu": 417,
      "bas": 418,
      "gn": 419,
      "submit": 420,
      "iz": 421,
      "nam": 422,
      "thod": 423,
      "str": 424,
      "sele": 425,
      "method": 426,
      "but": 427,
      "very": 428,
      "dec": 429,
      "ip": 430,
      "ms": 431,
      "contracts": 432,
      "fun": 433,
      "must": 434,
      "inform": 435,
      "ous": 436,
      "under": 437,
      "view": 438,
      "ho": 439,
      "ild": 440,
      "noti": 441,
      "pur": 442,
      "peri": 443,
      "ds": 444,
      "res": 445,
      "part": 446,
      "document": 447,
      "mission": 448,
      "eral": 449,
      "been": 450,
      "cial": 451,
      "used": 452,
      "after": 453,
      "standard": 454,
      "ble": 455,
      "inter": 456,
      "review": 457,
      "ence": 458,
      "ility": 459,
      "child": 460,
      "minis": 461,
      "ial": 462,
      "ree": 463,
      "ifications": 464,
      "proced": 465,
      "can": 466,
      "table": 467,
      "rejec": 468,
      "ort": 469,
      "issu": 470,
      "item": 471,
      "ceed": 472,
      "av": 473,
      "just": 474,
      "ur": 475,
      "sign": 476,
      "submission": 477,
      "requirement": 478,
      "ures": 479,
      "el": 480,
      "fir": 481,
      "ren": 482,
      "comple": 483,
      "value": 484,
      "made": 485,
      "port": 486,
      "eria": 487,
      "ail": 488,
      "ded": 489,
      "reas": 490,
      "ast": 491,
      "secur": 492,
      "service": 493,
      "prior": 494,
      "cer": 495,
      "pay": 496,
      "ual": 497,
      "accoun": 498,
      "set": 499,
      "ered": 500,
      "tail": 501,
      "invit": 502,
      "following": 503,
      "applic": 504,
      "ating": 505,
      "gover": 506,
      "security": 507,
      "cau": 508,
      "ear": 509,
      "each": 510,
      "ief": 511,
      "mon": 512,
      "tim": 513,
      "before": 514,
      "detail": 515,
      "now": 516,
      "need": 517,
      "open": 518,
      "finan": 519,
      "ference": 520,
      "selection": 521,
      "fec": 522,
      "gh": 523,
      "lar": 524,
      "them": 525,
      "rel": 526,
      "sure": 527,
      "crit": 528,
      "planning": 529,
      "consultants": 530,
      "govern": 531,
      "ep": 532,
      "et": 533,
      "king": 534,
      "int": 535,
      "within": 536,
      "person": 537,
      "tendering": 538,
      "main": 539,
      "deviations": 540,
      "information": 541,
      "up": 542,
      "ves": 543,
      "chief": 544,
      "cri": 545,
      "responsive": 546,
      "sti": 547,
      "rect": 548,
      "ates": 549,
      "forman": 550,
      "performan": 551,
      "parti": 552,
      "also": 553,
      "ight": 554,
      "board": 555,
      "present": 556,
      "reason": 557,
      "performance": 558,
      "ities": 559,
      "proceed": 560,
      "ack": 561,
      "dead": 562,
      "quality": 563,
      "appropri": 564,
      "lish": 565,
      "period": 566,
      "ces": 567,
      "cess": 568,
      "mone": 569,
      "ying": 570,
      "ors": 571,
      "ject": 572,
      "two": 573,
      "requirements": 574,
      "financial": 575,
      "criteria": 576,
      "less": 577,
      "line": 578,
      "name": 579,
      "sing": 580,
      "sec": 581,
      "use": 582,
      "vant": 583,
      "tions": 584,
      "deli": 585,
      "without": 586,
      "termin": 587,
      "terms": 588,
      "items": 589,
      "ative": 590,
      "dif": 591,
      "ople": 592,
      "these": 593,
      "condition": 594,
      "ome": 595,
      "tran": 596,
      "depart": 597,
      "commit": 598,
      "exam": 599,
      "people": 600,
      "specified": 601,
      "qualification": 602,
      "case": 603,
      "dom": 604,
      "ev": 605,
      "equ": 606,
      "her": 607,
      "know": 608,
      "my": 609,
      "sed": 610,
      "into": 611,
      "abo": 612,
      "direct": 613,
      "tee": 614,
      "considered": 615,
      "ministr": 616,
      "procedures": 617,
      "bor": 618,
      "jor": 619,
      "pare": 620,
      "rele": 621,
      "ough": 622,
      "stage": 623,
      "major": 624,
      "general": 625,
      "international": 626,
      "appropriate": 627,
      "fer": 628,
      "how": 629,
      "nec": 630,
      "were": 631,
      "reat": 632,
      "amoun": 633,
      "fri": 634,
      "cord": 635,
      "obtain": 636,
      "approval": 637,
      "decision": 638,
      "cause": 639,
      "government": 640,
      "carr": 641,
      "ret": 642,
      "ale": 643,
      "prin": 644,
      "ise": 645,
      "adjust": 646,
      "valid": 647,
      "subst": 648,
      "more": 649,
      "based": 650,
      "born": 651,
      "relevant": 652,
      "friend": 653,
      "clo": 654,
      "mb": 655,
      "mort": 656,
      "yor": 657,
      "rece": 658,
      "ensure": 659,
      "quo": 660,
      "chan": 661,
      "ability": 662,
      "ign": 663,
      "provision": 664,
      "proposal": 665,
      "submitted": 666,
      "notice": 667,
      "above": 668,
      "fe": 669,
      "fact": 670,
      "mat": 671,
      "ify": 672,
      "erest": 673,
      "fair": 674,
      "consider": 675,
      "interest": 676,
      "substanti": 677,
      "ati": 678,
      "br": 679,
      "ecu": 680,
      "ok": 681,
      "ol": 682,
      "some": 683,
      "ind": 684,
      "iness": 685,
      "eng": 686,
      "ace": 687,
      "condu": 688,
      "what": 689,
      "entities": 690,
      "new": 691,
      "during": 692,
      "necess": 693,
      "ba": 694,
      "fam": 695,
      "ose": 696,
      "way": 697,
      "ong": 698,
      "ency": 699,
      "proper": 700,
      "estic": 701,
      "assign": 702,
      "suc": 703,
      "because": 704,
      "determin": 705,
      "ily": 706,
      "velo": 707,
      "ential": 708,
      "execu": 709,
      "provided": 710,
      "effec": 711,
      "objec": 712,
      "officer": 713,
      "officers": 714,
      "consultant": 715,
      "domestic": 716,
      "princi": 717,
      "mortals": 718,
      "air": 719,
      "rit": 720,
      "ory": 721,
      "ide": 722,
      "state": 723,
      "let": 724,
      "pul": 725,
      "polic": 726,
      "minor": 727,
      "clar": 728,
      "deviation": 729,
      "avail": 730,
      "proceedings": 731,
      "money": 732,
      "fed": 733,
      "had": 734,
      "old": 735,
      "over": 736,
      "ved": 737,
      "thor": 738,
      "alth": 739,
      "quanti": 740,
      "ablish": 741,
      "addition": 742,
      "prepar": 743,
      "author": 744,
      "well": 745,
      "evaluated": 746,
      "establish": 747,
      "get": 748,
      "curren": 749,
      "acceptable": 750,
      "including": 751,
      "purch": 752,
      "deadline": 753,
      "amount": 754,
      "necessary": 755,
      "velop": 756,
      "aid": 757,
      "date": 758,
      "every": 759,
      "fi": 760,
      "lim": 761,
      "ned": 762,
      "sy": 763,
      "tal": 764,
      "respec": 765,
      "tific": 766,
      "cular": 767,
      "ass": 768,
      "allow": 769,
      "make": 770,
      "father": 771,
      "days": 772,
      "include": 773,
      "success": 774,
      "ether": 775,
      "ges": 776,
      "mar": 777,
      "uba": 778,
      "var": 779,
      "those": 780,
      "report": 781,
      "order": 782,
      "prices": 783,
      "offere": 784,
      "whether": 785,
      "memb": 786,
      "sible": 787,
      "bud": 788,
      "log": 789,
      "does": 790,
      "ages": 791,
      "reques": 792,
      "imum": 793,
      "specific": 794,
      "fici": 795,
      "ferent": 796,
      "given": 797,
      "stru": 798,
      "detailed": 799,
      "delivery": 800,
      "committee": 801,
      "yoruba": 802,
      "recei": 803,
      "syst": 804,
      "offered": 805,
      "cas": 806,
      "cle": 807,
      "pt": 808,
      "ule": 809,
      "acti": 810,
      "sum": 811,
      "pose": 812,
      "add": 813,
      "unit": 814,
      "tak": 815,
      "take": 816,
      "wever": 817,
      "ound": 818,
      "cies": 819,
      "like": 820,
      "tical": 821,
      "ipment": 822,
      "however": 823,
      "rejected": 824,
      "first": 825,
      "invitation": 826,
      "stipul": 827,
      "particular": 828,
      "equipment": 829,
      "cre": 830,
      "high": 831,
      "ner": 832,
      "ness": 833,
      "oy": 834,
      "sit": 835,
      "siness": 836,
      "ving": 837,
      "thr": 838,
      "step": 839,
      "adver": 840,
      "business": 841,
      "prepare": 842,
      "specifications": 843,
      "tance": 844,
      "dispos": 845,
      "provide": 846,
      "aff": 847,
      "fail": 848,
      "names": 849,
      "payment": 850,
      "account": 851,
      "maintain": 852,
      "conditions": 853,
      "department": 854,
      "available": 855,
      "vari": 856,
      "system": 857,
      "ath": 858,
      "him": 859,
      "mother": 860,
      "same": 861,
      "tu": 862,
      "vis": 863,
      "thre": 864,
      "ish": 865,
      "conf": 866,
      "contain": 867,
      "shold": 868,
      "develop": 869,
      "ife": 870,
      "ples": 871,
      "ched": 872,
      "sim": 873,
      "prequalification": 874,
      "exten": 875,
      "subject": 876,
      "wealth": 877,
      "qualified": 878,
      "lowest": 879,
      "provider": 880,
      "most": 881,
      "give": 882,
      "different": 883,
      "validity": 884,
      "conduct": 885,
      "policies": 886,
      "adverti": 887,
      "threshold": 888,
      "dr": 889,
      "pec": 890,
      "estim": 891,
      "ist": 892,
      "super": 893,
      "see": 894,
      "place": 895,
      "come": 896,
      "about": 897,
      "proposed": 898,
      "ctions": 899,
      "accounting": 900,
      "opening": 901,
      "substantially": 902,
      "principles": 903,
      "successful": 904,
      "bed": 905,
      "ced": 906,
      "cir": 907,
      "cap": 908,
      "iti": 909,
      "mod": 910,
      "pen": 911,
      "pan": 912,
      "sour": 913,
      "usu": 914,
      "year": 915,
      "ines": 916,
      "prof": 917,
      "action": 918,
      "death": 919,
      "compar": 920,
      "poin": 921,
      "goti": 922,
      "possible": 923,
      "manual": 924,
      "negoti": 925,
      "ized": 926,
      "applicable": 927,
      "transp": 928,
      "preparation": 929,
      "cases": 930,
      "cted": 931,
      "great": 932,
      "hu": 933,
      "hand": 934,
      "lu": 935,
      "les": 936,
      "num": 937,
      "sched": 938,
      "writ": 939,
      "then": 940,
      "resul": 941,
      "ited": 942,
      "sur": 943,
      "key": 944,
      "regard": 945,
      "commun": 946,
      "issued": 947,
      "certific": 948,
      "family": 949,
      "budget": 950,
      "ade": 951,
      "bility": 952,
      "ked": 953,
      "sco": 954,
      "ances": 955,
      "ature": 956,
      "itor": 957,
      "being": 958,
      "staff": 959,
      "char": 960,
      "sive": 961,
      "preference": 962,
      "again": 963,
      "impor": 964,
      "special": 965,
      "minimum": 966,
      "due": 967,
      "tices": 968,
      "opport": 969,
      "both": 970,
      "list": 971,
      "purpose": 972,
      "standards": 973,
      "rejection": 974,
      "firm": 975,
      "examin": 976,
      "quot": 977,
      "atis": 978,
      "property": 979,
      "federal": 980,
      "taken": 981,
      "circu": 982,
      "human": 983,
      "opportun": 984,
      "bá": 985,
      "ban": 986,
      "ber": 987,
      "god": 988,
      "ks": 989,
      "non": 990,
      "ra": 991,
      "ses": 992,
      "wn": 993,
      "accord": 994,
      "ouse": 995,
      "procured": 996,
      "bet": 997,
      "ship": 998,
      "procurements": 999,
      "tention": 1000,
      "web": 1001,
      "parast": 1002,
      "plement": 1003,
      "sions": 1004,
      "basis": 1005,
      "naming": 1006,
      "ously": 1007,
      "complete": 1008,
      "secret": 1009,
      "adjustments": 1010,
      "additional": 1011,
      "purchas": 1012,
      "respect": 1013,
      "stipulated": 1014,
      "through": 1015,
      "source": 1016,
      "parastat": 1017,
      "did": 1018,
      "even": 1019,
      "fied": 1020,
      "house": 1021,
      "nair": 1022,
      "tes": 1023,
      "thing": 1024,
      "initi": 1025,
      "project": 1026,
      "ison": 1027,
      "stated": 1028,
      "show": 1029,
      "post": 1030,
      "bur": 1031,
      "implement": 1032,
      "corre": 1033,
      "providers": 1034,
      "effici": 1035,
      "regul": 1036,
      "guid": 1037,
      "named": 1038,
      "methods": 1039,
      "etc": 1040,
      "trans": 1041,
      "changes": 1042,
      "engine": 1043,
      "authority": 1044,
      "received": 1045,
      "steps": 1046,
      "usually": 1047,
      "comparison": 1048,
      "points": 1049,
      "accordance": 1050,
      "bad": 1051,
      "best": 1052,
      "fy": 1053,
      "gif": 1054,
      "led": 1055,
      "lig": 1056,
      "many": 1057,
      "nig": 1058,
      "oc": 1059,
      "pack": 1060,
      "rul": 1061,
      "sm": 1062,
      "sof": 1063,
      "tent": 1064,
      "war": 1065,
      "ọ́": 1066,
      "ref": 1067,
      "recor": 1068,
      "represent": 1069,
      "record": 1070,
      "angu": 1071,
      "total": 1072,
      "stances": 1073,
      "least": 1074,
      "she": 1075,
      "sel": 1076,
      "plain": 1077,
      "contracting": 1078,
      "agree": 1079,
      "ween": 1080,
      "corpor": 1081,
      "foreign": 1082,
      "final": 1083,
      "tware": 1084,
      "gener": 1085,
      "design": 1086,
      "ization": 1087,
      "minister": 1088,
      "application": 1089,
      "earth": 1090,
      "monitor": 1091,
      "matter": 1092,
      "assignments": 1093,
      "disposal": 1094,
      "development": 1095,
      "thresholds": 1096,
      "communic": 1097,
      "circum": 1098,
      "between": 1099,
      "secretary": 1100,
      "naira": 1101,
      "software": 1102,
      "bill": 1103,
      "ei": 1104,
      "ile": 1105,
      "law": 1106,
      "med": 1107,
      "nor": 1108,
      "sal": 1109,
      "three": 1110,
      "ins": 1111,
      "repor": 1112,
      "reference": 1113,
      "encies": 1114,
      "tives": 1115,
      "prac": 1116,
      "offer": 1117,
      "tional": 1118,
      "ilar": 1119,
      "cho": 1120,
      "aren": 1121,
      "permit": 1122,
      "tern": 1123,
      "agg": 1124,
      "agency": 1125,
      "experi": 1126,
      "tax": 1127,
      "aud": 1128,
      "ounds": 1129,
      "div": 1130,
      "qualifications": 1131,
      "solic": 1132,
      "oblig": 1133,
      "agement": 1134,
      "achi": 1135,
      "invol": 1136,
      "regis": 1137,
      "grounds": 1138,
      "function": 1139,
      "details": 1140,
      "needed": 1141,
      "upon": 1142,
      "carry": 1143,
      "provisions": 1144,
      "effect": 1145,
      "statement": 1146,
      "clarification": 1147,
      "established": 1148,
      "logy": 1149,
      "clear": 1150,
      "similar": 1151,
      "capac": 1152,
      "negotiations": 1153,
      "transparen": 1154,
      "certificate": 1155,
      "parastatal": 1156,
      "small": 1157,
      "circumstances": 1158,
      "either": 1159,
      "aim": 1160,
      "cour": 1161,
      "econ": 1162,
      "fying": 1163,
      "gree": 1164,
      "langu": 1165,
      "mpt": 1166,
      "nature": 1167,
      "oper": 1168,
      "rich": 1169,
      "sto": 1170,
      "sme": 1171,
      "satis": 1172,
      "vity": 1173,
      "recomm": 1174,
      "ans": 1175,
      "altern": 1176,
      "off": 1177,
      "esti": 1178,
      "identi": 1179,
      "accor": 1180,
      "sequ": 1181,
      "compli": 1182,
      "posi": 1183,
      "adv": 1184,
      "unless": 1185,
      "perform": 1186,
      "ateg": 1187,
      "loc": 1188,
      "appli": 1189,
      "approv": 1190,
      "manner": 1191,
      "management": 1192,
      "discoun": 1193,
      "response": 1194,
      "accept": 1195,
      "acceptance": 1196,
      "costs": 1197,
      "guar": 1198,
      "urn": 1199,
      "signed": 1200,
      "payments": 1201,
      "relation": 1202,
      "stitu": 1203,
      "obtained": 1204,
      "materi": 1205,
      "indic": 1206,
      "determine": 1207,
      "quantities": 1208,
      "limited": 1209,
      "member": 1210,
      "number": 1211,
      "examination": 1212,
      "bank": 1213,
      "implementation": 1214,
      "generally": 1215,
      "capacity": 1216,
      "econom": 1217,
      "recommend": 1218,
      "10": 1219,
      "cent": 1220,
      "done": 1221,
      "eth": 1222,
      "ele": 1223,
      "ever": 1224,
      "lé": 1225,
      "lack": 1226,
      "mu": 1227,
      "paid": 1228,
      "ro": 1229,
      "right": 1230,
      "tin": 1231,
      "tre": 1232,
      "tor": 1233,
      "ater": 1234,
      "suf": 1235,
      "concer": 1236,
      "story": 1237,
      "ilities": 1238,
      "while": 1239,
      "ply": 1240,
      "mee": 1241,
      "adé": 1242,
      "added": 1243,
      "administr": 1244,
      "ately": 1245,
      "vers": 1246,
      "cip": 1247,
      "tant": 1248,
      "disclo": 1249,
      "tics": 1250,
      "therefore": 1251,
      "competition": 1252,
      "fully": 1253,
      "funds": 1254,
      "children": 1255,
      "procedure": 1256,
      "month": 1257,
      "needs": 1258,
      "reasons": 1259,
      "ought": 1260,
      "friends": 1261,
      "factors": 1262,
      "ways": 1263,
      "objection": 1264,
      "allowed": 1265,
      "requests": 1266,
      "requested": 1267,
      "guidel": 1268,
      "engineer": 1269,
      "ministerial": 1270,
      "monitoring": 1271,
      "divid": 1272,
      "solicit": 1273,
      "language": 1274,
      "according": 1275,
      "guaran": 1276,
      "back": 1277,
      "came": 1278,
      "dic": 1279,
      "dat": 1280,
      "gan": 1281,
      "ibu": 1282,
      "jus": 1283,
      "lá": 1284,
      "lay": 1285,
      "marr": 1286,
      "nal": 1287,
      "rate": 1288,
      "say": 1289,
      "said": 1290,
      "ud": 1291,
      "ute": 1292,
      "wise": 1293,
      "ined": 1294,
      "inary": 1295,
      "read": 1296,
      "err": 1297,
      "prompt": 1298,
      "ession": 1299,
      "took": 1300,
      "idence": 1301,
      "arch": 1302,
      "arith": 1303,
      "leg": 1304,
      "short": 1305,
      "train": 1306,
      "ques": 1307,
      "meet": 1308,
      "comp": 1309,
      "complain": 1310,
      "contractual": 1311,
      "six": 1312,
      "pot": 1313,
      "unpre": 1314,
      "perman": 1315,
      "excep": 1316,
      "igi": 1317,
      "qualify": 1318,
      "format": 1319,
      "soci": 1320,
      "investi": 1321,
      "accepted": 1322,
      "prescri": 1323,
      "apply": 1324,
      "descri": 1325,
      "notific": 1326,
      "documentation": 1327,
      "eligi": 1328,
      "ailing": 1329,
      "particip": 1330,
      "reasonable": 1331,
      "single": 1332,
      "ministry": 1333,
      "ministries": 1334,
      "carried": 1335,
      "assignment": 1336,
      "clarifications": 1337,
      "marke": 1338,
      "members": 1339,
      "addres": 1340,
      "situ": 1341,
      "profession": 1342,
      "writing": 1343,
      "scope": 1344,
      "against": 1345,
      "opportunities": 1346,
      "efficiency": 1347,
      "reports": 1348,
      "experience": 1349,
      "meeting": 1350,
      "dictable": 1351,
      "arithme": 1352,
      "training": 1353,
      "unpredictable": 1354,
      "permanent": 1355,
      "investig": 1356,
      "aper": 1357,
      "cil": 1358,
      "categ": 1359,
      "eas": 1360,
      "eve": 1361,
      "fem": 1362,
      "fur": 1363,
      "ially": 1364,
      "kẹ": 1365,
      "kill": 1366,
      "kind": 1367,
      "life": 1368,
      "male": 1369,
      "os": 1370,
      "ping": 1371,
      "ran": 1372,
      "ris": 1373,
      "tary": 1374,
      "vision": 1375,
      "your": 1376,
      "instru": 1377,
      "institu": 1378,
      "individ": 1379,
      "retention": 1380,
      "til": 1381,
      "organ": 1382,
      "promis": 1383,
      "ents": 1384,
      "ite": 1385,
      "beh": 1386,
      "cond": 1387,
      "conver": 1388,
      "constru": 1389,
      "star": 1390,
      "tra": 1391,
      "tru": 1392,
      "second": 1393,
      "deal": 1394,
      "ders": 1395,
      "comes": 1396,
      "put": 1397,
      "aded": 1398,
      "uni": 1399,
      "until": 1400,
      "buil": 1401,
      "essential": 1402,
      "exp": 1403,
      "expres": 1404,
      "values": 1405,
      "otherwise": 1406,
      "clau": 1407,
      "jects": 1408,
      "require": 1409,
      "aware": 1410,
      "emer": 1411,
      "providing": 1412,
      "countr": 1413,
      "council": 1414,
      "whose": 1415,
      "arran": 1416,
      "desi": 1417,
      "common": 1418,
      "ize": 1419,
      "ressive": 1420,
      "issue": 1421,
      "complex": 1422,
      "certain": 1423,
      "persons": 1424,
      "monetary": 1425,
      "sector": 1426,
      "evil": 1427,
      "known": 1428,
      "directly": 1429,
      "quoted": 1430,
      "consideration": 1431,
      "executive": 1432,
      "estimate": 1433,
      "supervis": 1434,
      "schedule": 1435,
      "important": 1436,
      "rather": 1437,
      "gifts": 1438,
      "norm": 1439,
      "practices": 1440,
      "aggressive": 1441,
      "register": 1442,
      "compliance": 1443,
      "economy": 1444,
      "guidelines": 1445,
      "guarantee": 1446,
      "errors": 1447,
      "complaint": 1448,
      "market": 1449,
      "arithmetical": 1450,
      "apers": 1451,
      "female": 1452,
      "further": 1453,
      "bilities": 1454,
      "care": 1455,
      "dam": 1456,
      "dates": 1457,
      "hap": 1458,
      "jour": 1459,
      "land": 1460,
      "might": 1461,
      "pic": 1462,
      "sent": 1463,
      "ton": 1464,
      "tle": 1465,
      "went": 1466,
      "ys": 1467,
      "thir": 1468,
      "inf": 1469,
      "inten": 1470,
      "refer": 1471,
      "produ": 1472,
      "enter": 1473,
      "ently": 1474,
      "town": 1475,
      "actions": 1476,
      "asse": 1477,
      "below": 1478,
      "become": 1479,
      "confirm": 1480,
      "omis": 1481,
      "shop": 1482,
      "why": 1483,
      "meas": 1484,
      "spapers": 1485,
      "verb": 1486,
      "prev": 1487,
      "agencies": 1488,
      "exper": 1489,
      "exceed": 1490,
      "taking": 1491,
      "amend": 1492,
      "among": 1493,
      "specify": 1494,
      "others": 1495,
      "cop": 1496,
      "died": 1497,
      "claim": 1498,
      "nel": 1499,
      "sol": 1500,
      "own": 1501,
      "working": 1502,
      "gency": 1503,
      "methodo": 1504,
      "cannot": 1505,
      "times": 1506,
      "opened": 1507,
      "large": 1508,
      "related": 1509,
      "example": 1510,
      "director": 1511,
      "change": 1512,
      "newspapers": 1513,
      "objectives": 1514,
      "letter": 1515,
      "currency": 1516,
      "purchase": 1517,
      "activity": 1518,
      "fails": 1519,
      "extension": 1520,
      "advertising": 1521,
      "draw": 1522,
      "result": 1523,
      "regulations": 1524,
      "nigeria": 1525,
      "rules": 1526,
      "representative": 1527,
      "selves": 1528,
      "transparency": 1529,
      "disclosed": 1530,
      "promptly": 1531,
      "potential": 1532,
      "notification": 1533,
      "situation": 1534,
      "professional": 1535,
      "shopping": 1536,
      "20": 1537,
      "ak": 1538,
      "bir": 1539,
      "call": 1540,
      "creat": 1541,
      "dé": 1542,
      "eat": 1543,
      "equal": 1544,
      "gin": 1545,
      "joy": 1546,
      "jud": 1547,
      "lly": 1548,
      "rup": 1549,
      "tas": 1550,
      "vil": 1551,
      "xed": 1552,
      "yì": 1553,
      "úlé": 1554,
      "intr": 1555,
      "reco": 1556,
      "enable": 1557,
      "titu": 1558,
      "ants": 1559,
      "eris": 1560,
      "orig": 1561,
      "practi": 1562,
      "projects": 1563,
      "proverb": 1564,
      "toge": 1565,
      "aspec": 1566,
      "associ": 1567,
      "def": 1568,
      "delay": 1569,
      "acteris": 1570,
      "chair": 1571,
      "ables": 1572,
      "abúlé": 1573,
      "point": 1574,
      "odu": 1575,
      "look": 1576,
      "prelim": 1577,
      "extra": 1578,
      "max": 1579,
      "evaluate": 1580,
      "away": 1581,
      "using": 1582,
      "head": 1583,
      "cru": 1584,
      "discre": 1585,
      "sole": 1586,
      "affec": 1587,
      "techno": 1588,
      "approach": 1589,
      "consulting": 1590,
      "official": 1591,
      "veness": 1592,
      "responsibilities": 1593,
      "grave": 1594,
      "awarded": 1595,
      "commer": 1596,
      "funding": 1597,
      "understand": 1598,
      "completed": 1599,
      "applications": 1600,
      "relating": 1601,
      "critical": 1602,
      "difference": 1603,
      "adjustment": 1604,
      "substantial": 1605,
      "determined": 1606,
      "various": 1607,
      "schedul": 1608,
      "adequ": 1609,
      "characteris": 1610,
      "quotation": 1611,
      "quotations": 1612,
      "humans": 1613,
      "websit": 1614,
      "initial": 1615,
      "correction": 1616,
      "records": 1617,
      "agreement": 1618,
      "medi": 1619,
      "obligations": 1620,
      "achieve": 1621,
      "operation": 1622,
      "alternative": 1623,
      "applied": 1624,
      "materials": 1625,
      "ethical": 1626,
      "much": 1627,
      "suffici": 1628,
      "categor": 1629,
      "journal": 1630,
      "introdu": 1631,
      "together": 1632,
      "preliminary": 1633,
      "characteristics": 1634,
      "19": 1635,
      "ake": 1636,
      "bab": 1637,
      "bring": 1638,
      "bọ́": 1639,
      "cts": 1640,
      "cting": 1641,
      "ft": 1642,
      "fall": 1643,
      "ger": 1644,
      "hun": 1645,
      "ive": 1646,
      "lag": 1647,
      "men": 1648,
      "sà": 1649,
      "utes": 1650,
      "vill": 1651,
      "ward": 1652,
      "wide": 1653,
      "wife": 1654,
      "ze": 1655,
      "inc": 1656,
      "incur": 1657,
      "incomplete": 1658,
      "rese": 1659,
      "ann": 1660,
      "always": 1661,
      "atten": 1662,
      "idated": 1663,
      "ital": 1664,
      "access": 1665,
      "arding": 1666,
      "outs": 1667,
      "sun": 1668,
      "beli": 1669,
      "left": 1670,
      "secu": 1671,
      "seven": 1672,
      "deb": 1673,
      "vered": 1674,
      "notices": 1675,
      "plus": 1676,
      "ploy": 1677,
      "puts": 1678,
      "ably": 1679,
      "unacceptable": 1680,
      "down": 1681,
      "aging": 1682,
      "aged": 1683,
      "exclu": 1684,
      "extent": 1685,
      "col": 1686,
      "minutes": 1687,
      "keep": 1688,
      "please": 1689,
      "requires": 1690,
      "employ": 1691,
      "hear": 1692,
      "respond": 1693,
      "gements": 1694,
      "accepting": 1695,
      "listed": 1696,
      "followed": 1697,
      "responsibility": 1698,
      "full": 1699,
      "included": 1700,
      "ground": 1701,
      "ump": 1702,
      "basic": 1703,
      "decl": 1704,
      "notify": 1705,
      "issues": 1706,
      "completion": 1707,
      "invited": 1708,
      "themselves": 1709,
      "personnel": 1710,
      "examine": 1711,
      "evidence": 1712,
      "knowled": 1713,
      "return": 1714,
      "fee": 1715,
      "interested": 1716,
      "famil": 1717,
      "execution": 1718,
      "quantity": 1719,
      "fixed": 1720,
      "respective": 1721,
      "highest": 1722,
      "accountability": 1723,
      "supervision": 1724,
      "years": 1725,
      "results": 1726,
      "showing": 1727,
      "burial": 1728,
      "packages": 1729,
      "functional": 1730,
      "clearly": 1731,
      "smelly": 1732,
      "position": 1733,
      "approved": 1734,
      "room": 1735,
      "concern": 1736,
      "months": 1737,
      "data": 1738,
      "question": 1739,
      "investigation": 1740,
      "instructions": 1741,
      "emergency": 1742,
      "arrangements": 1743,
      "damages": 1744,
      "methodology": 1745,
      "recogn": 1746,
      "origin": 1747,
      "practice": 1748,
      "discrepan": 1749,
      "commercial": 1750,
      "adequate": 1751,
      "sufficient": 1752,
      "lagos": 1753,
      "research": 1754,
      "knowledge": 1755,
      "ben": 1756,
      "big": 1757,
      "blow": 1758,
      "black": 1759,
      "cing": 1760,
      "ety": 1761,
      "far": 1762,
      "found": 1763,
      "hi": 1764,
      "hailing": 1765,
      "jà": 1766,
      "ker": 1767,
      "ls": 1768,
      "lit": 1769,
      "late": 1770,
      "long": 1771,
      "lump": 1772,
      "mí": 1773,
      "mú": 1774,
      "mob": 1775,
      "oid": 1776,
      "ph": 1777,
      "pact": 1778,
      "page": 1779,
      "pass": 1780,
      "ry": 1781,
      "rating": 1782,
      "rates": 1783,
      "sat": 1784,
      "usion": 1785,
      "ufact": 1786,
      "vend": 1787,
      "win": 1788,
      "youn": 1789,
      "yet": 1790,
      "ùbá": 1791,
      "ọ̀": 1792,
      "ọjà": 1793,
      "things": 1794,
      "inst": 1795,
      "rely": 1796,
      "reli": 1797,
      "once": 1798,
      "ensu": 1799,
      "endu": 1800,
      "enjoy": 1801,
      "tise": 1802,
      "ord": 1803,
      "pric": 1804,
      "promo": 1805,
      "espec": 1806,
      "custo": 1807,
      "ident": 1808,
      "idential": 1809,
      "ars": 1810,
      "procure": 1811,
      "suit": 1812,
      "conting": 1813,
      "contin": 1814,
      "leve": 1815,
      "lead": 1816,
      "tract": 1817,
      "sell": 1818,
      "ilization": 1819,
      "cher": 1820,
      "chec": 1821,
      "chris": 1822,
      "meat": 1823,
      "comb": 1824,
      "compare": 1825,
      "compan": 1826,
      "typ": 1827,
      "withdraw": 1828,
      "ters": 1829,
      "publish": 1830,
      "dings": 1831,
      "poses": 1832,
      "imin": 1833,
      "impact": 1834,
      "parts": 1835,
      "parties": 1836,
      "mankind": 1837,
      "manufact": 1838,
      "supply": 1839,
      "coll": 1840,
      "dies": 1841,
      "redu": 1842,
      "tees": 1843,
      "team": 1844,
      "formal": 1845,
      "words": 1846,
      "emp": 1847,
      "held": 1848,
      "corrup": 1849,
      "soon": 1850,
      "provides": 1851,
      "timely": 1852,
      "constitu": 1853,
      "plans": 1854,
      "invest": 1855,
      "youth": 1856,
      "follows": 1857,
      "whenever": 1858,
      "giving": 1859,
      "gue": 1860,
      "stric": 1861,
      "butcher": 1862,
      "fund": 1863,
      "functions": 1864,
      "purposes": 1865,
      "aves": 1866,
      "invite": 1867,
      "proceeding": 1868,
      "section": 1869,
      "event": 1870,
      "amounts": 1871,
      "decisions": 1872,
      "adjusted": 1873,
      "yorùbá": 1874,
      "receip": 1875,
      "overall": 1876,
      "preparing": 1877,
      "tification": 1878,
      "assess": 1879,
      "addendu": 1880,
      "variations": 1881,
      "conflic": 1882,
      "confidential": 1883,
      "containing": 1884,
      "extend": 1885,
      "advertised": 1886,
      "estimated": 1887,
      "regardless": 1888,
      "opportunity": 1889,
      "didn": 1890,
      "offers": 1891,
      "identifying": 1892,
      "advice": 1893,
      "discounts": 1894,
      "relationship": 1895,
      "administration": 1896,
      "accordingly": 1897,
      "justification": 1898,
      "ready": 1899,
      "legal": 1900,
      "exceptional": 1901,
      "addressed": 1902,
      "individual": 1903,
      "construction": 1904,
      "country": 1905,
      "supervising": 1906,
      "normally": 1907,
      "influ": 1908,
      "omissions": 1909,
      "chairperson": 1910,
      "maximum": 1911,
      "baby": 1912,
      "village": 1913,
      "outside": 1914,
      "colle": 1915,
      "declare": 1916,
      "mobilization": 1917,
      "especially": 1918,
      "continu": 1919,
      "bre": 1920,
      "cise": 1921,
      "don": 1922,
      "eld": 1923,
      "frequ": 1924,
      "four": 1925,
      "ged": 1926,
      "gain": 1927,
      "hon": 1928,
      "ival": 1929,
      "ja": 1930,
      "jo": 1931,
      "ká": 1932,
      "narr": 1933,
      "nmí": 1934,
      "obe": 1935,
      "pal": 1936,
      "pend": 1937,
      "rid": 1938,
      "rout": 1939,
      "sl": 1940,
      "sale": 1941,
      "skill": 1942,
      "user": 1943,
      "uish": 1944,
      "wa": 1945,
      "wom": 1946,
      "àyì": 1947,
      "ẹ̀": 1948,
      "thin": 1949,
      "insur": 1950,
      "inputs": 1951,
      "reed": 1952,
      "ences": 1953,
      "encour": 1954,
      "another": 1955,
      "already": 1956,
      "protec": 1957,
      "progr": 1958,
      "ised": 1959,
      "ists": 1960,
      "isting": 1961,
      "acy": 1962,
      "ascertain": 1963,
      "beings": 1964,
      "becomes": 1965,
      "trust": 1966,
      "tribu": 1967,
      "seal": 1968,
      "defin": 1969,
      "defec": 1970,
      "depend": 1971,
      "quidated": 1972,
      "ifies": 1973,
      "ifying": 1974,
      "whom": 1975,
      "whist": 1976,
      "plic": 1977,
      "plac": 1978,
      "contribu": 1979,
      "met": 1980,
      "means": 1981,
      "type": 1982,
      "abule": 1983,
      "termit": 1984,
      "los": 1985,
      "loaded": 1986,
      "exer": 1987,
      "expec": 1988,
      "appe": 1989,
      "going": 1990,
      "anything": 1991,
      "subcommittee": 1992,
      "subsequ": 1993,
      "weight": 1994,
      "improper": 1995,
      "impossible": 1996,
      "imize": 1997,
      "maker": 1998,
      "civil": 1999,
      "vities": 2000,
      "supplies": 2001,
      "tinguish": 2002,
      "users": 2003,
      "worth": 2004,
      "crip": 2005,
      "liquidated": 2006,
      "owned": 2007,
      "affair": 2008,
      "compete": 2009,
      "office": 2010,
      "cycle": 2011,
      "erian": 2012,
      "regarding": 2013,
      "applying": 2014,
      "descrip": 2015,
      "submitting": 2016,
      "strong": 2017,
      "selected": 2018,
      "funded": 2019,
      "hold": 2020,
      "hope": 2021,
      "resour": 2022,
      "ortation": 2023,
      "avoid": 2024,
      "urned": 2025,
      "firms": 2026,
      "useful": 2027,
      "departments": 2028,
      "close": 2029,
      "feed": 2030,
      "factor": 2031,
      "considerations": 2032,
      "executed": 2033,
      "objective": 2034,
      "policy": 2035,
      "authorities": 2036,
      "currence": 2037,
      "currencies": 2038,
      "margin": 2039,
      "budge": 2040,
      "activities": 2041,
      "likely": 2042,
      "disposing": 2043,
      "failure": 2044,
      "advertise": 2045,
      "modification": 2046,
      "pending": 2047,
      "transportation": 2048,
      "written": 2049,
      "surplus": 2050,
      "importance": 2051,
      "purchaser": 2052,
      "nigerian": 2053,
      "packaging": 2054,
      "recorded": 2055,
      "self": 2056,
      "communicated": 2057,
      "sales": 2058,
      "salute": 2059,
      "achiev": 2060,
      "involved": 2061,
      "greet": 2062,
      "riches": 2063,
      "smell": 2064,
      "local": 2065,
      "approving": 2066,
      "discount": 2067,
      "recommended": 2068,
      "elements": 2069,
      "adésà": 2070,
      "administrative": 2071,
      "engineering": 2072,
      "solicitation": 2073,
      "married": 2074,
      "prescribed": 2075,
      "described": 2076,
      "eligible": 2077,
      "eligibility": 2078,
      "institutional": 2079,
      "organiz": 2080,
      "promise": 2081,
      "clauses": 2082,
      "thirty": 2083,
      "assets": 2084,
      "creature": 2085,
      "aspects": 2086,
      "technology": 2087,
      "websites": 2088,
      "belief": 2089,
      "little": 2090,
      "priced": 2091,
      "receipt": 2092,
      "assessment": 2093,
      "conflict": 2094,
      "routine": 2095,
      "program": 2096,
      "defined": 2097,
      "whistle": 2098,
      "expected": 2099,
      "affairs": 2100,
      "adésànmí": 2101,
      "07": 2102,
      "avi": 2103,
      "bing": 2104,
      "band": 2105,
      "ck": 2106,
      "cal": 2107,
      "clic": 2108,
      "city": 2109,
      "could": 2110,
      "dance": 2111,
      "free": 2112,
      "gment": 2113,
      "hid": 2114,
      "hus": 2115,
      "hence": 2116,
      "home": 2117,
      "ition": 2118,
      "ible": 2119,
      "la": 2120,
      "lt": 2121,
      "last": 2122,
      "mer": 2123,
      "mor": 2124,
      "ndé": 2125,
      "osing": 2126,
      "oja": 2127,
      "pse": 2128,
      "sc": 2129,
      "sen": 2130,
      "sor": 2131,
      "send": 2132,
      "sound": 2133,
      "tù": 2134,
      "ut": 2135,
      "urement": 2136,
      "ually": 2137,
      "wic": 2138,
      "want": 2139,
      "wish": 2140,
      "water": 2141,
      "yí": 2142,
      "thus": 2143,
      "inspec": 2144,
      "inte": 2145,
      "incorpor": 2146,
      "rest": 2147,
      "remon": 2148,
      "renow": 2149,
      "remain": 2150,
      "recent": 2151,
      "envelop": 2152,
      "tifying": 2153,
      "tiveness": 2154,
      "anal": 2155,
      "eration": 2156,
      "erous": 2157,
      "alf": 2158,
      "propor": 2159,
      "proble": 2160,
      "iss": 2161,
      "isance": 2162,
      "isite": 2163,
      "ick": 2164,
      "cus": 2165,
      "ands": 2166,
      "identity": 2167,
      "accur": 2168,
      "ask": 2169,
      "became": 2170,
      "conform": 2171,
      "conclu": 2172,
      "force": 2173,
      "forward": 2174,
      "statis": 2175,
      "lea": 2176,
      "lect": 2177,
      "trade": 2178,
      "seen": 2179,
      "deem": 2180,
      "demis": 2181,
      "deep": 2182,
      "depending": 2183,
      "ceremon": 2184,
      "whate": 2185,
      "mean": 2186,
      "entire": 2187,
      "coming": 2188,
      "advant": 2189,
      "spital": 2190,
      "ldness": 2191,
      "uneas": 2192,
      "tenance": 2193,
      "percent": 2194,
      "preci": 2195,
      "previ": 2196,
      "agreed": 2197,
      "ext": 2198,
      "appoint": 2199,
      "requisite": 2200,
      "amiss": 2201,
      "got": 2202,
      "anyone": 2203,
      "fraud": 2204,
      "wee": 2205,
      "immedi": 2206,
      "making": 2207,
      "evaluating": 2208,
      "specifies": 2209,
      "ficul": 2210,
      "suppor": 2211,
      "code": 2212,
      "covers": 2213,
      "seri": 2214,
      "qualifying": 2215,
      "class": 2216,
      "kept": 2217,
      "served": 2218,
      "word": 2219,
      "never": 2220,
      "hel": 2221,
      "duties": 2222,
      "correct": 2223,
      "dispu": 2224,
      "distinguish": 2225,
      "living": 2226,
      "solu": 2227,
      "owner": 2228,
      "tained": 2229,
      "tainment": 2230,
      "tically": 2231,
      "responses": 2232,
      "enda": 2233,
      "cture": 2234,
      "consist": 2235,
      "approve": 2236,
      "forest": 2237,
      "ached": 2238,
      "ights": 2239,
      "boldness": 2240,
      "standing": 2241,
      "lled": 2242,
      "responsible": 2243,
      "includes": 2244,
      "thanks": 2245,
      "stran": 2246,
      "informed": 2247,
      "hospital": 2248,
      "issuer": 2249,
      "issuing": 2250,
      "ural": 2251,
      "submissions": 2252,
      "elder": 2253,
      "astute": 2254,
      "timate": 2255,
      "ght": 2256,
      "relative": 2257,
      "personal": 2258,
      "maintenance": 2259,
      "presented": 2260,
      "deliver": 2261,
      "delivered": 2262,
      "difficul": 2263,
      "departures": 2264,
      "committed": 2265,
      "committees": 2266,
      "equival": 2267,
      "paren": 2268,
      "carrying": 2269,
      "returned": 2270,
      "provisional": 2271,
      "fairness": 2272,
      "atives": 2273,
      "bro": 2274,
      "engaged": 2275,
      "effectiveness": 2276,
      "principle": 2277,
      "availability": 2278,
      "quantified": 2279,
      "current": 2280,
      "five": 2281,
      "field": 2282,
      "assis": 2283,
      "logies": 2284,
      "specifically": 2285,
      "receiving": 2286,
      "addenda": 2287,
      "takes": 2288,
      "create": 2289,
      "prepares": 2290,
      "variation": 2291,
      "draf": 2292,
      "seek": 2293,
      "module": 2294,
      "hands": 2295,
      "surve": 2296,
      "score": 2297,
      "charges": 2298,
      "purchasing": 2299,
      "evening": 2300,
      "regular": 2301,
      "gift": 2302,
      "reflect": 2303,
      "matters": 2304,
      "laws": 2305,
      "choice": 2306,
      "choosing": 2307,
      "permitted": 2308,
      "transparent": 2309,
      "satisfied": 2310,
      "positions": 2311,
      "applies": 2312,
      "acceptability": 2313,
      "material": 2314,
      "indicate": 2315,
      "indicated": 2316,
      "adébọ́": 2317,
      "participate": 2318,
      "participating": 2319,
      "ranking": 2320,
      "behavi": 2321,
      "conversion": 2322,
      "expressions": 2323,
      "clause": 2324,
      "desired": 2325,
      "desires": 2326,
      "happ": 2327,
      "entertainment": 2328,
      "measurement": 2329,
      "prevent": 2330,
      "expertise": 2331,
      "amendment": 2332,
      "copies": 2333,
      "claimed": 2334,
      "judgment": 2335,
      "association": 2336,
      "solely": 2337,
      "affect": 2338,
      "schedules": 2339,
      "operational": 2340,
      "incurred": 2341,
      "families": 2342,
      "recognized": 2343,
      "discrepancy": 2344,
      "vendors": 2345,
      "winning": 2346,
      "young": 2347,
      "ordin": 2348,
      "contingencies": 2349,
      "check": 2350,
      "christen": 2351,
      "combined": 2352,
      "types": 2353,
      "withdrawal": 2354,
      "corruption": 2355,
      "addendum": 2356,
      "obeisance": 2357,
      "woman": 2358,
      "àyìndé": 2359,
      "insurance": 2360,
      "sealed": 2361,
      "subsequent": 2362,
      "description": 2363,
      "resources": 2364,
      "click": 2365,
      "husband": 2366,
      "wicked": 2367,
      "integr": 2368,
      "renowned": 2369,
      "envelopes": 2370,
      "demise": 2371,
      "ceremony": 2372,
      "whatever": 2373,
      "uneasiness": 2374,
      "immediately": 2375,
      "consistent": 2376,
      "equivalent": 2377,
      "adébọ́lá": 2378,
      "15": 2379,
      "30": 2380,
      "aven": 2381,
      "bó": 2382,
      "bar": 2383,
      "bers": 2384,
      "cance": 2385,
      "dí": 2386,
      "den": 2387,
      "dou": 2388,
      "dir": 2389,
      "dail": 2390,
      "ead": 2391,
      "fá": 2392,
      "fil": 2393,
      "fill": 2394,
      "gar": 2395,
      "gning": 2396,
      "hen": 2397,
      "hic": 2398,
      "haw": 2399,
      "ient": 2400,
      "jí": 2401,
      "kings": 2402,
      "knew": 2403,
      "lated": 2404,
      "mid": 2405,
      "mad": 2406,
      "mary": 2407,
      "migh": 2408,
      "ng": 2409,
      "nkẹ": 2410,
      "nká": 2411,
      "pas": 2412,
      "past": 2413,
      "rights": 2414,
      "sn": 2415,
      "sin": 2416,
      "sle": 2417,
      "sess": 2418,
      "sci": 2419,
      "saw": 2420,
      "saf": 2421,
      "sence": 2422,
      "sought": 2423,
      "treat": 2424,
      "turn": 2425,
      "text": 2426,
      "uc": 2427,
      "ue": 2428,
      "uals": 2429,
      "ured": 2430,
      "vic": 2431,
      "wr": 2432,
      "ww": 2433,
      "won": 2434,
      "wat": 2435,
      "yes": 2436,
      "yard": 2437,
      "ìy": 2438,
      "ṣin": 2439,
      "infr": 2440,
      "indu": 2441,
      "incre": 2442,
      "inland": 2443,
      "real": 2444,
      "ream": 2445,
      "remed": 2446,
      "reput": 2447,
      "resol": 2448,
      "till": 2449,
      "tify": 2450,
      "anted": 2451,
      "erion": 2452,
      "ali": 2453,
      "along": 2454,
      "pray": 2455,
      "often": 2456,
      "prospec": 2457,
      "propri": 2458,
      "ises": 2459,
      "enty": 2460,
      "entry": 2461,
      "ics": 2462,
      "today": 2463,
      "att": 2464,
      "attention": 2465,
      "iting": 2466,
      "iture": 2467,
      "acqu": 2468,
      "arise": 2469,
      "arily": 2470,
      "astru": 2471,
      "beau": 2472,
      "behave": 2473,
      "beans": 2474,
      "conven": 2475,
      "connec": 2476,
      "consum": 2477,
      "consequ": 2478,
      "stages": 2479,
      "stream": 2480,
      "leave": 2481,
      "share": 2482,
      "tration": 2483,
      "trun": 2484,
      "traded": 2485,
      "dered": 2486,
      "demon": 2487,
      "contraven": 2488,
      "compr": 2489,
      "compu": 2490,
      "compre": 2491,
      "commission": 2492,
      "abase": 2493,
      "absence": 2494,
      "size": 2495,
      "signing": 2496,
      "poor": 2497,
      "adop": 2498,
      "advis": 2499,
      "spe": 2500,
      "spare": 2501,
      "tence": 2502,
      "teness": 2503,
      "bul": 2504,
      "verse": 2505,
      "precise": 2506,
      "explan": 2507,
      "excess": 2508,
      "explain": 2509,
      "existing": 2510,
      "appoin": 2511,
      "subcontracting": 2512,
      "fron": 2513,
      "wept": 2514,
      "implic": 2515,
      "support": 2516,
      "cover": 2517,
      "minimize": 2518,
      "die": 2519,
      "supplied": 2520,
      "tings": 2521,
      "formul": 2522,
      "health": 2523,
      "cry": 2524,
      "crimin": 2525,
      "crowned": 2526,
      "dur": 2527,
      "duly": 2528,
      "corpse": 2529,
      "disas": 2530,
      "disbur": 2531,
      "distribu": 2532,
      "lier": 2533,
      "liability": 2534,
      "social": 2535,
      "missible": 2536,
      "officially": 2537,
      "box": 2538,
      "arri": 2539,
      "song": 2540,
      "responsiveness": 2541,
      "region": 2542,
      "grand": 2543,
      "twins": 2544,
      "twenty": 2545,
      "awards": 2546,
      "ains": 2547,
      "desir": 2548,
      "requesting": 2549,
      "strate": 2550,
      "select": 2551,
      "selecting": 2552,
      "declar": 2553,
      "hol": 2554,
      "hole": 2555,
      "notified": 2556,
      "reviews": 2557,
      "reviewing": 2558,
      "reject": 2559,
      "completeness": 2560,
      "setting": 2561,
      "invitations": 2562,
      "early": 2563,
      "earlier": 2564,
      "criterion": 2565,
      "update": 2566,
      "chiefs": 2567,
      "crime": 2568,
      "critically": 2569,
      "periodic": 2570,
      "termination": 2571,
      "conditional": 2572,
      "approvals": 2573,
      "closing": 2574,
      "mbly": 2575,
      "fees": 2576,
      "fellow": 2577,
      "fairly": 2578,
      "brought": 2579,
      "engage": 2580,
      "conducted": 2581,
      "effective": 2582,
      "effecting": 2583,
      "rites": 2584,
      "federation": 2585,
      "file": 2586,
      "talk": 2587,
      "particularly": 2588,
      "higher": 2589,
      "highly": 2590,
      "prepared": 2591,
      "systems": 2592,
      "estimates": 2593,
      "modify": 2594,
      "pened": 2595,
      "usual": 2596,
      "handled": 2597,
      "charge": 2598,
      "examined": 2599,
      "purchased": 2600,
      "throughout": 2601,
      "initiate": 2602,
      "efficient": 2603,
      "transfer": 2604,
      "transaction": 2605,
      "occur": 2606,
      "occurrence": 2607,
      "refuse": 2608,
      "agreements": 2609,
      "corporation": 2610,
      "corporate": 2611,
      "communication": 2612,
      "communicate": 2613,
      "bills": 2614,
      "lawful": 2615,
      "aggreg": 2616,
      "taxes": 2617,
      "obligation": 2618,
      "involving": 2619,
      "registration": 2620,
      "course": 2621,
      "greetings": 2622,
      "alternate": 2623,
      "identify": 2624,
      "performing": 2625,
      "recommendation": 2626,
      "muṣin": 2627,
      "trees": 2628,
      "suffer": 2629,
      "versity": 2630,
      "database": 2631,
      "saying": 2632,
      "questions": 2633,
      "compon": 2634,
      "sixty": 2635,
      "except": 2636,
      "prescribe": 2637,
      "kẹnkẹ": 2638,
      "organization": 2639,
      "promised": 2640,
      "start": 2641,
      "dealings": 2642,
      "university": 2643,
      "building": 2644,
      "expend": 2645,
      "expression": 2646,
      "countries": 2647,
      "tongue": 2648,
      "intends": 2649,
      "intended": 2650,
      "referred": 2651,
      "product": 2652,
      "towns": 2653,
      "assembly": 2654,
      "copy": 2655,
      "claims": 2656,
      "2007": 2657,
      "birth": 2658,
      "birds": 2659,
      "eats": 2660,
      "tasks": 2661,
      "delayed": 2662,
      "heads": 2663,
      "categories": 2664,
      "introduced": 2665,
      "attendance": 2666,
      "seventh": 2667,
      "employment": 2668,
      "heart": 2669,
      "original": 2670,
      "benef": 2671,
      "level": 2672,
      "compared": 2673,
      "companies": 2674,
      "manufactured": 2675,
      "collusion": 2676,
      "investment": 2677,
      "strict": 2678,
      "influence": 2679,
      "collected": 2680,
      "frequently": 2681,
      "narrate": 2682,
      "think": 2683,
      "termites": 2684,
      "loss": 2685,
      "budgeting": 2686,
      "achieved": 2687,
      "organizations": 2688,
      "yínká": 2689,
      "inspection": 2690,
      "incorporated": 2691,
      "deemed": 2692,
      "advantage": 2693,
      "percentage": 2694,
      "previously": 2695,
      "help": 2696,
      "hospitality": 2697,
      "elderly": 2698,
      "difficult": 2699,
      "assistance": 2700,
      "surveys": 2701,
      "behaviour": 2702,
      "happy": 2703,
      "christening": 2704,
      "hensive": 2705,
      "mighty": 2706,
      "scienti": 2707,
      "watch": 2708,
      "infrastru": 2709,
      "increase": 2710,
      "reputation": 2711,
      "prospective": 2712,
      "connection": 2713,
      "trunk": 2714,
      "demonstrate": 2715,
      "contravention": 2716,
      "comprehensive": 2717,
      "explanation": 2718,
      "appointed": 2719,
      "infrastructure": 2720,
      "ament": 2721,
      "afr": 2722,
      "atic": 2723,
      "aight": 2724,
      "bl": 2725,
      "bt": 2726,
      "bin": 2727,
      "bal": 2728,
      "blo": 2729,
      "bow": 2730,
      "bless": 2731,
      "cat": 2732,
      "cou": 2733,
      "ctr": 2734,
      "cred": 2735,
      "cident": 2736,
      "dá": 2737,
      "dù": 2738,
      "dig": 2739,
      "daw": 2740,
      "dres": 2741,
      "eag": 2742,
      "ema": 2743,
      "eigh": 2744,
      "fal": 2745,
      "fac": 2746,
      "fif": 2747,
      "few": 2748,
      "fight": 2749,
      "fish": 2750,
      "faction": 2751,
      "gl": 2752,
      "ging": 2753,
      "gone": 2754,
      "gres": 2755,
      "gins": 2756,
      "gbó": 2757,
      "hum": 2758,
      "ib": 2759,
      "iar": 2760,
      "ials": 2761,
      "kó": 2762,
      "kes": 2763,
      "kins": 2764,
      "lin": 2765,
      "ling": 2766,
      "lation": 2767,
      "lines": 2768,
      "later": 2769,
      "lined": 2770,
      "mi": 2771,
      "mp": 2772,
      "mou": 2773,
      "mper": 2774,
      "mul": 2775,
      "mands": 2776,
      "nat": 2777,
      "nul": 2778,
      "nut": 2779,
      "oce": 2780,
      "pp": 2781,
      "pou": 2782,
      "pages": 2783,
      "rat": 2784,
      "row": 2785,
      "roy": 2786,
      "san": 2787,
      "sil": 2788,
      "sam": 2789,
      "skẹ": 2790,
      "tree": 2791,
      "tale": 2792,
      "tory": 2793,
      "tled": 2794,
      "uno": 2795,
      "vary": 2796,
      "vise": 2797,
      "wo": 2798,
      "wed": 2799,
      "wis": 2800,
      "wall": 2801,
      "wailing": 2802,
      "warran": 2803,
      "yi": 2804,
      "étù": 2805,
      "òd": 2806,
      "ón": 2807,
      "ṣà": 2808,
      "ẹ́": 2809,
      "ẹskẹ": 2810,
      "thought": 2811,
      "insol": 2812,
      "rec": 2813,
      "rebe": 2814,
      "repu": 2815,
      "repe": 2816,
      "rection": 2817,
      "reven": 2818,
      "remo": 2819,
      "referent": 2820,
      "revision": 2821,
      "restric": 2822,
      "resolu": 2823,
      "ond": 2824,
      "ones": 2825,
      "onic": 2826,
      "ense": 2827,
      "enough": 2828,
      "enced": 2829,
      "tivity": 2830,
      "anced": 2831,
      "eré": 2832,
      "orus": 2833,
      "alone": 2834,
      "almighty": 2835,
      "educ": 2836,
      "prove": 2837,
      "esty": 2838,
      "ising": 2839,
      "ister": 2840,
      "entr": 2841,
      "tioned": 2842,
      "cult": 2843,
      "told": 2844,
      "tool": 2845,
      "topic": 2846,
      "andon": 2847,
      "atable": 2848,
      "atte": 2849,
      "atory": 2850,
      "attract": 2851,
      "attained": 2852,
      "idi": 2853,
      "iter": 2854,
      "itors": 2855,
      "accompan": 2856,
      "accident": 2857,
      "arn": 2858,
      "around": 2859,
      "ash": 2860,
      "asked": 2861,
      "sus": 2862,
      "susp": 2863,
      "sugar": 2864,
      "bered": 2865,
      "begin": 2866,
      "content": 2867,
      "consol": 2868,
      "fort": 2869,
      "stu": 2870,
      "stake": 2871,
      "lebr": 2872,
      "alloc": 2873,
      "shor": 2874,
      "trip": 2875,
      "troy": 2876,
      "sely": 2877,
      "separ": 2878,
      "dees": 2879,
      "detec": 2880,
      "degr": 2881,
      "devil": 2882,
      "demands": 2883,
      "celebr": 2884,
      "quick": 2885,
      "acts": 2886,
      "acting": 2887,
      "actual": 2888,
      "vehic": 2889,
      "nothing": 2890,
      "chap": 2891,
      "chorus": 2892,
      "contro": 2893,
      "control": 2894,
      "composition": 2895,
      "area": 2896,
      "areas": 2897,
      "aba": 2898,
      "abuse": 2899,
      "abandon": 2900,
      "ays": 2901,
      "poli": 2902,
      "withstanding": 2903,
      "spir": 2904,
      "units": 2905,
      "unlawful": 2906,
      "tened": 2907,
      "iry": 2908,
      "perv": 2909,
      "permissible": 2910,
      "build": 2911,
      "lot": 2912,
      "love": 2913,
      "loved": 2914,
      "dog": 2915,
      "doing": 2916,
      "doct": 2917,
      "preten": 2918,
      "preced": 2919,
      "ago": 2920,
      "ags": 2921,
      "agon": 2922,
      "publication": 2923,
      "exist": 2924,
      "valuation": 2925,
      "auction": 2926,
      "goes": 2927,
      "gold": 2928,
      "notwithstanding": 2929,
      "substitu": 2930,
      "subtract": 2931,
      "frame": 2932,
      "possi": 2933,
      "possess": 2934,
      "wel": 2935,
      "weigh": 2936,
      "imparti": 2937,
      "manag": 2938,
      "manship": 2939,
      "peace": 2940,
      "evaluations": 2941,
      "evaluates": 2942,
      "cipl": 2943,
      "estines": 2944,
      "coer": 2945,
      "cold": 2946,
      "covered": 2947,
      "coordin": 2948,
      "mind": 2949,
      "serve": 2950,
      "outlined": 2951,
      "ulent": 2952,
      "ultan": 2953,
      "whichever": 2954,
      "tears": 2955,
      "forms": 2956,
      "world": 2957,
      "net": 2958,
      "heard": 2959,
      "disqualification": 2960,
      "discus": 2961,
      "discrimin": 2962,
      "discipl": 2963,
      "urer": 2964,
      "lion": 2965,
      "lives": 2966,
      "portion": 2967,
      "soil": 2968,
      "sold": 2969,
      "owing": 2970,
      "taincy": 2971,
      "affor": 2972,
      "workmanship": 2973,
      "ticable": 2974,
      "waste": 2975,
      "willing": 2976,
      "nationally": 2977,
      "competing": 2978,
      "competence": 2979,
      "miser": 2980,
      "consists": 2981,
      "options": 2982,
      "plant": 2983,
      "planned": 2984,
      "aching": 2985,
      "acherous": 2986,
      "officials": 2987,
      "bos": 2988,
      "book": 2989,
      "thereof": 2990,
      "consultancy": 2991,
      "ferences": 2992,
      "considers": 2993,
      "presence": 2994,
      "grant": 2995,
      "granted": 2996,
      "antly": 2997,
      "gives": 2998,
      "destroy": 2999,
      "commod": 3000,
      "guide": 3001,
      "izes": 3002,
      "strateg": 3003,
      "straight": 3004,
      "decid": 3005,
      "deceas": 3006,
      "holes": 3007,
      "internationally": 3008,
      "reviewed": 3009,
      "procedural": 3010,
      "rejecting": 3011,
      "issuance": 3012,
      "aving": 3013,
      "urg": 3014,
      "ury": 3015,
      "signature": 3016,
      "elders": 3017,
      "elimin": 3018,
      "elétù": 3019,
      "rent": 3020,
      "reases": 3021,
      "certifying": 3022,
      "inviting": 3023,
      "caution": 3024,
      "timing": 3025,
      "financed": 3026,
      "surely": 3027,
      "governance": 3028,
      "eping": 3029,
      "kingdom": 3030,
      "intestines": 3031,
      "upd": 3032,
      "chieftaincy": 3033,
      "still": 3034,
      "presentation": 3035,
      "reasonably": 3036,
      "periods": 3037,
      "deliber": 3038,
      "departure": 3039,
      "evident": 3040,
      "knows": 3041,
      "obtaining": 3042,
      "governmental": 3043,
      "clothe": 3044,
      "mortal": 3045,
      "considering": 3046,
      "interests": 3047,
      "brother": 3048,
      "brief": 3049,
      "brok": 3050,
      "brags": 3051,
      "olú": 3052,
      "someone": 3053,
      "necessarily": 3054,
      "execute": 3055,
      "principal": 3056,
      "rite": 3057,
      "statements": 3058,
      "olden": 3059,
      "everyone": 3060,
      "limit": 3061,
      "talked": 3062,
      "doesn": 3063,
      "receive": 3064,
      "stipulating": 3065,
      "afflu": 3066,
      "maintaining": 3067,
      "maintained": 3068,
      "confidence": 3069,
      "confusion": 3070,
      "contains": 3071,
      "contained": 3072,
      "developing": 3073,
      "simple": 3074,
      "simultan": 3075,
      "modified": 3076,
      "penal": 3077,
      "yearly": 3078,
      "comparable": 3079,
      "negotiated": 3080,
      "numbered": 3081,
      "regards": 3082,
      "regarded": 3083,
      "certification": 3084,
      "specialized": 3085,
      "raised": 3086,
      "completely": 3087,
      "purchases": 3088,
      "parastatals": 3089,
      "shows": 3090,
      "corrections": 3091,
      "transactions": 3092,
      "engineers": 3093,
      "ruled": 3094,
      "representatives": 3095,
      "corporations": 3096,
      "designed": 3097,
      "reporting": 3098,
      "practicable": 3099,
      "offering": 3100,
      "audit": 3101,
      "audits": 3102,
      "involves": 3103,
      "similarly": 3104,
      "greeted": 3105,
      "satisfactor": 3106,
      "satisfaction": 3107,
      "sequence": 3108,
      "advance": 3109,
      "location": 3110,
      "located": 3111,
      "membership": 3112,
      "economic": 3113,
      "ethics": 3114,
      "electr": 3115,
      "tinction": 3116,
      "treated": 3117,
      "treacherous": 3118,
      "concerned": 3119,
      "soliciting": 3120,
      "marry": 3121,
      "company": 3122,
      "compati": 3123,
      "sixth": 3124,
      "describe": 3125,
      "address": 3126,
      "oss": 3127,
      "risk": 3128,
      "individuals": 3129,
      "behalf": 3130,
      "started": 3131,
      "starting": 3132,
      "true": 3133,
      "dealing": 3134,
      "universe": 3135,
      "built": 3136,
      "exped": 3137,
      "supervisor": 3138,
      "normal": 3139,
      "carefully": 3140,
      "happen": 3141,
      "ysis": 3142,
      "third": 3143,
      "confirmer": 3144,
      "confirmation": 3145,
      "omission": 3146,
      "expert": 3147,
      "exceeds": 3148,
      "amendments": 3149,
      "drawings": 3150,
      "called": 3151,
      "task": 3152,
      "aspect": 3153,
      "define": 3154,
      "defense": 3155,
      "delays": 3156,
      "crucial": 3157,
      "affected": 3158,
      "technologies": 3159,
      "approaches": 3160,
      "understanding": 3161,
      "scheduling": 3162,
      "website": 3163,
      "media": 3164,
      "introduction": 3165,
      "falls": 3166,
      "mentioned": 3167,
      "widely": 3168,
      "announ": 3169,
      "annual": 3170,
      "secure": 3171,
      "debatable": 3172,
      "exclude": 3173,
      "groundnut": 3174,
      "familiar": 3175,
      "respectively": 3176,
      "discrepancies": 3177,
      "blower": 3178,
      "farm": 3179,
      "reliable": 3180,
      "reliability": 3181,
      "ensuring": 3182,
      "enjoyed": 3183,
      "promotion": 3184,
      "promote": 3185,
      "suitable": 3186,
      "levels": 3187,
      "publishing": 3188,
      "manufacturer": 3189,
      "reduce": 3190,
      "emphas": 3191,
      "investments": 3192,
      "fundament": 3193,
      "declared": 3194,
      "break": 3195,
      "donor": 3196,
      "honour": 3197,
      "honesty": 3198,
      "slaves": 3199,
      "skills": 3200,
      "protect": 3201,
      "defective": 3202,
      "placed": 3203,
      "contribution": 3204,
      "contributions": 3205,
      "exerc": 3206,
      "usefulness": 3207,
      "advertisement": 3208,
      "programs": 3209,
      "scale": 3210,
      "sorry": 3211,
      "analysis": 3212,
      "problems": 3213,
      "conformity": 3214,
      "statistics": 3215,
      "leader": 3216,
      "meaning": 3217,
      "fraudulent": 3218,
      "week": 3219,
      "supporting": 3220,
      "seriously": 3221,
      "disputes": 3222,
      "deliverables": 3223,
      "parents": 3224,
      "draft": 3225,
      "doubt": 3226,
      "dirge": 3227,
      "daily": 3228,
      "hawking": 3229,
      "passed": 3230,
      "snake": 3231,
      "since": 3232,
      "safe": 3233,
      "treatment": 3234,
      "wrong": 3235,
      "wonder": 3236,
      "ìyá": 3237,
      "industr": 3238,
      "attached": 3239,
      "adopted": 3240,
      "speak": 3241,
      "front": 3242,
      "implications": 3243,
      "duration": 3244,
      "desirable": 3245,
      "declaration": 3246,
      "holders": 3247,
      "aggregate": 3248,
      "components": 3249,
      "expenditure": 3250,
      "benefit": 3251,
      "scientific": 3252,
      "afric": 3253,
      "binding": 3254,
      "blood": 3255,
      "blessing": 3256,
      "couple": 3257,
      "eagles": 3258,
      "eighth": 3259,
      "glory": 3260,
      "multi": 3261,
      "null": 3262,
      "ocean": 3263,
      "royal": 3264,
      "unopened": 3265,
      "wedding": 3266,
      "wisdom": 3267,
      "ẹskẹkẹnkẹ": 3268,
      "revenue": 3269,
      "revisions": 3270,
      "restricted": 3271,
      "education": 3272,
      "culture": 3273,
      "accompanied": 3274,
      "accidentally": 3275,
      "beginning": 3276,
      "stakeholders": 3277,
      "detect": 3278,
      "degrade": 3279,
      "subtracting": 3280,
      "impartial": 3281,
      "deceased": 3282,
      "deliberately": 3283,
      "brokers": 3284,
      "simultane": 3285,
      "satisfactorily": 3286,
      "14": 3287,
      "16": 3288,
      "44": 3289,
      "50": 3290,
      "84": 3291,
      "az": 3292,
      "athe": 3293,
      "bi": 3294,
      "bí": 3295,
      "bò": 3296,
      "bit": 3297,
      "ball": 3298,
      "bly": 3299,
      "bod": 3300,
      "base": 3301,
      "bpp": 3302,
      "cand": 3303,
      "ctive": 3304,
      "cill": 3305,
      "dú": 3306,
      "dil": 3307,
      "dred": 3308,
      "dwell": 3309,
      "eu": 3310,
      "ey": 3311,
      "eater": 3312,
      "fu": 3313,
      "fid": 3314,
      "foun": 3315,
      "face": 3316,
      "festi": 3317,
      "furn": 3318,
      "gall": 3319,
      "gate": 3320,
      "gers": 3321,
      "gave": 3322,
      "glu": 3323,
      "gbá": 3324,
      "hy": 3325,
      "han": 3326,
      "hat": 3327,
      "hit": 3328,
      "hab": 3329,
      "here": 3330,
      "hous": 3331,
      "having": 3332,
      "ior": 3333,
      "ito": 3334,
      "ipe": 3335,
      "iable": 3336,
      "iage": 3337,
      "ious": 3338,
      "iates": 3339,
      "iving": 3340,
      "je": 3341,
      "jù": 3342,
      "jú": 3343,
      "jẹ": 3344,
      "jal": 3345,
      "jes": 3346,
      "kn": 3347,
      "ko": 3348,
      "kí": 3349,
      "kin": 3350,
      "ken": 3351,
      "là": 3352,
      "len": 3353,
      "lab": 3354,
      "ligh": 3355,
      "leng": 3356,
      "laid": 3357,
      "mì": 3358,
      "nà": 3359,
      "nin": 3360,
      "none": 3361,
      "night": 3362,
      "og": 3363,
      "ot": 3364,
      "oil": 3365,
      "ps": 3366,
      "pac": 3367,
      "pper": 3368,
      "pag": 3369,
      "pati": 3370,
      "pair": 3371,
      "pite": 3372,
      "pains": 3373,
      "rí": 3374,
      "ral": 3375,
      "rise": 3376,
      "rẹ̀": 3377,
      "sw": 3378,
      "sá": 3379,
      "slic": 3380,
      "sings": 3381,
      "side": 3382,
      "scru": 3383,
      "sword": 3384,
      "tur": 3385,
      "treas": 3386,
      "tline": 3387,
      "tton": 3388,
      "uci": 3389,
      "uous": 3390,
      "vent": 3391,
      "vation": 3392,
      "vate": 3393,
      "vol": 3394,
      "wá": 3395,
      "wit": 3396,
      "wine": 3397,
      "warr": 3398,
      "wants": 3399,
      "yè": 3400,
      "yé": 3401,
      "yind": 3402,
      "yond": 3403,
      "zing": 3404,
      "àm": 3405,
      "àn": 3406,
      "àbá": 3407,
      "àdí": 3408,
      "àgbó": 3409,
      "àrẹ̀": 3410,
      "ádí": 3411,
      "èkó": 3412,
      "ìbò": 3413,
      "ìjẹ": 3414,
      "òlay": 3415,
      "ún": 3416,
      "ṣeré": 3417,
      "ẹjal": 3418,
      "ọlá": 3419,
      "thful": 3420,
      "threat": 3421,
      "inno": 3422,
      "intention": 3423,
      "input": 3424,
      "indirectly": 3425,
      "indeb": 3426,
      "independ": 3427,
      "intimate": 3428,
      "inhab": 3429,
      "reim": 3430,
      "reserv": 3431,
      "retain": 3432,
      "relish": 3433,
      "repul": 3434,
      "reward": 3435,
      "retribu": 3436,
      "retained": 3437,
      "reached": 3438,
      "revise": 3439,
      "reaching": 3440,
      "repair": 3441,
      "onoun": 3442,
      "ende": 3443,
      "enci": 3444,
      "enem": 3445,
      "enge": 3446,
      "envelo": 3447,
      "enjo": 3448,
      "tian": 3449,
      "tici": 3450,
      "tiful": 3451,
      "tified": 3452,
      "tidings": 3453,
      "ancill": 3454,
      "orting": 3455,
      "orum": 3456,
      "orously": 3457,
      "alá": 3458,
      "alas": 3459,
      "alleg": 3460,
      "prim": 3461,
      "pride": 3462,
      "pronoun": 3463,
      "proof": 3464,
      "prosp": 3465,
      "propose": 3466,
      "progres": 3467,
      "propag": 3468,
      "ism": 3469,
      "enters": 3470,
      "entered": 3471,
      "ically": 3472,
      "icule": 3473,
      "icient": 3474,
      "cup": 3475,
      "cuse": 3476,
      "ats": 3477,
      "ator": 3478,
      "idates": 3479,
      "itable": 3480,
      "itated": 3481,
      "arm": 3482,
      "arce": 3483,
      "arred": 3484,
      "aries": 3485,
      "arms": 3486,
      "ardees": 3487,
      "oud": 3488,
      "oup": 3489,
      "ason": 3490,
      "astr": 3491,
      "assure": 3492,
      "suspec": 3493,
      "sums": 3494,
      "bears": 3495,
      "begins": 3496,
      "beyond": 3497,
      "cont": 3498,
      "constr": 3499,
      "conference": 3500,
      "concurrence": 3501,
      "context": 3502,
      "stat": 3503,
      "stable": 3504,
      "stud": 3505,
      "stead": 3506,
      "legi": 3507,
      "leph": 3508,
      "leaves": 3509,
      "learn": 3510,
      "allenge": 3511,
      "ommid": 3512,
      "omatic": 3513,
      "shame": 3514,
      "shines": 3515,
      "trave": 3516,
      "tried": 3517,
      "sements": 3518,
      "semb": 3519,
      "season": 3520,
      "deter": 3521,
      "depreci": 3522,
      "debrief": 3523,
      "cement": 3524,
      "cease": 3525,
      "ceive": 3526,
      "quorum": 3527,
      "ilst": 3528,
      "illegal": 3529,
      "iliates": 3530,
      "ifa": 3531,
      "ifiable": 3532,
      "actually": 3533,
      "white": 3534,
      "whilst": 3535,
      "nored": 3536,
      "plo": 3537,
      "play": 3538,
      "plying": 3539,
      "chr": 3540,
      "chequ": 3541,
      "challenge": 3542,
      "mere": 3543,
      "meal": 3544,
      "merely": 3545,
      "memor": 3546,
      "entially": 3547,
      "entirely": 3548,
      "comply": 3549,
      "commiser": 3550,
      "contracted": 3551,
      "pular": 3552,
      "ared": 3553,
      "abdu": 3554,
      "abilities": 3555,
      "ablen": 3556,
      "sibl": 3557,
      "ayọ̀": 3558,
      "popular": 3559,
      "ades": 3560,
      "adap": 3561,
      "adding": 3562,
      "admon": 3563,
      "adays": 3564,
      "unto": 3565,
      "unam": 3566,
      "uncle": 3567,
      "unavailable": 3568,
      "unlikely": 3569,
      "unconditional": 3570,
      "unstable": 3571,
      "tendered": 3572,
      "odour": 3573,
      "perceive": 3574,
      "buy": 3575,
      "verification": 3576,
      "verify": 3577,
      "verifiable": 3578,
      "essay": 3579,
      "essence": 3580,
      "essors": 3581,
      "lost": 3582,
      "losing": 3583,
      "prerequisite": 3584,
      "preferences": 3585,
      "agents": 3586,
      "agenci": 3587,
      "publicly": 3588,
      "extr": 3589,
      "exchange": 3590,
      "exemp": 3591,
      "exists": 3592,
      "exclaimed": 3593,
      "extinction": 3594,
      "excuse": 3595,
      "appreci": 3596,
      "tamper": 3597,
      "valued": 3598,
      "valuable": 3599,
      "auctions": 3600,
      "authen": 3601,
      "ault": 3602,
      "amen": 3603,
      "gov": 3604,
      "note": 3605,
      "noted": 3606,
      "subs": 3607,
      "subjects": 3608,
      "posed": 3609,
      "wear": 3610,
      "impli": 3611,
      "impropri": 3612,
      "improve": 3613,
      "impracticable": 3614,
      "iga": 3615,
      "igion": 3616,
      "igorously": 3617,
      "ignored": 3618,
      "paramount": 3619,
      "parables": 3620,
      "mail": 3621,
      "pet": 3622,
      "pepper": 3623,
      "focus": 3624,
      "cion": 3625,
      "cially": 3626,
      "specification": 3627,
      "supposed": 3628,
      "core": 3629,
      "cook": 3630,
      "coinc": 3631,
      "servers": 3632,
      "direction": 3633,
      "outcome": 3634,
      "outcomes": 3635,
      "outstanding": 3636,
      "servants": 3637,
      "proposes": 3638,
      "ultimate": 3639,
      "requiring": 3640,
      "tell": 3641,
      "teleph": 3642,
      "awarding": 3643,
      "awardees": 3644,
      "uses": 3645,
      "ney": 3646,
      "near": 3647,
      "crash": 3648,
      "cross": 3649,
      "lower": 3650,
      "dug": 3651,
      "duty": 3652,
      "correspon": 3653,
      "correspond": 3654,
      "dispose": 3655,
      "dispropor": 3656,
      "disappoint": 3657,
      "discover": 3658,
      "lies": 3659,
      "live": 3660,
      "ourselves": 3661,
      "obstru": 3662,
      "observed": 3663,
      "observers": 3664,
      "history": 3665,
      "private": 3666,
      "competent": 3667,
      "ctor": 3668,
      "missing": 3669,
      "forever": 3670,
      "foreseen": 3671,
      "fav": 3672,
      "faith": 3673,
      "counter": 3674,
      "technically": 3675,
      "wherever": 3676,
      "bola": 3677,
      "boister": 3678,
      "finance": 3679,
      "findings": 3680,
      "thereby": 3681,
      "deviate": 3682,
      "whole": 3683,
      "whoever": 3684,
      "lists": 3685,
      "listing": 3686,
      "erial": 3687,
      "fulfil": 3688,
      "fulfill": 3689,
      "regist": 3690,
      "group": 3691,
      "costing": 3692,
      "competitively": 3693,
      "aint": 3694,
      "destru": 3695,
      "destitu": 3696,
      "despite": 3697,
      "commen": 3698,
      "commence": 3699,
      "processing": 3700,
      "guard": 3701,
      "izing": 3702,
      "button": 3703,
      "undertaken": 3704,
      "hotline": 3705,
      "documentary": 3706,
      "interact": 3707,
      "interim": 3708,
      "internet": 3709,
      "itemized": 3710,
      "avour": 3711,
      "urgency": 3712,
      "signific": 3713,
      "render": 3714,
      "rendered": 3715,
      "securities": 3716,
      "prioriti": 3717,
      "accounts": 3718,
      "settled": 3719,
      "governing": 3720,
      "caused": 3721,
      "causes": 3722,
      "caught": 3723,
      "monito": 3724,
      "nowadays": 3725,
      "ghommid": 3726,
      "relate": 3727,
      "religion": 3728,
      "etary": 3729,
      "mainly": 3730,
      "cribe": 3731,
      "reasonablen": 3732,
      "appropriation": 3733,
      "appropriated": 3734,
      "sections": 3735,
      "terminate": 3736,
      "terminated": 3737,
      "equitable": 3738,
      "herself": 3739,
      "release": 3740,
      "printing": 3741,
      "validly": 3742,
      "moreover": 3743,
      "clock": 3744,
      "quote": 3745,
      "changed": 3746,
      "changing": 3747,
      "feas": 3748,
      "feature": 3749,
      "factory": 3750,
      "brid": 3751,
      "bride": 3752,
      "english": 3753,
      "conducts": 3754,
      "conducting": 3755,
      "bath": 3756,
      "famous": 3757,
      "assigned": 3758,
      "suck": 3759,
      "determining": 3760,
      "determination": 3761,
      "determinations": 3762,
      "executives": 3763,
      "effects": 3764,
      "letins": 3765,
      "overrid": 3766,
      "additions": 3767,
      "authorized": 3768,
      "establishing": 3769,
      "everything": 3770,
      "fire": 3771,
      "talks": 3772,
      "allows": 3773,
      "mark": 3774,
      "varied": 3775,
      "orders": 3776,
      "login": 3777,
      "logical": 3778,
      "systema": 3779,
      "casing": 3780,
      "casted": 3781,
      "summary": 3782,
      "stipulate": 3783,
      "stipulations": 3784,
      "credi": 3785,
      "created": 3786,
      "highligh": 3787,
      "site": 3788,
      "affiliates": 3789,
      "failed": 3790,
      "failings": 3791,
      "maintains": 3792,
      "variety": 3793,
      "himself": 3794,
      "mothers": 3795,
      "visitor": 3796,
      "visible": 3797,
      "visitors": 3798,
      "ished": 3799,
      "confused": 3800,
      "developed": 3801,
      "extending": 3802,
      "extensive": 3803,
      "wealthy": 3804,
      "mostly": 3805,
      "differently": 3806,
      "dry": 3807,
      "drop": 3808,
      "supersed": 3809,
      "placement": 3810,
      "circular": 3811,
      "capital": 3812,
      "capabilities": 3813,
      "panel": 3814,
      "sources": 3815,
      "profit": 3816,
      "proficient": 3817,
      "professors": 3818,
      "negotiate": 3819,
      "greater": 3820,
      "handle": 3821,
      "numbers": 3822,
      "resulting": 3823,
      "community": 3824,
      "certificates": 3825,
      "budgetary": 3826,
      "scores": 3827,
      "staffing": 3828,
      "imported": 3829,
      "specialist": 3830,
      "circulated": 3831,
      "bájù": 3832,
      "godlike": 3833,
      "raise": 3834,
      "better": 3835,
      "webs": 3836,
      "tests": 3837,
      "initiation": 3838,
      "showcasing": 3839,
      "posted": 3840,
      "burs": 3841,
      "burden": 3842,
      "implemented": 3843,
      "corrected": 3844,
      "corrective": 3845,
      "regulation": 3846,
      "guides": 3847,
      "guidance": 3848,
      "transmit": 3849,
      "translation": 3850,
      "occup": 3851,
      "package": 3852,
      "ruler": 3853,
      "ọ́n": 3854,
      "refuses": 3855,
      "anguish": 3856,
      "sheet": 3857,
      "designated": 3858,
      "communications": 3859,
      "choose": 3860,
      "solicited": 3861,
      "obliged": 3862,
      "involve": 3863,
      "court": 3864,
      "operate": 3865,
      "operating": 3866,
      "stops": 3867,
      "satisfying": 3868,
      "offence": 3869,
      "advances": 3870,
      "advanced": 3871,
      "performed": 3872,
      "indicating": 3873,
      "bankrup": 3874,
      "recommendations": 3875,
      "central": 3876,
      "elects": 3877,
      "roof": 3878,
      "role": 3879,
      "tiny": 3880,
      "concerning": 3881,
      "disclose": 3882,
      "monthly": 3883,
      "guideline": 3884,
      "divided": 3885,
      "solicitations": 3886,
      "guarantees": 3887,
      "background": 3888,
      "backyard": 3889,
      "justifying": 3890,
      "justify": 3891,
      "láyé": 3892,
      "legacy": 3893,
      "shortlist": 3894,
      "shortlisted": 3895,
      "compil": 3896,
      "society": 3897,
      "prescribing": 3898,
      "describing": 3899,
      "notifications": 3900,
      "participation": 3901,
      "situations": 3902,
      "professionals": 3903,
      "investigations": 3904,
      "category": 3905,
      "easy": 3906,
      "kills": 3907,
      "killed": 3908,
      "instruction": 3909,
      "institution": 3910,
      "institutions": 3911,
      "behaves": 3912,
      "converted": 3913,
      "conversely": 3914,
      "construed": 3915,
      "constructed": 3916,
      "trader": 3917,
      "truthful": 3918,
      "builders": 3919,
      "buildings": 3920,
      "expiry": 3921,
      "expressed": 3922,
      "emergen": 3923,
      "complexity": 3924,
      "registers": 3925,
      "careful": 3926,
      "pict": 3927,
      "picked": 3928,
      "sentenced": 3929,
      "tonight": 3930,
      "ysical": 3931,
      "produce": 3932,
      "confirmed": 3933,
      "measure": 3934,
      "prevail": 3935,
      "prevailing": 3936,
      "experts": 3937,
      "amongst": 3938,
      "methodologies": 3939,
      "calling": 3940,
      "creatures": 3941,
      "déṣeré": 3942,
      "yìwá": 3943,
      "proverbs": 3944,
      "associated": 3945,
      "default": 3946,
      "looks": 3947,
      "looked": 3948,
      "maximize": 3949,
      "cruel": 3950,
      "graveyard": 3951,
      "achievement": 3952,
      "categorization": 3953,
      "195": 3954,
      "1944": 3955,
      "1984": 3956,
      "brings": 3957,
      "bringing": 3958,
      "falling": 3959,
      "hunter": 3960,
      "hundred": 3961,
      "increases": 3962,
      "incurring": 3963,
      "annually": 3964,
      "attended": 3965,
      "sundry": 3966,
      "believe": 3967,
      "debarred": 3968,
      "excluding": 3969,
      "excluded": 3970,
      "hearken": 3971,
      "fullest": 3972,
      "returns": 3973,
      "functionality": 3974,
      "concerns": 3975,
      "biguous": 3976,
      "blowing": 3977,
      "blacklisted": 3978,
      "hiring": 3979,
      "hired": 3980,
      "múrí": 3981,
      "múyìwá": 3982,
      "physical": 3983,
      "passes": 3984,
      "password": 3985,
      "vendor": 3986,
      "winner": 3987,
      "younger": 3988,
      "install": 3989,
      "instance": 3990,
      "instead": 3991,
      "ensured": 3992,
      "enjoyment": 3993,
      "ordinary": 3994,
      "customer": 3995,
      "customary": 3996,
      "suitability": 3997,
      "contingency": 3998,
      "seller": 3999,
      "selling": 4000,
      "checked": 4001,
      "christian": 4002,
      "typical": 4003,
      "published": 4004,
      "reduced": 4005,
      "empty": 4006,
      "corrupt": 4007,
      "constitute": 4008,
      "constitutes": 4009,
      "constituents": 4010,
      "addendums": 4011,
      "confidentiality": 4012,
      "relationships": 4013,
      "influences": 4014,
      "collects": 4015,
      "continue": 4016,
      "continued": 4017,
      "frequent": 4018,
      "joined": 4019,
      "kábá": 4020,
      "palm": 4021,
      "ridicule": 4022,
      "wait": 4023,
      "thinking": 4024,
      "encourage": 4025,
      "encouraged": 4026,
      "protects": 4027,
      "defect": 4028,
      "places": 4029,
      "termite": 4030,
      "exercise": 4031,
      "appear": 4032,
      "appeals": 4033,
      "worthy": 4034,
      "holds": 4035,
      "achieving": 4036,
      "smelling": 4037,
      "organizing": 4038,
      "freeborn": 4039,
      "merit": 4040,
      "scarce": 4041,
      "wishes": 4042,
      "analy": 4043,
      "proportions": 4044,
      "problem": 4045,
      "accurate": 4046,
      "accurately": 4047,
      "conclusion": 4048,
      "conclusions": 4049,
      "statistical": 4050,
      "leaders": 4051,
      "weeks": 4052,
      "supported": 4053,
      "serious": 4054,
      "classified": 4055,
      "correctly": 4056,
      "dispute": 4057,
      "solution": 4058,
      "stranger": 4059,
      "strangers": 4060,
      "relatively": 4061,
      "parent": 4062,
      "broad": 4063,
      "broke": 4064,
      "drafted": 4065,
      "regularly": 4066,
      "integrity": 4067,
      "bariga": 4068,
      "cancelled": 4069,
      "ngbọ́": 4070,
      "sleep": 4071,
      "victim": 4072,
      "www": 4073,
      "realis": 4074,
      "remedies": 4075,
      "resolve": 4076,
      "resolved": 4077,
      "alia": 4078,
      "alike": 4079,
      "alongside": 4080,
      "prayer": 4081,
      "proprietary": 4082,
      "acquis": 4083,
      "beauty": 4084,
      "beautiful": 4085,
      "convene": 4086,
      "consumables": 4087,
      "consequently": 4088,
      "comprise": 4089,
      "comprising": 4090,
      "computer": 4091,
      "bulletins": 4092,
      "formulate": 4093,
      "disaster": 4094,
      "disbursed": 4095,
      "disbursements": 4096,
      "distributed": 4097,
      "distribute": 4098,
      "arrives": 4099,
      "regions": 4100,
      "grandmother": 4101,
      "strictly": 4102,
      "balance": 4103,
      "catastr": 4104,
      "credit": 4105,
      "dawn": 4106,
      "false": 4107,
      "facil": 4108,
      "fifth": 4109,
      "humility": 4110,
      "ibú": 4111,
      "linked": 4112,
      "mpered": 4113,
      "mouth": 4114,
      "natural": 4115,
      "poured": 4116,
      "sanctions": 4117,
      "silver": 4118,
      "sample": 4119,
      "warranties": 4120,
      "òdìbò": 4121,
      "ónibú": 4122,
      "rebels": 4123,
      "reputable": 4124,
      "repeat": 4125,
      "resolutions": 4126,
      "entrance": 4127,
      "topics": 4128,
      "attempt": 4129,
      "idiomatic": 4130,
      "iterative": 4131,
      "consolidated": 4132,
      "fortun": 4133,
      "studies": 4134,
      "allocated": 4135,
      "separate": 4136,
      "celebration": 4137,
      "vehicles": 4138,
      "chapter": 4139,
      "controlled": 4140,
      "politici": 4141,
      "spirit": 4142,
      "pervades": 4143,
      "doctors": 4144,
      "precedent": 4145,
      "agonized": 4146,
      "substitute": 4147,
      "welcome": 4148,
      "weighting": 4149,
      "managerial": 4150,
      "coercion": 4151,
      "discipline": 4152,
      "affords": 4153,
      "bosom": 4154,
      "books": 4155,
      "destroyed": 4156,
      "commodities": 4157,
      "strategic": 4158,
      "straightforward": 4159,
      "decided": 4160,
      "urgent": 4161,
      "updated": 4162,
      "olúmúyìwá": 4163,
      "affluent": 4164,
      "penalties": 4165,
      "electronic": 4166,
      "compatibility": 4167,
      "manufacturers": 4168,
      "emphasized": 4169,
      "fundamental": 4170,
      "breakdown": 4171,
      "exercised": 4172,
      "wonderful": 4173,
      "africa": 4174,
      "educational": 4175,
      "simultaneously": 4176,
      "candidates": 4177,
      "eye": 4178,
      "fuel": 4179,
      "fiduci": 4180,
      "founded": 4181,
      "festival": 4182,
      "furnish": 4183,
      "glutton": 4184,
      "gbádéṣeré": 4185,
      "hypo": 4186,
      "knife": 4187,
      "length": 4188,
      "ninth": 4189,
      "sátù": 4190,
      "turbul": 4191,
      "treasury": 4192,
      "warrant": 4193,
      "yindin": 4194,
      "àdísátù": 4195,
      "àgbókí": 4196,
      "àrẹ̀mú": 4197,
      "ádífá": 4198,
      "ìjẹṣà": 4199,
      "òlayé": 4200,
      "ẹjalónibú": 4201,
      "innovation": 4202,
      "indebted": 4203,
      "independent": 4204,
      "reimburs": 4205,
      "retribution": 4206,
      "endeavour": 4207,
      "envelope": 4208,
      "enjoying": 4209,
      "ancillary": 4210,
      "allegations": 4211,
      "progress": 4212,
      "sembl": 4213,
      "depreciation": 4214,
      "playing": 4215,
      "cheque": 4216,
      "commiserate": 4217,
      "abductor": 4218,
      "siblings": 4219,
      "adapt": 4220,
      "admonition": 4221,
      "unambiguous": 4222,
      "agenciess": 4223,
      "exempted": 4224,
      "appreciate": 4225,
      "authentic": 4226,
      "implies": 4227,
      "impropriety": 4228,
      "improvements": 4229,
      "telephone": 4230,
      "corresponding": 4231,
      "disproportion": 4232,
      "obstructed": 4233,
      "boisterous": 4234,
      "registered": 4235,
      "destruction": 4236,
      "destitute": 4237,
      "monitored": 4238,
      "reasonableness": 4239,
      "overriding": 4240,
      "systematic": 4241,
      "bájùláyé": 4242,
      "bankrupt": 4243,
      "catastrop": 4244,
      "olúmúyìwáá": 4245,
      "fiduciary": 4246,
      "03": 4247,
      "11": 4248,
      "12": 4249,
      "21": 4250,
      "24": 4251,
      "35": 4252,
      "48": 4253,
      "58": 4254,
      "59": 4255,
      "60": 4256,
      "70": 4257,
      "74": 4258,
      "80": 4259,
      "90": 4260,
      "aj": 4261,
      "aun": 4262,
      "aver": 4263,
      "afore": 4264,
      "aking": 4265,
      "aders": 4266,
      "atimes": 4267,
      "ají": 4268,
      "aaba": 4269,
      "bs": 4270,
      "bì": 4271,
      "bù": 4272,
      "bes": 4273,
      "bent": 4274,
      "bat": 4275,
      "bom": 4276,
      "bil": 4277,
      "bity": 4278,
      "bour": 4279,
      "barr": 4280,
      "bind": 4281,
      "bound": 4282,
      "bweb": 4283,
      "bought": 4284,
      "bọ̀": 4285,
      "bla": 4286,
      "bones": 4287,
      "bàbá": 4288,
      "car": 4289,
      "cad": 4290,
      "cod": 4291,
      "card": 4292,
      "cres": 4293,
      "cass": 4294,
      "ctivity": 4295,
      "dy": 4296,
      "dè": 4297,
      "dare": 4298,
      "dau": 4299,
      "dest": 4300,
      "dul": 4301,
      "dying": 4302,
      "dability": 4303,
      "dles": 4304,
      "ee": 4305,
      "eg": 4306,
      "eer": 4307,
      "eit": 4308,
      "elic": 4309,
      "ets": 4310,
      "efic": 4311,
      "eous": 4312,
      "eves": 4313,
      "eight": 4314,
      "eply": 4315,
      "fp": 4316,
      "fre": 4317,
      "fing": 4318,
      "fit": 4319,
      "fou": 4320,
      "fare": 4321,
      "fab": 4322,
      "fig": 4323,
      "fine": 4324,
      "fel": 4325,
      "fear": 4326,
      "flu": 4327,
      "fought": 4328,
      "fẹ̀": 4329,
      "freed": 4330,
      "gf": 4331,
      "gì": 4332,
      "gthe": 4333,
      "gor": 4334,
      "gle": 4335,
      "gir": 4336,
      "gam": 4337,
      "gest": 4338,
      "gred": 4339,
      "gered": 4340,
      "glim": 4341,
      "gges": 4342,
      "gbọ́": 4343,
      "glit": 4344,
      "gaz": 4345,
      "gathe": 4346,
      "gún": 4347,
      "ht": 4348,
      "hí": 4349,
      "hor": 4350,
      "hes": 4351,
      "har": 4352,
      "hall": 4353,
      "hate": 4354,
      "hau": 4355,
      "hard": 4356,
      "hill": 4357,
      "hour": 4358,
      "hance": 4359,
      "hur": 4360,
      "hered": 4361,
      "hates": 4362,
      "hater": 4363,
      "half": 4364,
      "iy": 4365,
      "ire": 4366,
      "ian": 4367,
      "iver": 4368,
      "ivi": 4369,
      "ired": 4370,
      "ius": 4371,
      "ives": 4372,
      "itions": 4373,
      "ipul": 4374,
      "ibility": 4375,
      "iber": 4376,
      "iously": 4377,
      "ibad": 4378,
      "ikes": 4379,
      "ijes": 4380,
      "ibola": 4381,
      "ieves": 4382,
      "ju": 4383,
      "jun": 4384,
      "jim": 4385,
      "job": 4386,
      "jew": 4387,
      "jet": 4388,
      "jump": 4389,
      "kú": 4390,
      "kan": 4391,
      "kil": 4392,
      "knot": 4393,
      "kne": 4394,
      "kọ́": 4395,
      "kàn": 4396,
      "lú": 4397,
      "lat": 4398,
      "lad": 4399,
      "lod": 4400,
      "lter": 4401,
      "lap": 4402,
      "lam": 4403,
      "lations": 4404,
      "lust": 4405,
      "light": 4406,
      "lative": 4407,
      "liness": 4408,
      "laud": 4409,
      "lẹ̀": 4410,
      "lences": 4411,
      "llion": 4412,
      "mr": 4413,
      "mal": 4414,
      "ming": 4415,
      "mec": 4416,
      "mil": 4417,
      "mun": 4418,
      "mess": 4419,
      "mag": 4420,
      "moun": 4421,
      "mers": 4422,
      "mill": 4423,
      "mus": 4424,
      "mour": 4425,
      "mend": 4426,
      "mach": 4427,
      "mous": 4428,
      "mates": 4429,
      "mness": 4430,
      "miti": 4431,
      "mouse": 4432,
      "mously": 4433,
      "muni": 4434,
      "mọ̀": 4435,
      "mẹ́": 4436,
      "mgbọ́": 4437,
      "nt": 4438,
      "nic": 4439,
      "nom": 4440,
      "nch": 4441,
      "nly": 4442,
      "ners": 4443,
      "nally": 4444,
      "nine": 4445,
      "nify": 4446,
      "nive": 4447,
      "next": 4448,
      "nmeal": 4449,
      "nkọ́": 4450,
      "oh": 4451,
      "oth": 4452,
      "ots": 4453,
      "oice": 4454,
      "oke": 4455,
      "ote": 4456,
      "olish": 4457,
      "ool": 4458,
      "oath": 4459,
      "ogue": 4460,
      "ojú": 4461,
      "ological": 4462,
      "pà": 4463,
      "pọ": 4464,
      "pin": 4465,
      "pat": 4466,
      "pity": 4467,
      "pted": 4468,
      "pard": 4469,
      "pig": 4470,
      "pals": 4471,
      "pill": 4472,
      "pour": 4473,
      "phas": 4474,
      "pms": 4475,
      "ptions": 4476,
      "path": 4477,
      "pater": 4478,
      "papers": 4479,
      "pẹ́": 4480,
      "pius": 4481,
      "rá": 4482,
      "rì": 4483,
      "rọ": 4484,
      "ric": 4485,
      "rif": 4486,
      "rare": 4487,
      "run": 4488,
      "rod": 4489,
      "rag": 4490,
      "rap": 4491,
      "rated": 4492,
      "raw": 4493,
      "rally": 4494,
      "rob": 4495,
      "rine": 4496,
      "rain": 4497,
      "rav": 4498,
      "rati": 4499,
      "rol": 4500,
      "race": 4501,
      "rule": 4502,
      "rans": 4503,
      "rọ̀": 4504,
      "rics": 4505,
      "rón": 4506,
      "ripe": 4507,
      "rigorously": 4508,
      "rfp": 4509,
      "river": 4510,
      "sè": 4511,
      "sí": 4512,
      "sù": 4513,
      "sọ": 4514,
      "sis": 4515,
      "sac": 4516,
      "sou": 4517,
      "spl": 4518,
      "ssi": 4519,
      "spo": 4520,
      "sad": 4521,
      "swe": 4522,
      "ske": 4523,
      "save": 4524,
      "sli": 4525,
      "smo": 4526,
      "sain": 4527,
      "spur": 4528,
      "stim": 4529,
      "smar": 4530,
      "scho": 4531,
      "spot": 4532,
      "sick": 4533,
      "sands": 4534,
      "sister": 4535,
      "skin": 4536,
      "sgf": 4537,
      "tp": 4538,
      "tations": 4539,
      "test": 4540,
      "tered": 4541,
      "tors": 4542,
      "tabo": 4543,
      "toff": 4544,
      "tables": 4545,
      "turned": 4546,
      "tling": 4547,
      "tẹ́": 4548,
      "tarn": 4549,
      "tọ́n": 4550,
      "uit": 4551,
      "utic": 4552,
      "uine": 4553,
      "uating": 4554,
      "uched": 4555,
      "uced": 4556,
      "uja": 4557,
      "uists": 4558,
      "uck": 4559,
      "ught": 4560,
      "uplo": 4561,
      "vy": 4562,
      "vac": 4563,
      "vag": 4564,
      "vain": 4565,
      "vide": 4566,
      "voc": 4567,
      "vital": 4568,
      "void": 4569,
      "vigorously": 4570,
      "vote": 4571,
      "wà": 4572,
      "wó": 4573,
      "wọ": 4574,
      "wer": 4575,
      "wal": 4576,
      "wid": 4577,
      "ware": 4578,
      "west": 4579,
      "wave": 4580,
      "wered": 4581,
      "wret": 4582,
      "wind": 4583,
      "wadd": 4584,
      "wound": 4585,
      "wade": 4586,
      "wins": 4587,
      "wake": 4588,
      "wanted": 4589,
      "warri": 4590,
      "wipe": 4591,
      "xible": 4592,
      "yer": 4593,
      "yọ́": 4594,
      "yaba": 4595,
      "yaaba": 4596,
      "ymously": 4597,
      "yrics": 4598,
      "zed": 4599,
      "zone": 4600,
      "àfin": 4601,
      "àyi": 4602,
      "àlà": 4603,
      "ààm": 4604,
      "àkàn": 4605,
      "ámú": 4606,
      "ádù": 4607,
      "élé": 4608,
      "ìṣ": 4609,
      "ìsà": 4610,
      "ìlos": 4611,
      "ìmì": 4612,
      "ìrá": 4613,
      "ìtọ́n": 4614,
      "ímb": 4615,
      "ítal": 4616,
      "ídù": 4617,
      "ími": 4618,
      "ípọ": 4619,
      "ògbó": 4620,
      "òrón": 4621,
      "óyínká": 4622,
      "ódú": 4623,
      "ùn": 4624,
      "úsù": 4625,
      "ṣọ́": 4626,
      "ṣìrá": 4627,
      "ṣóyínká": 4628,
      "thom": 4629,
      "thwith": 4630,
      "thous": 4631,
      "though": 4632,
      "thieves": 4633,
      "thed": 4634,
      "thema": 4635,
      "theless": 4636,
      "thesis": 4637,
      "ina": 4638,
      "inde": 4639,
      "inqu": 4640,
      "insi": 4641,
      "insp": 4642,
      "inations": 4643,
      "inser": 4644,
      "inated": 4645,
      "insul": 4646,
      "inion": 4647,
      "infin": 4648,
      "inating": 4649,
      "intim": 4650,
      "indecision": 4651,
      "invalid": 4652,
      "income": 4653,
      "instances": 4654,
      "inefficiency": 4655,
      "indifference": 4656,
      "inadequate": 4657,
      "inaccurate": 4658,
      "rew": 4659,
      "rear": 4660,
      "reve": 4661,
      "really": 4662,
      "reaf": 4663,
      "recoun": 4664,
      "referen": 4665,
      "rease": 4666,
      "reminis": 4667,
      "reav": 4668,
      "revis": 4669,
      "replace": 4670,
      "remember": 4671,
      "reply": 4672,
      "recru": 4673,
      "rears": 4674,
      "rejo": 4675,
      "reserved": 4676,
      "reverse": 4677,
      "reiter": 4678,
      "readers": 4679,
      "remun": 4680,
      "revoc": 4681,
      "onological": 4682,
      "onymously": 4683,
      "eni": 4684,
      "enor": 4685,
      "ened": 4686,
      "enfor": 4687,
      "ending": 4688,
      "ension": 4689,
      "enous": 4690,
      "enforce": 4691,
      "encry": 4692,
      "enhan": 4693,
      "enhance": 4694,
      "envy": 4695,
      "tie": 4696,
      "tims": 4697,
      "tious": 4698,
      "tible": 4699,
      "title": 4700,
      "tight": 4701,
      "ana": 4702,
      "ank": 4703,
      "aning": 4704,
      "anity": 4705,
      "anim": 4706,
      "antive": 4707,
      "anting": 4708,
      "anus": 4709,
      "ancy": 4710,
      "anthr": 4711,
      "anger": 4712,
      "aneous": 4713,
      "anonymously": 4714,
      "ert": 4715,
      "ery": 4716,
      "eric": 4717,
      "erce": 4718,
      "erally": 4719,
      "eries": 4720,
      "ernal": 4721,
      "ernly": 4722,
      "oro": 4723,
      "orde": 4724,
      "orable": 4725,
      "orage": 4726,
      "oratory": 4727,
      "aling": 4728,
      "alous": 4729,
      "alities": 4730,
      "almost": 4731,
      "alantly": 4732,
      "aloud": 4733,
      "alogue": 4734,
      "alert": 4735,
      "ingly": 4736,
      "edged": 4737,
      "projec": 4738,
      "provers": 4739,
      "prosecu": 4740,
      "prohi": 4741,
      "protract": 4742,
      "probity": 4743,
      "eske": 4744,
      "escap": 4745,
      "escal": 4746,
      "isy": 4747,
      "isure": 4748,
      "isive": 4749,
      "islam": 4750,
      "entail": 4751,
      "tioners": 4752,
      "icy": 4753,
      "icion": 4754,
      "iciously": 4755,
      "culate": 4756,
      "cutoff": 4757,
      "too": 4758,
      "top": 4759,
      "tore": 4760,
      "tous": 4761,
      "tomor": 4762,
      "towel": 4763,
      "tomates": 4764,
      "ander": 4765,
      "andum": 4766,
      "andrew": 4767,
      "ata": 4768,
      "atures": 4769,
      "attor": 4770,
      "mentation": 4771,
      "idim": 4772,
      "idating": 4773,
      "idents": 4774,
      "itre": 4775,
      "itation": 4776,
      "itec": 4777,
      "itly": 4778,
      "itate": 4779,
      "itted": 4780,
      "itting": 4781,
      "itures": 4782,
      "itants": 4783,
      "itself": 4784,
      "acking": 4785,
      "acces": 4786,
      "actics": 4787,
      "accru": 4788,
      "accommod": 4789,
      "arter": 4790,
      "aram": 4791,
      "arnation": 4792,
      "arning": 4793,
      "arose": 4794,
      "armed": 4795,
      "argue": 4796,
      "arrest": 4797,
      "arrears": 4798,
      "ationery": 4799,
      "outed": 4800,
      "asing": 4801,
      "asset": 4802,
      "assing": 4803,
      "asok": 4804,
      "aside": 4805,
      "assum": 4806,
      "assur": 4807,
      "asive": 4808,
      "sule": 4809,
      "suant": 4810,
      "superi": 4811,
      "suited": 4812,
      "sugges": 4813,
      "beg": 4814,
      "beat": 4815,
      "betr": 4816,
      "bellow": 4817,
      "befe": 4818,
      "beater": 4819,
      "began": 4820,
      "belly": 4821,
      "beloved": 4822,
      "beats": 4823,
      "bereav": 4824,
      "condo": 4825,
      "conso": 4826,
      "concep": 4827,
      "concre": 4828,
      "contention": 4829,
      "convers": 4830,
      "consecu": 4831,
      "conut": 4832,
      "confron": 4833,
      "conjun": 4834,
      "connive": 4835,
      "forty": 4836,
      "forts": 4837,
      "forfe": 4838,
      "forget": 4839,
      "forwar": 4840,
      "forgot": 4841,
      "forthwith": 4842,
      "sts": 4843,
      "sty": 4844,
      "sted": 4845,
      "stab": 4846,
      "stay": 4847,
      "stun": 4848,
      "stings": 4849,
      "stres": 4850,
      "stren": 4851,
      "stating": 4852,
      "static": 4853,
      "stays": 4854,
      "stared": 4855,
      "sternly": 4856,
      "storage": 4857,
      "stationery": 4858,
      "letion": 4859,
      "levi": 4860,
      "leaf": 4861,
      "levity": 4862,
      "leaving": 4863,
      "lexible": 4864,
      "leisure": 4865,
      "learning": 4866,
      "allied": 4867,
      "omitted": 4868,
      "shed": 4869,
      "shel": 4870,
      "shoc": 4871,
      "shak": 4872,
      "shots": 4873,
      "shrine": 4874,
      "shouted": 4875,
      "try": 4876,
      "tral": 4877,
      "trad": 4878,
      "trig": 4879,
      "trum": 4880,
      "trous": 4881,
      "trail": 4882,
      "trates": 4883,
      "trying": 4884,
      "trivi": 4885,
      "tracking": 4886,
      "seer": 4887,
      "sever": 4888,
      "sets": 4889,
      "seman": 4890,
      "seated": 4891,
      "seem": 4892,
      "seats": 4893,
      "dear": 4894,
      "delic": 4895,
      "depos": 4896,
      "dejec": 4897,
      "deference": 4898,
      "defer": 4899,
      "defi": 4900,
      "dethr": 4901,
      "degree": 4902,
      "deleg": 4903,
      "dels": 4904,
      "demobilization": 4905,
      "deyi": 4906,
      "deeply": 4907,
      "detest": 4908,
      "deletion": 4909,
      "cell": 4910,
      "que": 4911,
      "quite": 4912,
      "quarter": 4913,
      "iles": 4914,
      "ilanthr": 4915,
      "iff": 4916,
      "ift": 4917,
      "ifts": 4918,
      "dern": 4919,
      "dership": 4920,
      "derive": 4921,
      "deriving": 4922,
      "derives": 4923,
      "actly": 4924,
      "veget": 4925,
      "vetous": 4926,
      "noon": 4927,
      "noble": 4928,
      "noises": 4929,
      "pling": 4930,
      "plified": 4931,
      "plates": 4932,
      "pluck": 4933,
      "ploratory": 4934,
      "ches": 4935,
      "chim": 4936,
      "chase": 4937,
      "chur": 4938,
      "chures": 4939,
      "chose": 4940,
      "cheat": 4941,
      "chick": 4942,
      "chalantly": 4943,
      "chasing": 4944,
      "contrary": 4945,
      "contrast": 4946,
      "controver": 4947,
      "mely": 4948,
      "meals": 4949,
      "entive": 4950,
      "entitled": 4951,
      "compromis": 4952,
      "complic": 4953,
      "compromise": 4954,
      "compromised": 4955,
      "complying": 4956,
      "typic": 4957,
      "pupose": 4958,
      "purely": 4959,
      "punch": 4960,
      "arer": 4961,
      "aborig": 4962,
      "absor": 4963,
      "ababa": 4964,
      "abdul": 4965,
      "abuja": 4966,
      "abímb": 4967,
      "abeni": 4968,
      "sial": 4969,
      "sies": 4970,
      "sight": 4971,
      "sitivity": 4972,
      "ayal": 4973,
      "ayool": 4974,
      "ayítal": 4975,
      "pox": 4976,
      "pover": 4977,
      "pots": 4978,
      "potent": 4979,
      "power": 4980,
      "ading": 4981,
      "adder": 4982,
      "addis": 4983,
      "administer": 4984,
      "admissible": 4985,
      "adhered": 4986,
      "adorable": 4987,
      "withhold": 4988,
      "specu": 4989,
      "space": 4990,
      "spread": 4991,
      "spending": 4992,
      "unte": 4993,
      "unus": 4994,
      "unfore": 4995,
      "unused": 4996,
      "unresponsive": 4997,
      "unfair": 4998,
      "unauthor": 4999,
      "unsuccessful": 5000,
      "unclear": 5001,
      "unsigned": 5002,
      "undone": 5003,
      "unaware": 5004,
      "uncertain": 5005,
      "unrelated": 5006,
      "unethical": 5007,
      "uninvited": 5008,
      "unascertain": 5009,
      "unusual": 5010,
      "unbal": 5011,
      "uncontro": 5012,
      "undoing": 5013,
      "unreasonably": 5014,
      "unsatisfactorily": 5015,
      "unscru": 5016,
      "unfortun": 5017,
      "unfounded": 5018,
      "unripe": 5019,
      "unshak": 5020,
      "tend": 5021,
      "tenth": 5022,
      "lying": 5023,
      "iron": 5024,
      "iration": 5025,
      "irregular": 5026,
      "irrevoc": 5027,
      "odious": 5028,
      "odòlayé": 5029,
      "perpe": 5030,
      "perspec": 5031,
      "pertain": 5032,
      "permission": 5033,
      "pertin": 5034,
      "perhap": 5035,
      "term": 5036,
      "territ": 5037,
      "bush": 5038,
      "busy": 5039,
      "buys": 5040,
      "vering": 5041,
      "vership": 5042,
      "versal": 5043,
      "versus": 5044,
      "verbos": 5045,
      "essing": 5046,
      "essentially": 5047,
      "loan": 5048,
      "lose": 5049,
      "lots": 5050,
      "logi": 5051,
      "loses": 5052,
      "loot": 5053,
      "loading": 5054,
      "dove": 5055,
      "pretender": 5056,
      "preserv": 5057,
      "preclu": 5058,
      "pregn": 5059,
      "precau": 5060,
      "precondition": 5061,
      "prefer": 5062,
      "prejud": 5063,
      "predetermined": 5064,
      "pretence": 5065,
      "premi": 5066,
      "pretations": 5067,
      "agers": 5068,
      "agance": 5069,
      "agún": 5070,
      "agitated": 5071,
      "agrap": 5072,
      "publicity": 5073,
      "publications": 5074,
      "publicize": 5075,
      "expos": 5076,
      "exem": 5077,
      "expen": 5078,
      "expan": 5079,
      "extern": 5080,
      "extre": 5081,
      "explic": 5082,
      "extinguish": 5083,
      "explo": 5084,
      "exhau": 5085,
      "exactly": 5086,
      "exploratory": 5087,
      "apse": 5088,
      "apple": 5089,
      "apparent": 5090,
      "tampered": 5091,
      "taught": 5092,
      "automates": 5093,
      "amed": 5094,
      "amity": 5095,
      "ample": 5096,
      "amond": 5097,
      "amaz": 5098,
      "ammuni": 5099,
      "goat": 5100,
      "goals": 5101,
      "gossi": 5102,
      "goitre": 5103,
      "bye": 5104,
      "anytime": 5105,
      "anywhere": 5106,
      "subjec": 5107,
      "subcontractor": 5108,
      "subtle": 5109,
      "subordin": 5110,
      "frust": 5111,
      "frog": 5112,
      "fruit": 5113,
      "weep": 5114,
      "weak": 5115,
      "weights": 5116,
      "weeping": 5117,
      "iman": 5118,
      "imal": 5119,
      "imate": 5120,
      "improv": 5121,
      "imply": 5122,
      "imizes": 5123,
      "impotent": 5124,
      "igenous": 5125,
      "party": 5126,
      "parame": 5127,
      "partak": 5128,
      "paraded": 5129,
      "paragrap": 5130,
      "maid": 5131,
      "makes": 5132,
      "mathema": 5133,
      "manned": 5134,
      "manipul": 5135,
      "peeping": 5136,
      "evaluator": 5137,
      "foam": 5138,
      "fool": 5139,
      "foot": 5140,
      "foolish": 5141,
      "cipan": 5142,
      "specifying": 5143,
      "fication": 5144,
      "estone": 5145,
      "supplement": 5146,
      "cogn": 5147,
      "covery": 5148,
      "cobweb": 5149,
      "coconut": 5150,
      "covetous": 5151,
      "minimizes": 5152,
      "viability": 5153,
      "viously": 5154,
      "dime": 5155,
      "dipo": 5156,
      "dians": 5157,
      "direc": 5158,
      "diípọ": 5159,
      "dialogue": 5160,
      "diamond": 5161,
      "atedly": 5162,
      "qualities": 5163,
      "qualifies": 5164,
      "tively": 5165,
      "cles": 5166,
      "client": 5167,
      "cloud": 5168,
      "cleric": 5169,
      "climate": 5170,
      "outset": 5171,
      "outmost": 5172,
      "outputs": 5173,
      "servation": 5174,
      "ules": 5175,
      "ulates": 5176,
      "ulged": 5177,
      "mayed": 5178,
      "theirs": 5179,
      "tely": 5180,
      "teach": 5181,
      "temper": 5182,
      "teaching": 5183,
      "tempered": 5184,
      "goodnight": 5185,
      "goodbye": 5186,
      "former": 5187,
      "formation": 5188,
      "formly": 5189,
      "awúsù": 5190,
      "embas": 5191,
      "emplace": 5192,
      "embarr": 5193,
      "neigh": 5194,
      "nelled": 5195,
      "negle": 5196,
      "heigh": 5197,
      "hell": 5198,
      "crab": 5199,
      "crum": 5200,
      "crying": 5201,
      "crisy": 5202,
      "mittent": 5203,
      "corner": 5204,
      "cornmeal": 5205,
      "tangi": 5206,
      "dismis": 5207,
      "disgr": 5208,
      "disqualified": 5209,
      "discour": 5210,
      "disqualify": 5211,
      "disagreement": 5212,
      "disposition": 5213,
      "disappe": 5214,
      "discovered": 5215,
      "distinction": 5216,
      "dissembl": 5217,
      "discard": 5218,
      "dispat": 5219,
      "discovery": 5220,
      "dismayed": 5221,
      "lie": 5222,
      "liable": 5223,
      "likes": 5224,
      "ource": 5225,
      "ourable": 5226,
      "ourful": 5227,
      "sore": 5228,
      "soever": 5229,
      "ows": 5230,
      "owth": 5231,
      "owed": 5232,
      "tains": 5233,
      "affixed": 5234,
      "sulaim": 5235,
      "effort": 5236,
      "efforts": 5237,
      "wasted": 5238,
      "timelines": 5239,
      "timeframe": 5240,
      "timeliness": 5241,
      "obi": 5242,
      "oblong": 5243,
      "obviously": 5244,
      "observation": 5245,
      "sponge": 5246,
      "responded": 5247,
      "gear": 5248,
      "gets": 5249,
      "geously": 5250,
      "gears": 5251,
      "curse": 5252,
      "curbs": 5253,
      "nationals": 5254,
      "ended": 5255,
      "endar": 5256,
      "endors": 5257,
      "competed": 5258,
      "ctures": 5259,
      "ctuating": 5260,
      "miss": 5261,
      "mistake": 5262,
      "mislead": 5263,
      "mistakes": 5264,
      "missil": 5265,
      "missus": 5266,
      "misfortun": 5267,
      "miscell": 5268,
      "consent": 5269,
      "consensu": 5270,
      "consisting": 5271,
      "ceptible": 5272,
      "forefather": 5273,
      "foregoing": 5274,
      "forebears": 5275,
      "forecasted": 5276,
      "fathom": 5277,
      "fadeyi": 5278,
      "opist": 5279,
      "opinion": 5280,
      "plants": 5281,
      "planner": 5282,
      "inea": 5283,
      "inelig": 5284,
      "achment": 5285,
      "whereas": 5286,
      "invoice": 5287,
      "offices": 5288,
      "club": 5289,
      "boq": 5290,
      "hasn": 5291,
      "finding": 5292,
      "finally": 5293,
      "finds": 5294,
      "finish": 5295,
      "therefrom": 5296,
      "thereafter": 5297,
      "vene": 5298,
      "vency": 5299,
      "listened": 5300,
      "move": 5301,
      "motives": 5302,
      "motor": 5303,
      "models": 5304,
      "modern": 5305,
      "erior": 5306,
      "arrog": 5307,
      "followers": 5308,
      "lling": 5309,
      "llation": 5310,
      "llably": 5311,
      "ditions": 5312,
      "gry": 5313,
      "grav": 5314,
      "grud": 5315,
      "grains": 5316,
      "gross": 5317,
      "granting": 5318,
      "growth": 5319,
      "twice": 5320,
      "twist": 5321,
      "genuine": 5322,
      "umbil": 5323,
      "antation": 5324,
      "giant": 5325,
      "ained": 5326,
      "thank": 5327,
      "anticip": 5328,
      "antithesis": 5329,
      "commonly": 5330,
      "commander": 5331,
      "processes": 5332,
      "guiles": 5333,
      "guessing": 5334,
      "guinea": 5335,
      "izance": 5336,
      "namic": 5337,
      "strikes": 5338,
      "decep": 5339,
      "decreases": 5340,
      "deceit": 5341,
      "decrease": 5342,
      "decisive": 5343,
      "decimal": 5344,
      "informally": 5345,
      "underway": 5346,
      "undertake": 5347,
      "undertaking": 5348,
      "underpin": 5349,
      "underlying": 5350,
      "holy": 5351,
      "hood": 5352,
      "purview": 5353,
      "pursuant": 5354,
      "resort": 5355,
      "resorting": 5356,
      "partner": 5357,
      "partners": 5358,
      "documented": 5359,
      "standardized": 5360,
      "standardization": 5361,
      "standardizing": 5362,
      "internal": 5363,
      "intermedi": 5364,
      "interlinked": 5365,
      "internally": 5366,
      "interpretations": 5367,
      "intermittent": 5368,
      "intervene": 5369,
      "cane": 5370,
      "rejects": 5371,
      "avagance": 5372,
      "urable": 5373,
      "urally": 5374,
      "urning": 5375,
      "else": 5376,
      "elings": 5377,
      "renditions": 5378,
      "portal": 5379,
      "deduced": 5380,
      "reased": 5381,
      "reassess": 5382,
      "priority": 5383,
      "priorities": 5384,
      "certify": 5385,
      "paying": 5386,
      "settle": 5387,
      "settling": 5388,
      "invites": 5389,
      "applicant": 5390,
      "applicability": 5391,
      "cautious": 5392,
      "monies": 5393,
      "monkey": 5394,
      "monize": 5395,
      "timed": 5396,
      "timacy": 5397,
      "detailing": 5398,
      "needle": 5399,
      "openness": 5400,
      "finances": 5401,
      "financing": 5402,
      "financially": 5403,
      "ghter": 5404,
      "ghts": 5405,
      "larger": 5406,
      "largest": 5407,
      "relations": 5408,
      "relatives": 5409,
      "reluc": 5410,
      "crites": 5411,
      "governed": 5412,
      "governments": 5413,
      "ette": 5414,
      "upheld": 5415,
      "uphold": 5416,
      "upcoming": 5417,
      "participan": 5418,
      "particles": 5419,
      "boards": 5420,
      "presents": 5421,
      "presently": 5422,
      "deadlines": 5423,
      "appropriations": 5424,
      "lished": 5425,
      "cessation": 5426,
      "lessness": 5427,
      "linear": 5428,
      "namely": 5429,
      "singer": 5430,
      "sectors": 5431,
      "terminating": 5432,
      "atively": 5433,
      "differences": 5434,
      "conditioning": 5435,
      "omele": 5436,
      "ometers": 5437,
      "committing": 5438,
      "examples": 5439,
      "dominating": 5440,
      "evade": 5441,
      "evoke": 5442,
      "equate": 5443,
      "equity": 5444,
      "equally": 5445,
      "knowing": 5446,
      "abolished": 5447,
      "directors": 5448,
      "borne": 5449,
      "borrow": 5450,
      "majority": 5451,
      "howsoever": 5452,
      "frivol": 5453,
      "obtainable": 5454,
      "carries": 5455,
      "carriage": 5456,
      "retorting": 5457,
      "returning": 5458,
      "printed": 5459,
      "princes": 5460,
      "substance": 5461,
      "substantive": 5462,
      "borns": 5463,
      "cloth": 5464,
      "closer": 5465,
      "closure": 5466,
      "closed": 5467,
      "clothing": 5468,
      "quoting": 5469,
      "channel": 5470,
      "channelled": 5471,
      "igned": 5472,
      "feet": 5473,
      "features": 5474,
      "feelings": 5475,
      "feigned": 5476,
      "facts": 5477,
      "maternal": 5478,
      "matches": 5479,
      "substantiate": 5480,
      "atiable": 5481,
      "brains": 5482,
      "brib": 5483,
      "briber": 5484,
      "okay": 5485,
      "something": 5486,
      "indigenous": 5487,
      "engaging": 5488,
      "aceutic": 5489,
      "bathe": 5490,
      "bathing": 5491,
      "properly": 5492,
      "succeed": 5493,
      "determines": 5494,
      "objectivity": 5495,
      "airline": 5496,
      "rituals": 5497,
      "ideally": 5498,
      "pulous": 5499,
      "clarity": 5500,
      "clarify": 5501,
      "federally": 5502,
      "overthr": 5503,
      "overcome": 5504,
      "overze": 5505,
      "overlaid": 5506,
      "although": 5507,
      "quantifi": 5508,
      "authorization": 5509,
      "authorize": 5510,
      "welleries": 5511,
      "establishes": 5512,
      "establishments": 5513,
      "getting": 5514,
      "currences": 5515,
      "everyday": 5516,
      "fierce": 5517,
      "talking": 5518,
      "respected": 5519,
      "assist": 5520,
      "assisting": 5521,
      "allowing": 5522,
      "allowance": 5523,
      "march": 5524,
      "marking": 5525,
      "marized": 5526,
      "marks": 5527,
      "margins": 5528,
      "structure": 5529,
      "structures": 5530,
      "receivership": 5531,
      "cleaning": 5532,
      "clearer": 5533,
      "summarized": 5534,
      "ticality": 5535,
      "particulars": 5536,
      "creating": 5537,
      "highways": 5538,
      "oyo": 5539,
      "throb": 5540,
      "throwing": 5541,
      "thrifts": 5542,
      "advert": 5543,
      "businesses": 5544,
      "businesslike": 5545,
      "businessmen": 5546,
      "disposed": 5547,
      "disposals": 5548,
      "departmental": 5549,
      "variable": 5550,
      "visited": 5551,
      "confidenti": 5552,
      "chedness": 5553,
      "simply": 5554,
      "simplified": 5555,
      "extended": 5556,
      "extensions": 5557,
      "drum": 5558,
      "drive": 5559,
      "drank": 5560,
      "supervise": 5561,
      "seeable": 5562,
      "seeks": 5563,
      "successfully": 5564,
      "beddings": 5565,
      "bedrid": 5566,
      "capable": 5567,
      "itiously": 5568,
      "modifications": 5569,
      "modalities": 5570,
      "modules": 5571,
      "pens": 5572,
      "pension": 5573,
      "pensions": 5574,
      "penury": 5575,
      "panze": 5576,
      "paneg": 5577,
      "profile": 5578,
      "profanity": 5579,
      "comparing": 5580,
      "negotiation": 5581,
      "greatly": 5582,
      "greatest": 5583,
      "hut": 5584,
      "handed": 5585,
      "handsome": 5586,
      "luke": 5587,
      "luck": 5588,
      "numerous": 5589,
      "write": 5590,
      "writer": 5591,
      "surate": 5592,
      "surro": 5593,
      "communes": 5594,
      "communities": 5595,
      "ancestral": 5596,
      "staffs": 5597,
      "charms": 5598,
      "firmly": 5599,
      "examining": 5600,
      "quotes": 5601,
      "circulation": 5602,
      "bámid": 5603,
      "bámgbọ́": 5604,
      "bánkọ́": 5605,
      "banking": 5606,
      "banks": 5607,
      "banished": 5608,
      "banana": 5609,
      "nonsen": 5610,
      "raises": 5611,
      "raising": 5612,
      "ships": 5613,
      "secretaries": 5614,
      "didactics": 5615,
      "household": 5616,
      "nairobi": 5617,
      "initiates": 5618,
      "initiative": 5619,
      "posting": 5620,
      "bury": 5621,
      "implementing": 5622,
      "corrects": 5623,
      "efficiently": 5624,
      "transgres": 5625,
      "translations": 5626,
      "badly": 5627,
      "occurrences": 5628,
      "ruling": 5629,
      "smith": 5630,
      "tentatively": 5631,
      "warn": 5632,
      "wars": 5633,
      "warned": 5634,
      "warmness": 5635,
      "ọ́dù": 5636,
      "ọ́là": 5637,
      "ọ́ọ́n": 5638,
      "refers": 5639,
      "refine": 5640,
      "refused": 5641,
      "refusing": 5642,
      "recording": 5643,
      "representing": 5644,
      "sheets": 5645,
      "finalizing": 5646,
      "generated": 5647,
      "generates": 5648,
      "designs": 5649,
      "developmental": 5650,
      "circumvent": 5651,
      "lawn": 5652,
      "lawyer": 5653,
      "medical": 5654,
      "north": 5655,
      "salt": 5656,
      "salmon": 5657,
      "inscribe": 5658,
      "insatiable": 5659,
      "practicality": 5660,
      "choices": 5661,
      "chosen": 5662,
      "experiment": 5663,
      "experiences": 5664,
      "experienced": 5665,
      "audited": 5666,
      "auditor": 5667,
      "auditing": 5668,
      "divide": 5669,
      "divulged": 5670,
      "clearance": 5671,
      "capacities": 5672,
      "smaller": 5673,
      "aimed": 5674,
      "languages": 5675,
      "operates": 5676,
      "richest": 5677,
      "store": 5678,
      "stood": 5679,
      "stores": 5680,
      "stock": 5681,
      "stopp": 5682,
      "satisfactory": 5683,
      "answered": 5684,
      "alternatives": 5685,
      "offences": 5686,
      "identified": 5687,
      "identical": 5688,
      "accorded": 5689,
      "sequential": 5690,
      "complied": 5691,
      "complies": 5692,
      "compliant": 5693,
      "positive": 5694,
      "lock": 5695,
      "locations": 5696,
      "discounted": 5697,
      "guarding": 5698,
      "indicates": 5699,
      "indicative": 5700,
      "bankers": 5701,
      "100": 5702,
      "ethnic": 5703,
      "element": 5704,
      "eleph": 5705,
      "lacks": 5706,
      "treating": 5707,
      "tremend": 5708,
      "meets": 5709,
      "adébó": 5710,
      "disclosure": 5711,
      "backward": 5712,
      "backsl": 5713,
      "backstab": 5714,
      "justified": 5715,
      "láàyì": 5716,
      "láàyi": 5717,
      "marrying": 5718,
      "marriage": 5719,
      "marrows": 5720,
      "says": 5721,
      "readily": 5722,
      "error": 5723,
      "archer": 5724,
      "archers": 5725,
      "archival": 5726,
      "architec": 5727,
      "complaints": 5728,
      "potentially": 5729,
      "exception": 5730,
      "socio": 5731,
      "describes": 5732,
      "markets": 5733,
      "addressing": 5734,
      "addresses": 5735,
      "meetings": 5736,
      "arithmetic": 5737,
      "investigate": 5738,
      "investigator": 5739,
      "easily": 5740,
      "rank": 5741,
      "range": 5742,
      "ranges": 5743,
      "ranked": 5744,
      "rancour": 5745,
      "risks": 5746,
      "instruct": 5747,
      "institutes": 5748,
      "individually": 5749,
      "organize": 5750,
      "behind": 5751,
      "converting": 5752,
      "conversions": 5753,
      "secondment": 5754,
      "dealt": 5755,
      "unique": 5756,
      "universal": 5757,
      "uniformly": 5758,
      "expands": 5759,
      "expiration": 5760,
      "emerged": 5761,
      "desire": 5762,
      "certainly": 5763,
      "supervisors": 5764,
      "furthermore": 5765,
      "dams": 5766,
      "dampens": 5767,
      "happened": 5768,
      "journey": 5769,
      "landed": 5770,
      "landmark": 5771,
      "pick": 5772,
      "picking": 5773,
      "thirsty": 5774,
      "inflated": 5775,
      "inflexible": 5776,
      "inferior": 5777,
      "intend": 5778,
      "intentions": 5779,
      "production": 5780,
      "products": 5781,
      "producing": 5782,
      "productivity": 5783,
      "entering": 5784,
      "measures": 5785,
      "measbill": 5786,
      "measurable": 5787,
      "verbal": 5788,
      "preventive": 5789,
      "exceeding": 5790,
      "copied": 5791,
      "owners": 5792,
      "largely": 5793,
      "directorships": 5794,
      "professionalism": 5795,
      "2019": 5796,
      "akódú": 5797,
      "bird": 5798,
      "calls": 5799,
      "creator": 5800,
      "délé": 5801,
      "eaters": 5802,
      "judge": 5803,
      "judges": 5804,
      "judged": 5805,
      "tasty": 5806,
      "tasted": 5807,
      "yìnt": 5808,
      "recover": 5809,
      "practitioners": 5810,
      "proverbial": 5811,
      "associate": 5812,
      "associations": 5813,
      "deflated": 5814,
      "chairman": 5815,
      "discretion": 5816,
      "affects": 5817,
      "approaching": 5818,
      "commercially": 5819,
      "criticality": 5820,
      "scheduled": 5821,
      "adequacy": 5822,
      "initialed": 5823,
      "sufficiency": 5824,
      "categorise": 5825,
      "categorized": 5826,
      "categorize": 5827,
      "introduce": 5828,
      "introducing": 5829,
      "1974": 5830,
      "akeem": 5831,
      "babies": 5832,
      "hunting": 5833,
      "hunters": 5834,
      "hungred": 5835,
      "hungry": 5836,
      "villagers": 5837,
      "incidents": 5838,
      "incarnation": 5839,
      "incantation": 5840,
      "increased": 5841,
      "attend": 5842,
      "attendees": 5843,
      "outsource": 5844,
      "sunday": 5845,
      "securing": 5846,
      "secured": 5847,
      "securely": 5848,
      "debase": 5849,
      "downfall": 5850,
      "downstream": 5851,
      "exclusive": 5852,
      "colourful": 5853,
      "keeps": 5854,
      "keeping": 5855,
      "employer": 5856,
      "employed": 5857,
      "employee": 5858,
      "hearing": 5859,
      "fulltime": 5860,
      "declined": 5861,
      "questioning": 5862,
      "questionable": 5863,
      "recognise": 5864,
      "recognises": 5865,
      "recognizes": 5866,
      "originated": 5867,
      "originally": 5868,
      "benin": 5869,
      "bending": 5870,
      "benefic": 5871,
      "bigger": 5872,
      "blows": 5873,
      "blowers": 5874,
      "faraway": 5875,
      "farina": 5876,
      "foundations": 5877,
      "hire": 5878,
      "kernel": 5879,
      "longer": 5880,
      "mínà": 5881,
      "pharm": 5882,
      "philanthr": 5883,
      "satan": 5884,
      "ọ̀lá": 5885,
      "ọ̀yọ́": 5886,
      "instant": 5887,
      "relied": 5888,
      "ensures": 5889,
      "pricing": 5890,
      "promotes": 5891,
      "customs": 5892,
      "customers": 5893,
      "custodians": 5894,
      "idental": 5895,
      "leads": 5896,
      "combines": 5897,
      "combinations": 5898,
      "collation": 5899,
      "collate": 5900,
      "collapse": 5901,
      "reduction": 5902,
      "reduces": 5903,
      "teamwork": 5904,
      "formalized": 5905,
      "sooner": 5906,
      "constitution": 5907,
      "eventual": 5908,
      "receipts": 5909,
      "assesses": 5910,
      "conflicts": 5911,
      "influential": 5912,
      "collecting": 5913,
      "continuation": 5914,
      "continuity": 5915,
      "continuously": 5916,
      "breach": 5917,
      "breathe": 5918,
      "breaking": 5919,
      "gained": 5920,
      "join": 5921,
      "narration": 5922,
      "narrative": 5923,
      "obeying": 5924,
      "palms": 5925,
      "riddles": 5926,
      "slave": 5927,
      "slating": 5928,
      "skilled": 5929,
      "waive": 5930,
      "waiting": 5931,
      "waiving": 5932,
      "wavering": 5933,
      "women": 5934,
      "ẹ̀pẹ́": 5935,
      "insurrection": 5936,
      "encouragement": 5937,
      "encouraging": 5938,
      "protection": 5939,
      "ascertainable": 5940,
      "trusted": 5941,
      "sealing": 5942,
      "defecate": 5943,
      "depends": 5944,
      "placing": 5945,
      "metals": 5946,
      "losers": 5947,
      "exert": 5948,
      "appeal": 5949,
      "subsequently": 5950,
      "descriptive": 5951,
      "strongly": 5952,
      "holdings": 5953,
      "resource": 5954,
      "feeds": 5955,
      "marginally": 5956,
      "budgets": 5957,
      "budgeted": 5958,
      "selfish": 5959,
      "beliefs": 5960,
      "programming": 5961,
      "calculate": 5962,
      "calamity": 5963,
      "calendar": 5964,
      "hidden": 5965,
      "lahi": 5966,
      "lamentation": 5967,
      "mermaid": 5968,
      "morning": 5969,
      "morgue": 5970,
      "sender": 5971,
      "senior": 5972,
      "sensitivity": 5973,
      "sorrow": 5974,
      "sends": 5975,
      "utory": 5976,
      "wishing": 5977,
      "inspections": 5978,
      "incorporate": 5979,
      "remaining": 5980,
      "recently": 5981,
      "alfred": 5982,
      "proportional": 5983,
      "accuracy": 5984,
      "conforming": 5985,
      "concluded": 5986,
      "forwarded": 5987,
      "deems": 5988,
      "advantages": 5989,
      "percentages": 5990,
      "precious": 5991,
      "previous": 5992,
      "appointment": 5993,
      "classes": 5994,
      "classifications": 5995,
      "helter": 5996,
      "distinguishing": 5997,
      "ownership": 5998,
      "strange": 5999,
      "delivering": 6000,
      "difficulties": 6001,
      "brochures": 6002,
      "currently": 6003,
      "assistant": 6004,
      "survey": 6005,
      "behavior": 6006,
      "happiness": 6007,
      "measurements": 6008,
      "ordination": 6009,
      "christened": 6010,
      "wickedly": 6011,
      "wickedness": 6012,
      "integrate": 6013,
      "integrated": 6014,
      "integrating": 6015,
      "barau": 6016,
      "bargained": 6017,
      "cancel": 6018,
      "cancellation": 6019,
      "double": 6020,
      "dirty": 6021,
      "dailies": 6022,
      "fádè": 6023,
      "fágún": 6024,
      "files": 6025,
      "filtered": 6026,
      "fills": 6027,
      "filling": 6028,
      "garments": 6029,
      "hawks": 6030,
      "jídé": 6031,
      "jíími": 6032,
      "midst": 6033,
      "passion": 6034,
      "pastor": 6035,
      "sniff": 6036,
      "sink": 6037,
      "slept": 6038,
      "sleeping": 6039,
      "safety": 6040,
      "turnkey": 6041,
      "textbooks": 6042,
      "uely": 6043,
      "victory": 6044,
      "victims": 6045,
      "wrist": 6046,
      "ìyàn": 6047,
      "inducement": 6048,
      "realise": 6049,
      "realized": 6050,
      "remedied": 6051,
      "remedial": 6052,
      "prayed": 6053,
      "attachment": 6054,
      "acquaint": 6055,
      "acquired": 6056,
      "convenes": 6057,
      "conventional": 6058,
      "consuming": 6059,
      "consumes": 6060,
      "consequent": 6061,
      "consequences": 6062,
      "streamlin": 6063,
      "computing": 6064,
      "computers": 6065,
      "commissioning": 6066,
      "commissioned": 6067,
      "adopt": 6068,
      "adviser": 6069,
      "advised": 6070,
      "advisable": 6071,
      "advisory": 6072,
      "spell": 6073,
      "excesses": 6074,
      "explains": 6075,
      "explaining": 6076,
      "explained": 6077,
      "implication": 6078,
      "covering": 6079,
      "formulated": 6080,
      "formulating": 6081,
      "healthy": 6082,
      "criminal": 6083,
      "durability": 6084,
      "disasters": 6085,
      "disastrous": 6086,
      "arriving": 6087,
      "songs": 6088,
      "desirous": 6089,
      "declarations": 6090,
      "holdership": 6091,
      "periodicals": 6092,
      "periodically": 6093,
      "talkative": 6094,
      "transferred": 6095,
      "occurs": 6096,
      "occurred": 6097,
      "aggregating": 6098,
      "suffering": 6099,
      "component": 6100,
      "organizational": 6101,
      "expenditures": 6102,
      "birthday": 6103,
      "heartless": 6104,
      "heartthrob": 6105,
      "benefits": 6106,
      "advantageous": 6107,
      "helps": 6108,
      "scientists": 6109,
      "watching": 6110,
      "watchword": 6111,
      "bladder": 6112,
      "bowl": 6113,
      "creditors": 6114,
      "dángbọ́": 6115,
      "dárì": 6116,
      "digger": 6117,
      "dawning": 6118,
      "dress": 6119,
      "dressing": 6120,
      "dresses": 6121,
      "email": 6122,
      "falsely": 6123,
      "facilities": 6124,
      "fifty": 6125,
      "gingly": 6126,
      "humbly": 6127,
      "kóko": 6128,
      "kinsman": 6129,
      "linguists": 6130,
      "mixed": 6131,
      "mpted": 6132,
      "mouthed": 6133,
      "naturally": 6134,
      "pouring": 6135,
      "rats": 6136,
      "ratings": 6137,
      "sanction": 6138,
      "sampling": 6139,
      "varying": 6140,
      "woke": 6141,
      "woven": 6142,
      "wool": 6143,
      "warranting": 6144,
      "yield": 6145,
      "òdòlayé": 6146,
      "ṣàìtọ́n": 6147,
      "thoughtlessness": 6148,
      "insolence": 6149,
      "insolvent": 6150,
      "insolvency": 6151,
      "rectify": 6152,
      "rectified": 6153,
      "rebellion": 6154,
      "reputed": 6155,
      "repeatedly": 6156,
      "remove": 6157,
      "removal": 6158,
      "remote": 6159,
      "resolution": 6160,
      "onicles": 6161,
      "eréko": 6162,
      "entries": 6163,
      "tools": 6164,
      "attempted": 6165,
      "idiary": 6166,
      "ashamed": 6167,
      "susceptible": 6168,
      "suspend": 6169,
      "suspension": 6170,
      "suspicion": 6171,
      "contents": 6172,
      "contentment": 6173,
      "consolidating": 6174,
      "stupor": 6175,
      "allocations": 6176,
      "shorten": 6177,
      "shorter": 6178,
      "shortened": 6179,
      "separately": 6180,
      "celebrating": 6181,
      "vehicle": 6182,
      "chapters": 6183,
      "abandoned": 6184,
      "abandonment": 6185,
      "political": 6186,
      "spirits": 6187,
      "pervasive": 6188,
      "doctor": 6189,
      "pretend": 6190,
      "pretending": 6191,
      "pretended": 6192,
      "precedence": 6193,
      "agony": 6194,
      "auctioneer": 6195,
      "substitution": 6196,
      "framework": 6197,
      "possibility": 6198,
      "possibilities": 6199,
      "possibly": 6200,
      "weighted": 6201,
      "manager": 6202,
      "coerce": 6203,
      "coordination": 6204,
      "coordinate": 6205,
      "coordinating": 6206,
      "worldwide": 6207,
      "discuss": 6208,
      "discussion": 6209,
      "discussed": 6210,
      "discrimination": 6211,
      "discriminate": 6212,
      "discriminatory": 6213,
      "disciplinary": 6214,
      "soiled": 6215,
      "affordability": 6216,
      "willingness": 6217,
      "miserably": 6218,
      "strategy": 6219,
      "deciding": 6220,
      "urgently": 6221,
      "eliminate": 6222,
      "eliminated": 6223,
      "eliminates": 6224,
      "rentals": 6225,
      "kingdoms": 6226,
      "updating": 6227,
      "briefing": 6228,
      "olújídé": 6229,
      "affluence": 6230,
      "penalty": 6231,
      "electrical": 6232,
      "compatible": 6233,
      "expedition": 6234,
      "expedient": 6235,
      "expeditiously": 6236,
      "announce": 6237,
      "announced": 6238,
      "announcement": 6239,
      "familiarly": 6240,
      "farmland": 6241,
      "emphasizes": 6242,
      "fundamentally": 6243,
      "honourable": 6244,
      "honourably": 6245,
      "exercises": 6246,
      "leadership": 6247,
      "safeguard": 6248,
      "safeguarding": 6249,
      "wrongly": 6250,
      "ìyábọ̀": 6251,
      "ìyáàlà": 6252,
      "industry": 6253,
      "industries": 6254,
      "industrial": 6255,
      "african": 6256,
      "multiplying": 6257,
      "multidisciplinary": 6258,
      "nullification": 6259,
      "nullify": 6260,
      "impartiality": 6261,
      "simultaneous": 6262,
      "bíadé": 6263,
      "bísí": 6264,
      "body": 6265,
      "bodies": 6266,
      "dilute": 6267,
      "dilatory": 6268,
      "dwells": 6269,
      "eulogy": 6270,
      "eulogi": 6271,
      "facebook": 6272,
      "hanism": 6273,
      "haters": 6274,
      "hatred": 6275,
      "housed": 6276,
      "houses": 6277,
      "iorate": 6278,
      "jewelleries": 6279,
      "jesus": 6280,
      "kinds": 6281,
      "labor": 6282,
      "labour": 6283,
      "mìláàyi": 6284,
      "nonetheless": 6285,
      "pacification": 6286,
      "pacify": 6287,
      "patient": 6288,
      "patients": 6289,
      "swim": 6290,
      "swift": 6291,
      "slice": 6292,
      "slicing": 6293,
      "scrutiny": 6294,
      "volunte": 6295,
      "witty": 6296,
      "àmọ́dù": 6297,
      "àbádárì": 6298,
      "ọlátẹ́": 6299,
      "threatened": 6300,
      "intentionally": 6301,
      "inhabits": 6302,
      "inhabitants": 6303,
      "reserves": 6304,
      "reservations": 6305,
      "retaining": 6306,
      "repulse": 6307,
      "repulsive": 6308,
      "repairs": 6309,
      "enemy": 6310,
      "enemies": 6311,
      "aláje": 6312,
      "aláàfin": 6313,
      "primary": 6314,
      "primarily": 6315,
      "prospered": 6316,
      "prosperous": 6317,
      "propagate": 6318,
      "propagated": 6319,
      "suspect": 6320,
      "suspected": 6321,
      "contact": 6322,
      "contacting": 6323,
      "constraint": 6324,
      "constrained": 6325,
      "status": 6326,
      "statutory": 6327,
      "study": 6328,
      "students": 6329,
      "legitimate": 6330,
      "legitimacy": 6331,
      "travels": 6332,
      "travelling": 6333,
      "deterrent": 6334,
      "deteriorate": 6335,
      "debriefing": 6336,
      "chronological": 6337,
      "chronicles": 6338,
      "memorable": 6339,
      "memorandum": 6340,
      "ayọ̀ọlá": 6341,
      "ayọ̀délé": 6342,
      "untouched": 6343,
      "extras": 6344,
      "extravagance": 6345,
      "subscribe": 6346,
      "subsidiary": 6347,
      "petty": 6348,
      "coincidence": 6349,
      "coincidental": 6350,
      "crashed": 6351,
      "lowering": 6352,
      "correspondence": 6353,
      "correspondents": 6354,
      "disappointment": 6355,
      "favor": 6356,
      "favourable": 6357,
      "faithful": 6358,
      "counterpart": 6359,
      "fulfillment": 6360,
      "grouped": 6361,
      "commencing": 6362,
      "commensurate": 6363,
      "commencement": 6364,
      "guardian": 6365,
      "significance": 6366,
      "significantly": 6367,
      "prioritise": 6368,
      "prioritize": 6369,
      "feasible": 6370,
      "feasibility": 6371,
      "bridges": 6372,
      "bridling": 6373,
      "baths": 6374,
      "credible": 6375,
      "credibility": 6376,
      "highlighted": 6377,
      "highlighting": 6378,
      "extensively": 6379,
      "drops": 6380,
      "supersede": 6381,
      "superseded": 6382,
      "circulars": 6383,
      "transmitted": 6384,
      "occupied": 6385,
      "occupies": 6386,
      "compiling": 6387,
      "compilation": 6388,
      "emergence": 6389,
      "emergencies": 6390,
      "picture": 6391,
      "pictures": 6392,
      "1952": 6393,
      "1957": 6394,
      "hearkened": 6395,
      "installation": 6396,
      "installments": 6397,
      "appearing": 6398,
      "analyze": 6399,
      "analyzed": 6400,
      "ngbọ́n": 6401,
      "sleepy": 6402,
      "victimization": 6403,
      "realistic": 6404,
      "realistically": 6405,
      "prayerful": 6406,
      "acquisition": 6407,
      "acquisitions": 6408,
      "creditworthy": 6409,
      "falsehood": 6410,
      "facilitated": 6411,
      "facilitate": 6412,
      "politician": 6413,
      "politicians": 6414,
      "spiritual": 6415,
      "gluttons": 6416,
      "hypocrisy": 6417,
      "hypocrites": 6418,
      "turbulence": 6419,
      "turbulently": 6420,
      "reimbursable": 6421,
      "reimbursables": 6422,
      "semblance": 6423,
      "authentication": 6424,
      "authenticates": 6425,
      "disproportionate": 6426,
      "disproportionately": 6427,
      "bankruptcy": 6428,
      "catastrophe": 6429,
      "catastrophic": 6430,
      "ajibola": 6431,
      "aunt": 6432,
      "avert": 6433,
      "ajíbola": 6434,
      "bìláàyì": 6435,
      "bùṣìrá": 6436,
      "battle": 6437,
      "bomb": 6438,
      "boundaries": 6439,
      "blazing": 6440,
      "carcass": 6441,
      "cadre": 6442,
      "codes": 6443,
      "crescent": 6444,
      "dynamic": 6445,
      "dares": 6446,
      "daughter": 6447,
      "destined": 6448,
      "eliciting": 6449,
      "freight": 6450,
      "fingers": 6451,
      "fitness": 6452,
      "foul": 6453,
      "farewell": 6454,
      "fabric": 6455,
      "figures": 6456,
      "felt": 6457,
      "fluctuating": 6458,
      "fẹ̀yìnt": 6459,
      "freedom": 6460,
      "gthened": 6461,
      "gorgeously": 6462,
      "girl": 6463,
      "games": 6464,
      "glimpse": 6465,
      "glitters": 6466,
      "gazette": 6467,
      "gathered": 6468,
      "http": 6469,
      "híìmì": 6470,
      "horseman": 6471,
      "hesitation": 6472,
      "harmonize": 6473,
      "hallmarks": 6474,
      "hills": 6475,
      "hours": 6476,
      "hurts": 6477,
      "iyabo": 6478,
      "ibadan": 6479,
      "ijesa": 6480,
      "juicy": 6481,
      "jimoh": 6482,
      "jews": 6483,
      "kúlú": 6484,
      "kilometers": 6485,
      "knotty": 6486,
      "kneel": 6487,
      "latter": 6488,
      "lady": 6489,
      "lodge": 6490,
      "lapping": 6491,
      "laudably": 6492,
      "maliciously": 6493,
      "mechanism": 6494,
      "milestone": 6495,
      "message": 6496,
      "magnify": 6497,
      "mountains": 6498,
      "million": 6499,
      "musin": 6500,
      "mourning": 6501,
      "machine": 6502,
      "mitigate": 6503,
      "mọ̀ṣọ́": 6504,
      "mẹ́ta": 6505,
      "nominated": 6506,
      "ojúwó": 6507,
      "pàá": 6508,
      "pardon": 6509,
      "pillar": 6510,
      "phasing": 6511,
      "paternal": 6512,
      "rọhíìmì": 6513,
      "rifice": 6514,
      "running": 6515,
      "robbers": 6516,
      "ravished": 6517,
      "ratification": 6518,
      "roles": 6519,
      "ransom": 6520,
      "rọ̀jíími": 6521,
      "sèídù": 6522,
      "sọkúlú": 6523,
      "sacrifice": 6524,
      "south": 6525,
      "splitting": 6526,
      "spoon": 6527,
      "sadness": 6528,
      "sweet": 6529,
      "skelter": 6530,
      "slime": 6531,
      "smooth": 6532,
      "saints": 6533,
      "spurious": 6534,
      "stimulates": 6535,
      "smart": 6536,
      "school": 6537,
      "spotted": 6538,
      "sickness": 6539,
      "taboo": 6540,
      "tarnish": 6541,
      "upload": 6542,
      "vacate": 6543,
      "vaguely": 6544,
      "wọlé": 6545,
      "walked": 6546,
      "widest": 6547,
      "wretchedness": 6548,
      "waddles": 6549,
      "warrior": 6550,
      "ààmádù": 6551,
      "àkànjí": 6552,
      "ámúsà": 6553,
      "ìṣọ̀lá": 6554,
      "ìsàlẹ̀": 6555,
      "ìlosùn": 6556,
      "ògbómọ̀ṣọ́": 6557,
      "òrónnà": 6558,
      "thousand": 6559,
      "indeed": 6560,
      "inquiry": 6561,
      "insights": 6562,
      "inspire": 6563,
      "insertion": 6564,
      "insult": 6565,
      "infinite": 6566,
      "intimated": 6567,
      "invalidate": 6568,
      "revealing": 6569,
      "reaffirm": 6570,
      "recounted": 6571,
      "referenced": 6572,
      "reminiscing": 6573,
      "revised": 6574,
      "recruiting": 6575,
      "rejoice": 6576,
      "reiterated": 6577,
      "remuneration": 6578,
      "enormous": 6579,
      "enforcing": 6580,
      "encrypted": 6581,
      "enhancing": 6582,
      "tightly": 6583,
      "animals": 6584,
      "ordeals": 6585,
      "alousness": 6586,
      "projection": 6587,
      "prosecution": 6588,
      "prohibit": 6589,
      "protracted": 6590,
      "eskekẹnkẹ": 6591,
      "escape": 6592,
      "escalation": 6593,
      "islamic": 6594,
      "entails": 6595,
      "tomorrow": 6596,
      "attorney": 6597,
      "idimu": 6598,
      "accessible": 6599,
      "accruing": 6600,
      "accommodate": 6601,
      "aramọ́ọ́n": 6602,
      "asokoro": 6603,
      "assumptions": 6604,
      "assurance": 6605,
      "suleiman": 6606,
      "superior": 6607,
      "suggestions": 6608,
      "betrayal": 6609,
      "bellows": 6610,
      "befell": 6611,
      "bereaved": 6612,
      "condolences": 6613,
      "consoled": 6614,
      "concept": 6615,
      "concretely": 6616,
      "conversation": 6617,
      "consecutively": 6618,
      "confronted": 6619,
      "conjunction": 6620,
      "forfeiture": 6621,
      "forwarding": 6622,
      "forgotten": 6623,
      "stung": 6624,
      "stresses": 6625,
      "strengthened": 6626,
      "levies": 6627,
      "leisurely": 6628,
      "shelf": 6629,
      "shock": 6630,
      "tradition": 6631,
      "triggered": 6632,
      "trumpet": 6633,
      "trailed": 6634,
      "trivial": 6635,
      "several": 6636,
      "seemingly": 6637,
      "delicacy": 6638,
      "deposited": 6639,
      "dejected": 6640,
      "deferred": 6641,
      "defiant": 6642,
      "dethrone": 6643,
      "delegate": 6644,
      "quarterly": 6645,
      "vegetation": 6646,
      "chimpanze": 6647,
      "church": 6648,
      "chicken": 6649,
      "controversial": 6650,
      "compromises": 6651,
      "complicated": 6652,
      "typically": 6653,
      "aborigines": 6654,
      "absorbing": 6655,
      "abdullahi": 6656,
      "abímbọ́là": 6657,
      "ayoola": 6658,
      "ayítalẹ̀": 6659,
      "poverty": 6660,
      "speculative": 6661,
      "unusable": 6662,
      "unforeseeable": 6663,
      "unauthorised": 6664,
      "uncertainty": 6665,
      "unascertained": 6666,
      "unbalanced": 6667,
      "uncontrollably": 6668,
      "unscrupulous": 6669,
      "unfortunately": 6670,
      "unshakable": 6671,
      "irregularities": 6672,
      "irrevocable": 6673,
      "perpetrates": 6674,
      "perspectives": 6675,
      "pertaining": 6676,
      "pertinent": 6677,
      "perhaps": 6678,
      "territory": 6679,
      "verbosity": 6680,
      "preserves": 6681,
      "preclude": 6682,
      "pregnancy": 6683,
      "precautions": 6684,
      "preferably": 6685,
      "prejudice": 6686,
      "premium": 6687,
      "agúnbíadé": 6688,
      "exposing": 6689,
      "exempt": 6690,
      "expense": 6691,
      "expanse": 6692,
      "external": 6693,
      "extremely": 6694,
      "explicitly": 6695,
      "extinguished": 6696,
      "explore": 6697,
      "exhausted": 6698,
      "amazed": 6699,
      "ammunition": 6700,
      "gossip": 6701,
      "subjecting": 6702,
      "subtlely": 6703,
      "subordinate": 6704,
      "frustrated": 6705,
      "fruitfully": 6706,
      "weeps": 6707,
      "improving": 6708,
      "parameters": 6709,
      "partakers": 6710,
      "paragraph": 6711,
      "mathematical": 6712,
      "manipulated": 6713,
      "footsteps": 6714,
      "supplementary": 6715,
      "cognizance": 6716,
      "covetousness": 6717,
      "directives": 6718,
      "teachers": 6719,
      "temperance": 6720,
      "awúsùbìláàyì": 6721,
      "embassies": 6722,
      "embarrassing": 6723,
      "neighbour": 6724,
      "neglecting": 6725,
      "heightened": 6726,
      "crumble": 6727,
      "tangible": 6728,
      "dismisses": 6729,
      "disgrace": 6730,
      "discouraged": 6731,
      "disappeared": 6732,
      "dissembler": 6733,
      "discarded": 6734,
      "dispatched": 6735,
      "sulaiman": 6736,
      "oblongata": 6737,
      "endorsed": 6738,
      "misleading": 6739,
      "missiles": 6740,
      "misfortune": 6741,
      "miscellaneous": 6742,
      "consensus": 6743,
      "forefathers": 6744,
      "ineligible": 6745,
      "arrogantly": 6746,
      "gravity": 6747,
      "grudgingly": 6748,
      "umbilical": 6749,
      "anticipates": 6750,
      "deception": 6751,
      "underpinned": 6752,
      "intermediate": 6753,
      "intermittently": 6754,
      "settlement": 6755,
      "reluctant": 6756,
      "upholding": 6757,
      "participants": 6758,
      "borrowed": 6759,
      "frivolous": 6760,
      "bribes": 6761,
      "bribery": 6762,
      "aceuticals": 6763,
      "overthrown": 6764,
      "overzealousness": 6765,
      "quantifiable": 6766,
      "confidentially": 6767,
      "bedridden": 6768,
      "panegyrics": 6769,
      "luckily": 6770,
      "surrogate": 6771,
      "bámidélé": 6772,
      "bámgbọ́pàá": 6773,
      "bánkọ́lé": 6774,
      "nonsense": 6775,
      "transgressions": 6776,
      "stopped": 6777,
      "elephant": 6778,
      "tremendously": 6779,
      "adébóyè": 6780,
      "backwards": 6781,
      "backslide": 6782,
      "backstabbers": 6783,
      "architects": 6784,
      "akódúdú": 6785,
      "beneficial": 6786,
      "mínàṣàìtọ́n": 6787,
      "pharmaceuticals": 6788,
      "philanthropist": 6789,
      "breathed": 6790,
      "fádèyí": 6791,
      "fágúnwà": 6792,
      "ìyàndá": 6793,
      "streamlining": 6794,
      "dángbọ́ngbọ́n": 6795,
      "safeguards": 6796,
      "bísímìláàyi": 6797,
      "eulogizing": 6798,
      "volunteer": 6799,
      "àbádárìgì": 6800,
      "ọlátẹ́jú": 6801,
      "fabrication": 6802,
      "fẹ̀yìntì": 6803,
      "ojúwóyè": 6804,
      "aramọ́ọ́ni": 6805,
      "chimpanzee": 6806,
      "mínàṣàìtọ́nì": 6807
    },
    "merges": [
      "t h",
      "th e",
      "i n",
      "r e",
      "o n",
      "e n",
      "t i",
      "a n",
      "e r",
      "o r",
      "a l",
      "p r",
      "o f",
      "in g",
      "e d",
      "pr o",
      "e s",
      "i s",
      "en t",
      "ti on",
      "i c",
      "c u",
      "t o",
      "an d",
      "a t",
      "m ent",
      "i d",
      "i t",
      "a c",
      "a r",
      "a tion",
      "o u",
      "pro cu",
      "a s",
      "s u",
      "b e",
      "c on",
      "f or",
      "s t",
      "l e",
      "al l",
      "b id",
      "o m",
      "re ment",
      "e c",
      "s h",
      "t r",
      "procu rement",
      "s e",
      "d e",
      "c e",
      "q u",
      "i l",
      "i f",
      "d er",
      "ac t",
      "v e",
      "w h",
      "n o",
      "p l",
      "c h",
      "con tr",
      "m e",
      "en ti",
      "c om",
      "t y",
      "contr act",
      "p u",
      "a re",
      "a b",
      "s i",
      "a y",
      "p o",
      "i th",
      "r ing",
      "a d",
      "w ith",
      "s p",
      "l d",
      "sh all",
      "v al",
      "u n",
      "l ic",
      "t en",
      "l y",
      "i r",
      "e re",
      "enti ty",
      "o d",
      "p er",
      "th at",
      "t er",
      "procu ring",
      "at e",
      "b u",
      "v er",
      "es s",
      "l o",
      "d o",
      "the r",
      "p re",
      "it y",
      "a g",
      "pu b",
      "ou ld",
      "pub lic",
      "e x",
      "a p",
      "d ing",
      "t a",
      "val u",
      "a u",
      "re qu",
      "a m",
      "g o",
      "t s",
      "b y",
      "ment s",
      "no t",
      "an y",
      "t ed",
      "ation s",
      "su b",
      "ten der",
      "ar d",
      "f r",
      "po s",
      "w e",
      "i m",
      "i g",
      "p ar",
      "al s",
      "m a",
      "m an",
      "do cu",
      "ou n",
      "bid der",
      "p e",
      "sh ould",
      "e valu",
      "er s",
      "pl i",
      "f o",
      "c i",
      "ab le",
      "sp ec",
      "o ther",
      "pro v",
      "f ic",
      "es t",
      "su p",
      "c o",
      "m in",
      "s er",
      "on e",
      "v i",
      "ic e",
      "d i",
      "ic h",
      "re d",
      "at ed",
      "if ic",
      "qu al",
      "ti ve",
      "c l",
      "fr om",
      "bid ding",
      "il l",
      "k e",
      "p le",
      "ou t",
      "sup pli",
      "ser v",
      "pro pos",
      "u l",
      "j ec",
      "m ay",
      "t ing",
      "the ir",
      "requ i",
      "wh ich",
      "contract or",
      "t e",
      "bid s",
      "go od",
      "for m",
      "docu ments",
      "a w",
      "u s",
      "w or",
      "e m",
      "n e",
      "h e",
      "c r",
      "m it",
      "lo w",
      "d u",
      "si on",
      "evalu ation",
      "c or",
      "a ve",
      "c tion",
      "t an",
      "re au",
      "bu reau",
      "d is",
      "u re",
      "u st",
      "pro c",
      "l i",
      "ou r",
      "p or",
      "s o",
      "su ch",
      "all y",
      "i ed",
      "o w",
      "prov id",
      "th is",
      "the y",
      "ta in",
      "a f",
      "ti es",
      "su l",
      "ic es",
      "wor k",
      "e f",
      "ti c",
      "t ec",
      "f ere",
      "w as",
      "ti me",
      "ic al",
      "o b",
      "sp on",
      "h is",
      "h ave",
      "re spon",
      "ag e",
      "g e",
      "w ill",
      "pr i",
      "cu r",
      "n ation",
      "en d",
      "tec h",
      "good s",
      "i on",
      "com pe",
      "c t",
      "m is",
      "con s",
      "ce p",
      "ap pro",
      "fo re",
      "f a",
      "bidder s",
      "o p",
      "ar y",
      "pl an",
      "c oun",
      "in e",
      "con sul",
      "pr ice",
      "nation al",
      "ac h",
      "ig h",
      "tech n",
      "wh ere",
      "in v",
      "of fic",
      "cl u",
      "techn ical",
      "i es",
      "b o",
      "d ay",
      "an ce",
      "propos als",
      "work s",
      "a me",
      "c y",
      "h as",
      "is ion",
      "serv ices",
      "f in",
      "the re",
      "tender s",
      "consul tan",
      "compe ti",
      "ac cep",
      "fere n",
      "l low",
      "de vi",
      "v en",
      "wh o",
      "l is",
      "m o",
      "er i",
      "as e",
      "cons id",
      "ar r",
      "y ou",
      "st and",
      "fo llow",
      "l l",
      "s on",
      "w ould",
      "respon si",
      "f ul",
      "in clu",
      "re g",
      "pre s",
      "n ing",
      "if ied",
      "wh en",
      "di tion",
      "g r",
      "t w",
      "on ly",
      "it s",
      "ap pl",
      "co st",
      "contractor s",
      "g en",
      "u m",
      "an t",
      "ific ation",
      "suppli er",
      "aw ard",
      "g i",
      "suppli ers",
      "competi tive",
      "a in",
      "d es",
      "th an",
      "an ti",
      "ing s",
      "com m",
      "requ est",
      "requi red",
      "proc ess",
      "e w",
      "g u",
      "b as",
      "g n",
      "sub mit",
      "i z",
      "n am",
      "th od",
      "st r",
      "se le",
      "me thod",
      "bu t",
      "ver y",
      "d ec",
      "i p",
      "m s",
      "contract s",
      "f un",
      "m ust",
      "in form",
      "ou s",
      "un der",
      "vi ew",
      "h o",
      "il d",
      "no ti",
      "pu r",
      "per i",
      "d s",
      "re s",
      "par t",
      "docu ment",
      "mis sion",
      "er al",
      "be en",
      "ci al",
      "us ed",
      "af ter",
      "stand ard",
      "b le",
      "in ter",
      "re view",
      "en ce",
      "il ity",
      "ch ild",
      "min is",
      "i al",
      "re e",
      "ific ations",
      "proc ed",
      "c an",
      "t able",
      "re jec",
      "or t",
      "is su",
      "it em",
      "ce ed",
      "a v",
      "j ust",
      "u r",
      "si gn",
      "sub mission",
      "requi rement",
      "ure s",
      "e l",
      "f ir",
      "re n",
      "com ple",
      "valu e",
      "ma de",
      "por t",
      "eri a",
      "a il",
      "d ed",
      "re as",
      "as t",
      "se cur",
      "serv ice",
      "pri or",
      "c er",
      "p ay",
      "u al",
      "ac coun",
      "se t",
      "ere d",
      "ta il",
      "inv it",
      "follow ing",
      "appl ic",
      "at ing",
      "go ver",
      "secur ity",
      "c au",
      "e ar",
      "e ach",
      "i ef",
      "m on",
      "ti m",
      "be fore",
      "de tail",
      "no w",
      "ne ed",
      "op en",
      "fin an",
      "feren ce",
      "sele ction",
      "f ec",
      "g h",
      "l ar",
      "the m",
      "re l",
      "su re",
      "cr it",
      "plan ning",
      "consultan ts",
      "gover n",
      "e p",
      "e t",
      "k ing",
      "in t",
      "with in",
      "per son",
      "tender ing",
      "ma in",
      "devi ations",
      "inform ation",
      "u p",
      "v es",
      "ch ief",
      "cr i",
      "responsi ve",
      "s ti",
      "re ct",
      "at es",
      "for man",
      "per forman",
      "par ti",
      "als o",
      "igh t",
      "bo ard",
      "pres ent",
      "reas on",
      "performan ce",
      "i ties",
      "pro ceed",
      "ac k",
      "de ad",
      "qual ity",
      "appro pri",
      "lis h",
      "peri od",
      "c es",
      "c ess",
      "m one",
      "y ing",
      "or s",
      "jec t",
      "tw o",
      "requirement s",
      "finan cial",
      "crit eria",
      "l ess",
      "l ine",
      "n ame",
      "s ing",
      "s ec",
      "u se",
      "v ant",
      "tion s",
      "de li",
      "with out",
      "ter min",
      "ter ms",
      "item s",
      "a tive",
      "d if",
      "o ple",
      "the se",
      "con dition",
      "om e",
      "tr an",
      "de part",
      "com mit",
      "ex am",
      "pe ople",
      "spec ified",
      "qual ification",
      "c ase",
      "d om",
      "e v",
      "e qu",
      "h er",
      "k now",
      "m y",
      "s ed",
      "in to",
      "ab o",
      "di rect",
      "te e",
      "consid ered",
      "minis tr",
      "proced ures",
      "b or",
      "j or",
      "p are",
      "re le",
      "ou gh",
      "st age",
      "ma jor",
      "gen eral",
      "inter national",
      "appropri ate",
      "f er",
      "h ow",
      "n ec",
      "w ere",
      "re at",
      "am oun",
      "fr i",
      "cor d",
      "ob tain",
      "appro val",
      "dec ision",
      "cau se",
      "govern ment",
      "c arr",
      "re t",
      "al e",
      "pr in",
      "is e",
      "ad just",
      "val id",
      "sub st",
      "mo re",
      "bas ed",
      "bor n",
      "rele vant",
      "fri end",
      "c lo",
      "m b",
      "m ort",
      "y or",
      "re ce",
      "en sure",
      "qu o",
      "ch an",
      "ab ility",
      "ig n",
      "prov ision",
      "propos al",
      "submit ted",
      "noti ce",
      "abo ve",
      "f e",
      "f act",
      "m at",
      "if y",
      "ere st",
      "fa ir",
      "consid er",
      "int erest",
      "subst anti",
      "a ti",
      "b r",
      "e cu",
      "o k",
      "o l",
      "s ome",
      "in d",
      "in ess",
      "en g",
      "ac e",
      "con du",
      "wh at",
      "enti ties",
      "ne w",
      "du ring",
      "nec ess",
      "b a",
      "f am",
      "o se",
      "w ay",
      "on g",
      "en cy",
      "pro per",
      "es tic",
      "as sign",
      "su c",
      "be cause",
      "de termin",
      "il y",
      "ve lo",
      "enti al",
      "ex ecu",
      "provid ed",
      "ef fec",
      "ob jec",
      "offic er",
      "offic ers",
      "consultan t",
      "dom estic",
      "prin ci",
      "mort als",
      "a ir",
      "r it",
      "or y",
      "id e",
      "st ate",
      "le t",
      "pu l",
      "po lic",
      "min or",
      "cl ar",
      "devi ation",
      "av ail",
      "proceed ings",
      "mone y",
      "f ed",
      "h ad",
      "o ld",
      "o ver",
      "v ed",
      "th or",
      "al th",
      "qu anti",
      "ab lish",
      "ad dition",
      "pre par",
      "au thor",
      "we ll",
      "evalu ated",
      "est ablish",
      "ge t",
      "cur ren",
      "accep table",
      "inclu ding",
      "pur ch",
      "dead line",
      "amoun t",
      "necess ary",
      "velo p",
      "a id",
      "d ate",
      "e very",
      "f i",
      "l im",
      "n ed",
      "s y",
      "t al",
      "re spec",
      "ti fic",
      "cu lar",
      "as s",
      "all ow",
      "ma ke",
      "fa ther",
      "day s",
      "inclu de",
      "suc cess",
      "e ther",
      "g es",
      "m ar",
      "u ba",
      "v ar",
      "th ose",
      "re port",
      "or der",
      "pr ices",
      "of fere",
      "wh ether",
      "me mb",
      "si ble",
      "bu d",
      "lo g",
      "do es",
      "ag es",
      "requ es",
      "im um",
      "spec ific",
      "fic i",
      "feren t",
      "gi ven",
      "str u",
      "detail ed",
      "deli very",
      "commit tee",
      "yor uba",
      "rece i",
      "sy st",
      "offere d",
      "c as",
      "c le",
      "p t",
      "u le",
      "ac ti",
      "su m",
      "po se",
      "ad d",
      "un it",
      "ta k",
      "ta ke",
      "we ver",
      "oun d",
      "ci es",
      "li ke",
      "tic al",
      "ip ment",
      "ho wever",
      "rejec ted",
      "fir st",
      "invit ation",
      "sti pul",
      "parti cular",
      "equ ipment",
      "c re",
      "h igh",
      "n er",
      "n ess",
      "o y",
      "s it",
      "s iness",
      "v ing",
      "th r",
      "st ep",
      "ad ver",
      "bu siness",
      "pre pare",
      "spec ifications",
      "tan ce",
      "dis pos",
      "provid e",
      "af f",
      "fa il",
      "nam es",
      "pay ment",
      "accoun t",
      "main tain",
      "condition s",
      "depart ment",
      "avail able",
      "var i",
      "syst em",
      "a th",
      "h im",
      "m other",
      "s ame",
      "t u",
      "v is",
      "th re",
      "is h",
      "con f",
      "con tain",
      "sh old",
      "de velop",
      "if e",
      "pl es",
      "ch ed",
      "si m",
      "pre qualification",
      "ex ten",
      "sub ject",
      "we alth",
      "qual ified",
      "low est",
      "provid er",
      "mo st",
      "gi ve",
      "dif ferent",
      "valid ity",
      "condu ct",
      "polic ies",
      "adver ti",
      "thre shold",
      "d r",
      "p ec",
      "es tim",
      "is t",
      "su per",
      "se e",
      "pl ace",
      "com e",
      "ab out",
      "propos ed",
      "ction s",
      "accoun ting",
      "open ing",
      "substanti ally",
      "princi ples",
      "success ful",
      "b ed",
      "c ed",
      "c ir",
      "c ap",
      "i ti",
      "m od",
      "p en",
      "p an",
      "s our",
      "u su",
      "y ear",
      "in es",
      "pr of",
      "ac tion",
      "de ath",
      "com par",
      "po in",
      "go ti",
      "pos sible",
      "man ual",
      "ne goti",
      "iz ed",
      "applic able",
      "tran sp",
      "prepar ation",
      "cas es",
      "c ted",
      "g reat",
      "h u",
      "h and",
      "l u",
      "l es",
      "n um",
      "s ched",
      "w rit",
      "the n",
      "re sul",
      "it ed",
      "su r",
      "ke y",
      "reg ard",
      "comm un",
      "issu ed",
      "cer tific",
      "fam ily",
      "bud get",
      "a de",
      "b ility",
      "k ed",
      "s co",
      "an ces",
      "at ure",
      "it or",
      "be ing",
      "st aff",
      "ch ar",
      "si ve",
      "pre ference",
      "ag ain",
      "im por",
      "spec ial",
      "min imum",
      "du e",
      "tic es",
      "op port",
      "bo th",
      "lis t",
      "pur pose",
      "standard s",
      "rejec tion",
      "fir m",
      "exam in",
      "quo t",
      "ati s",
      "proper ty",
      "fed eral",
      "tak en",
      "cir cu",
      "hu man",
      "opport un",
      "b á",
      "b an",
      "b er",
      "g od",
      "k s",
      "n on",
      "r a",
      "s es",
      "w n",
      "ac cord",
      "ou se",
      "procu red",
      "be t",
      "sh ip",
      "procurement s",
      "ten tion",
      "we b",
      "par ast",
      "ple ment",
      "sion s",
      "bas is",
      "nam ing",
      "ous ly",
      "comple te",
      "sec ret",
      "adjust ments",
      "addition al",
      "purch as",
      "respec t",
      "stipul ated",
      "thr ough",
      "sour ce",
      "parast at",
      "d id",
      "e ven",
      "f ied",
      "h ouse",
      "n air",
      "t es",
      "th ing",
      "in iti",
      "pro ject",
      "is on",
      "st ated",
      "sh ow",
      "po st",
      "bu r",
      "im plement",
      "cor re",
      "provid ers",
      "ef fici",
      "reg ul",
      "gu id",
      "nam ed",
      "method s",
      "et c",
      "tran s",
      "chan ges",
      "eng ine",
      "author ity",
      "recei ved",
      "step s",
      "usu ally",
      "compar ison",
      "poin ts",
      "accord ance",
      "b ad",
      "b est",
      "f y",
      "g if",
      "l ed",
      "l ig",
      "m any",
      "n ig",
      "o c",
      "p ack",
      "r ul",
      "s m",
      "s of",
      "t ent",
      "w ar",
      "ọ ́",
      "re f",
      "re cor",
      "re present",
      "re cord",
      "an gu",
      "to tal",
      "st ances",
      "le ast",
      "sh e",
      "se l",
      "pl ain",
      "contract ing",
      "ag ree",
      "we en",
      "cor por",
      "fore ign",
      "fin al",
      "tw are",
      "gen er",
      "des ign",
      "iz ation",
      "minis ter",
      "applic ation",
      "ear th",
      "mon itor",
      "mat ter",
      "assign ments",
      "dispos al",
      "develop ment",
      "threshold s",
      "commun ic",
      "circu m",
      "bet ween",
      "secret ary",
      "nair a",
      "sof tware",
      "b ill",
      "e i",
      "i le",
      "l aw",
      "m ed",
      "n or",
      "s al",
      "th ree",
      "in s",
      "re por",
      "re ference",
      "en cies",
      "ti ves",
      "pr ac",
      "of fer",
      "tion al",
      "il ar",
      "ch o",
      "are n",
      "per mit",
      "ter n",
      "ag g",
      "ag ency",
      "ex peri",
      "ta x",
      "au d",
      "oun ds",
      "di v",
      "qual ifications",
      "so lic",
      "ob lig",
      "age ment",
      "ach i",
      "inv ol",
      "reg is",
      "gr ounds",
      "fun ction",
      "detail s",
      "need ed",
      "up on",
      "carr y",
      "provision s",
      "effec t",
      "state ment",
      "clar ification",
      "establish ed",
      "log y",
      "cle ar",
      "sim ilar",
      "cap ac",
      "negoti ations",
      "transp aren",
      "certific ate",
      "parastat al",
      "sm all",
      "circum stances",
      "ei ther",
      "a im",
      "c our",
      "e con",
      "f ying",
      "g ree",
      "l angu",
      "m pt",
      "n ature",
      "o per",
      "r ich",
      "s to",
      "s me",
      "s atis",
      "v ity",
      "re comm",
      "an s",
      "al tern",
      "of f",
      "es ti",
      "id enti",
      "ac cor",
      "se qu",
      "com pli",
      "po si",
      "ad v",
      "un less",
      "per form",
      "ate g",
      "lo c",
      "ap pli",
      "ap prov",
      "man ner",
      "man agement",
      "dis coun",
      "respon se",
      "accep t",
      "accep tance",
      "cost s",
      "gu ar",
      "ur n",
      "sign ed",
      "pay ments",
      "rel ation",
      "sti tu",
      "obtain ed",
      "mat eri",
      "ind ic",
      "determin e",
      "quanti ties",
      "lim ited",
      "memb er",
      "num ber",
      "examin ation",
      "ban k",
      "implement ation",
      "gener ally",
      "capac ity",
      "econ om",
      "recomm end",
      "1 0",
      "c ent",
      "d one",
      "e th",
      "e le",
      "e ver",
      "l é",
      "l ack",
      "m u",
      "p aid",
      "r o",
      "r ight",
      "t in",
      "t re",
      "t or",
      "at er",
      "su f",
      "con cer",
      "st ory",
      "il ities",
      "wh ile",
      "pl y",
      "me e",
      "ad é",
      "ad ded",
      "ad ministr",
      "ate ly",
      "ver s",
      "ci p",
      "tan t",
      "dis clo",
      "tic s",
      "there fore",
      "competi tion",
      "ful ly",
      "fun ds",
      "child ren",
      "proced ure",
      "mon th",
      "need s",
      "reason s",
      "ough t",
      "friend s",
      "fact ors",
      "way s",
      "objec tion",
      "allow ed",
      "reques ts",
      "reques ted",
      "guid el",
      "engine er",
      "minister ial",
      "monitor ing",
      "div id",
      "solic it",
      "langu age",
      "accor ding",
      "guar an",
      "b ack",
      "c ame",
      "d ic",
      "d at",
      "g an",
      "i bu",
      "j us",
      "l á",
      "l ay",
      "m arr",
      "n al",
      "r ate",
      "s ay",
      "s aid",
      "u d",
      "u te",
      "w ise",
      "in ed",
      "in ary",
      "re ad",
      "er r",
      "pro mpt",
      "es sion",
      "to ok",
      "id ence",
      "ar ch",
      "ar ith",
      "le g",
      "sh ort",
      "tr ain",
      "qu es",
      "me et",
      "com p",
      "com plain",
      "contract ual",
      "si x",
      "po t",
      "un pre",
      "per man",
      "ex cep",
      "ig i",
      "qual ify",
      "form at",
      "so ci",
      "inv esti",
      "accep ted",
      "pres cri",
      "appl y",
      "des cri",
      "noti fic",
      "document ation",
      "el igi",
      "ail ing",
      "parti cip",
      "reason able",
      "sing le",
      "ministr y",
      "ministr ies",
      "carr ied",
      "assign ment",
      "clar ifications",
      "mar ke",
      "memb ers",
      "add res",
      "sit u",
      "prof ession",
      "writ ing",
      "sco pe",
      "again st",
      "opportun ities",
      "effici ency",
      "repor ts",
      "experi ence",
      "mee ting",
      "dic table",
      "arith me",
      "train ing",
      "unpre dictable",
      "perman ent",
      "investi g",
      "a per",
      "c il",
      "c ateg",
      "e as",
      "e ve",
      "f em",
      "f ur",
      "i ally",
      "k ẹ",
      "k ill",
      "k ind",
      "l ife",
      "m ale",
      "o s",
      "p ing",
      "r an",
      "r is",
      "t ary",
      "v ision",
      "y our",
      "in stru",
      "in stitu",
      "in divid",
      "re tention",
      "ti l",
      "or gan",
      "pro mis",
      "ent s",
      "it e",
      "be h",
      "con d",
      "con ver",
      "con stru",
      "st ar",
      "tr a",
      "tr u",
      "se cond",
      "de al",
      "der s",
      "com es",
      "pu t",
      "ad ed",
      "un i",
      "un til",
      "bu il",
      "ess ential",
      "ex p",
      "ex pres",
      "valu es",
      "other wise",
      "cl au",
      "jec ts",
      "requi re",
      "aw are",
      "em er",
      "provid ing",
      "coun tr",
      "coun cil",
      "who se",
      "arr an",
      "des i",
      "comm on",
      "iz e",
      "res sive",
      "issu e",
      "comple x",
      "cer tain",
      "person s",
      "mone tary",
      "sec tor",
      "ev il",
      "know n",
      "direct ly",
      "quo ted",
      "consider ation",
      "execu tive",
      "estim ate",
      "super vis",
      "sched ule",
      "impor tant",
      "ra ther",
      "gif ts",
      "nor m",
      "prac tices",
      "agg ressive",
      "regis ter",
      "compli ance",
      "econom y",
      "guidel ines",
      "guaran tee",
      "err ors",
      "complain t",
      "marke t",
      "arithme tical",
      "aper s",
      "fem ale",
      "fur ther",
      "b ilities",
      "c are",
      "d am",
      "d ates",
      "h ap",
      "j our",
      "l and",
      "m ight",
      "p ic",
      "s ent",
      "t on",
      "t le",
      "w ent",
      "y s",
      "th ir",
      "in f",
      "in ten",
      "re fer",
      "pro du",
      "ent er",
      "ent ly",
      "to wn",
      "ac tions",
      "as se",
      "be low",
      "be come",
      "con firm",
      "om is",
      "sh op",
      "wh y",
      "me as",
      "sp apers",
      "ver b",
      "pre v",
      "ag encies",
      "ex per",
      "ex ceed",
      "ta king",
      "am end",
      "am ong",
      "spec ify",
      "other s",
      "co p",
      "di ed",
      "cl aim",
      "ne l",
      "so l",
      "ow n",
      "work ing",
      "gen cy",
      "method o",
      "can not",
      "tim es",
      "open ed",
      "lar ge",
      "rel ated",
      "exam ple",
      "direct or",
      "chan ge",
      "new spapers",
      "objec tives",
      "let ter",
      "curren cy",
      "purch ase",
      "acti vity",
      "fail s",
      "exten sion",
      "adverti sing",
      "dr aw",
      "resul t",
      "regul ations",
      "nig eria",
      "rul es",
      "represent ative",
      "sel ves",
      "transparen cy",
      "disclo sed",
      "prompt ly",
      "pot ential",
      "notific ation",
      "situ ation",
      "profession al",
      "shop ping",
      "2 0",
      "a k",
      "b ir",
      "c all",
      "c reat",
      "d é",
      "e at",
      "e qual",
      "g in",
      "j oy",
      "j ud",
      "l ly",
      "r up",
      "t as",
      "v il",
      "x ed",
      "y ì",
      "ú lé",
      "in tr",
      "re co",
      "en able",
      "ti tu",
      "an ts",
      "er is",
      "or ig",
      "pr acti",
      "pro jects",
      "pro verb",
      "to ge",
      "as pec",
      "as soci",
      "de f",
      "de lay",
      "act eris",
      "ch air",
      "ab les",
      "ab úlé",
      "po int",
      "od u",
      "lo ok",
      "pre lim",
      "ex tra",
      "ma x",
      "evalu ate",
      "aw ay",
      "us ing",
      "he ad",
      "cr u",
      "dis cre",
      "so le",
      "af fec",
      "tech no",
      "appro ach",
      "consul ting",
      "offic ial",
      "ven ess",
      "responsi bilities",
      "gr ave",
      "award ed",
      "comm er",
      "fun ding",
      "under stand",
      "comple ted",
      "applic ations",
      "rel ating",
      "cri tical",
      "dif ference",
      "adjust ment",
      "substanti al",
      "determin ed",
      "vari ous",
      "sched ul",
      "ade qu",
      "char acteris",
      "quot ation",
      "quot ations",
      "human s",
      "web sit",
      "initi al",
      "corre ction",
      "recor ds",
      "agree ment",
      "med i",
      "oblig ations",
      "achi eve",
      "oper ation",
      "altern ative",
      "appli ed",
      "materi als",
      "eth ical",
      "mu ch",
      "suf fici",
      "categ or",
      "jour nal",
      "intr odu",
      "toge ther",
      "prelim inary",
      "characteris tics",
      "1 9",
      "a ke",
      "b ab",
      "b ring",
      "b ọ́",
      "c ts",
      "c ting",
      "f t",
      "f all",
      "g er",
      "h un",
      "i ve",
      "l ag",
      "m en",
      "s à",
      "u tes",
      "v ill",
      "w ard",
      "w ide",
      "w ife",
      "z e",
      "in c",
      "in cur",
      "in complete",
      "re se",
      "an n",
      "al ways",
      "at ten",
      "id ated",
      "it al",
      "ac cess",
      "ar ding",
      "ou ts",
      "su n",
      "be li",
      "le ft",
      "se cu",
      "se ven",
      "de b",
      "ve red",
      "no tices",
      "pl us",
      "pl oy",
      "pu ts",
      "ab ly",
      "un acceptable",
      "do wn",
      "ag ing",
      "ag ed",
      "ex clu",
      "ex tent",
      "co l",
      "min utes",
      "ke ep",
      "ple ase",
      "requi res",
      "em ploy",
      "he ar",
      "respon d",
      "ge ments",
      "accep ting",
      "lis ted",
      "follow ed",
      "responsi bility",
      "ful l",
      "inclu ded",
      "gr ound",
      "um p",
      "bas ic",
      "dec l",
      "noti fy",
      "issu es",
      "comple tion",
      "invit ed",
      "them selves",
      "person nel",
      "exam ine",
      "ev idence",
      "know led",
      "ret urn",
      "fe e",
      "interest ed",
      "fam il",
      "execu tion",
      "quanti ty",
      "fi xed",
      "respec tive",
      "high est",
      "account ability",
      "super vision",
      "year s",
      "resul ts",
      "show ing",
      "bur ial",
      "pack ages",
      "function al",
      "clear ly",
      "sme lly",
      "posi tion",
      "approv ed",
      "ro om",
      "concer n",
      "month s",
      "dat a",
      "ques tion",
      "investig ation",
      "instru ctions",
      "emer gency",
      "arran gements",
      "dam ages",
      "methodo logy",
      "reco gn",
      "orig in",
      "practi ce",
      "discre pan",
      "commer cial",
      "adequ ate",
      "suffici ent",
      "lag os",
      "rese arch",
      "knowled ge",
      "b en",
      "b ig",
      "b low",
      "b lack",
      "c ing",
      "e ty",
      "f ar",
      "f ound",
      "h i",
      "h ailing",
      "j à",
      "k er",
      "l s",
      "l it",
      "l ate",
      "l ong",
      "l ump",
      "m í",
      "m ú",
      "m ob",
      "o id",
      "p h",
      "p act",
      "p age",
      "p ass",
      "r y",
      "r ating",
      "r ates",
      "s at",
      "u sion",
      "u fact",
      "v end",
      "w in",
      "y oun",
      "y et",
      "ù bá",
      "ọ ̀",
      "ọ jà",
      "th ings",
      "in st",
      "re ly",
      "re li",
      "on ce",
      "en su",
      "en du",
      "en joy",
      "ti se",
      "or d",
      "pr ic",
      "pro mo",
      "es pec",
      "cu sto",
      "id ent",
      "id ential",
      "ar s",
      "procu re",
      "su it",
      "con ting",
      "con tin",
      "le ve",
      "le ad",
      "tr act",
      "se ll",
      "il ization",
      "ch er",
      "ch ec",
      "ch ris",
      "me at",
      "com b",
      "com pare",
      "com pan",
      "ty p",
      "with draw",
      "ter s",
      "pub lish",
      "ding s",
      "pos es",
      "im in",
      "im pact",
      "par ts",
      "par ties",
      "man kind",
      "man ufact",
      "sup ply",
      "co ll",
      "di es",
      "red u",
      "te es",
      "te am",
      "form al",
      "wor ds",
      "em p",
      "he ld",
      "cor rup",
      "so on",
      "provid es",
      "time ly",
      "cons titu",
      "plan s",
      "inv est",
      "you th",
      "follow s",
      "when ever",
      "gi ving",
      "gu e",
      "str ic",
      "but cher",
      "fun d",
      "fun ctions",
      "pur poses",
      "av es",
      "invit e",
      "proceed ing",
      "sec tion",
      "ev ent",
      "amoun ts",
      "decision s",
      "adjust ed",
      "yor ùbá",
      "rece ip",
      "over all",
      "prepar ing",
      "tific ation",
      "ass ess",
      "add endu",
      "vari ations",
      "conf lic",
      "conf idential",
      "contain ing",
      "exten d",
      "adverti sed",
      "estim ated",
      "regard less",
      "opportun ity",
      "did n",
      "off ers",
      "identi fying",
      "adv ice",
      "discoun ts",
      "relation ship",
      "administr ation",
      "according ly",
      "jus tification",
      "read y",
      "leg al",
      "excep tional",
      "addres sed",
      "individ ual",
      "constru ction",
      "countr y",
      "supervis ing",
      "norm ally",
      "inf lu",
      "omis sions",
      "chair person",
      "max imum",
      "bab y",
      "vill age",
      "outs ide",
      "col le",
      "decl are",
      "mob ilization",
      "espec ially",
      "contin u",
      "b re",
      "c ise",
      "d on",
      "e ld",
      "f requ",
      "f our",
      "g ed",
      "g ain",
      "h on",
      "i val",
      "j a",
      "j o",
      "k á",
      "n arr",
      "n mí",
      "o be",
      "p al",
      "p end",
      "r id",
      "r out",
      "s l",
      "s ale",
      "s kill",
      "u ser",
      "u ish",
      "w a",
      "w om",
      "à yì",
      "ẹ ̀",
      "th in",
      "in sur",
      "in puts",
      "re ed",
      "en ces",
      "en cour",
      "an other",
      "al ready",
      "pro tec",
      "pro gr",
      "is ed",
      "is ts",
      "is ting",
      "ac y",
      "as certain",
      "be ings",
      "be comes",
      "tr ust",
      "tr ibu",
      "se al",
      "de fin",
      "de fec",
      "de pend",
      "qu idated",
      "if ies",
      "if ying",
      "wh om",
      "wh ist",
      "pl ic",
      "pl ac",
      "contr ibu",
      "me t",
      "me ans",
      "ty pe",
      "ab ule",
      "ter mit",
      "lo s",
      "lo aded",
      "ex er",
      "ex pec",
      "ap pe",
      "go ing",
      "any thing",
      "sub committee",
      "sub sequ",
      "we ight",
      "im proper",
      "im possible",
      "im ize",
      "ma ker",
      "ci vil",
      "vi ties",
      "suppli es",
      "ting uish",
      "us ers",
      "wor th",
      "cr ip",
      "li quidated",
      "ow ned",
      "af fair",
      "compe te",
      "offic e",
      "cy cle",
      "eri an",
      "reg arding",
      "appl ying",
      "des crip",
      "submit ting",
      "str ong",
      "sele cted",
      "fun ded",
      "ho ld",
      "ho pe",
      "res our",
      "ort ation",
      "av oid",
      "ur ned",
      "fir ms",
      "use ful",
      "depart ments",
      "clo se",
      "fe ed",
      "fact or",
      "consider ations",
      "execu ted",
      "objec tive",
      "polic y",
      "author ities",
      "curren ce",
      "curren cies",
      "mar gin",
      "bud ge",
      "acti vities",
      "like ly",
      "dispos ing",
      "fail ure",
      "adverti se",
      "mod ification",
      "pen ding",
      "transp ortation",
      "writ ten",
      "sur plus",
      "impor tance",
      "purchas er",
      "nig erian",
      "pack aging",
      "recor ded",
      "sel f",
      "communic ated",
      "sal es",
      "sal ute",
      "achi ev",
      "invol ved",
      "gree t",
      "rich es",
      "sme ll",
      "loc al",
      "approv ing",
      "discoun t",
      "recommend ed",
      "ele ments",
      "adé sà",
      "administr ative",
      "engineer ing",
      "solicit ation",
      "marr ied",
      "prescri bed",
      "descri bed",
      "eligi ble",
      "eligi bility",
      "institu tional",
      "organ iz",
      "promis e",
      "clau ses",
      "thir ty",
      "asse ts",
      "creat ure",
      "aspec ts",
      "techno logy",
      "websit es",
      "beli ef",
      "lit tle",
      "pric ed",
      "receip t",
      "assess ment",
      "conflic t",
      "rout ine",
      "progr am",
      "defin ed",
      "whist le",
      "expec ted",
      "affair s",
      "adésà nmí",
      "0 7",
      "a vi",
      "b ing",
      "b and",
      "c k",
      "c al",
      "c lic",
      "c ity",
      "c ould",
      "d ance",
      "f ree",
      "g ment",
      "h id",
      "h us",
      "h ence",
      "h ome",
      "i tion",
      "i ble",
      "l a",
      "l t",
      "l ast",
      "m er",
      "m or",
      "n dé",
      "o sing",
      "o ja",
      "p se",
      "s c",
      "s en",
      "s or",
      "s end",
      "s ound",
      "t ù",
      "u t",
      "u rement",
      "u ally",
      "w ic",
      "w ant",
      "w ish",
      "w ater",
      "y í",
      "th us",
      "in spec",
      "in te",
      "in corpor",
      "re st",
      "re mon",
      "re now",
      "re main",
      "re cent",
      "en velop",
      "ti fying",
      "ti veness",
      "an al",
      "er ation",
      "er ous",
      "al f",
      "pro por",
      "pro ble",
      "is s",
      "is ance",
      "is ite",
      "ic k",
      "cu s",
      "and s",
      "id entity",
      "ac cur",
      "as k",
      "be came",
      "con form",
      "con clu",
      "for ce",
      "for ward",
      "st atis",
      "le a",
      "le ct",
      "tr ade",
      "se en",
      "de em",
      "de mis",
      "de ep",
      "de pending",
      "ce remon",
      "wh ate",
      "me an",
      "enti re",
      "com ing",
      "ad vant",
      "sp ital",
      "ld ness",
      "un eas",
      "ten ance",
      "per cent",
      "pre ci",
      "pre vi",
      "ag reed",
      "ex t",
      "ap point",
      "requ isite",
      "am iss",
      "go t",
      "any one",
      "fr aud",
      "we e",
      "im medi",
      "ma king",
      "evalu ating",
      "spec ifies",
      "fic ul",
      "sup por",
      "co de",
      "co vers",
      "ser i",
      "qual ifying",
      "cl ass",
      "ke pt",
      "serv ed",
      "wor d",
      "ne ver",
      "he l",
      "du ties",
      "cor rect",
      "dis pu",
      "dis tinguish",
      "li ving",
      "so lu",
      "ow ner",
      "tain ed",
      "tain ment",
      "tic ally",
      "respon ses",
      "end a",
      "ct ure",
      "cons ist",
      "appro ve",
      "fore st",
      "ach ed",
      "igh ts",
      "bo ldness",
      "stand ing",
      "ll ed",
      "responsi ble",
      "inclu des",
      "than ks",
      "str an",
      "inform ed",
      "ho spital",
      "issu er",
      "issu ing",
      "ur al",
      "submission s",
      "el der",
      "ast ute",
      "tim ate",
      "gh t",
      "rel ative",
      "person al",
      "main tenance",
      "present ed",
      "deli ver",
      "deli vered",
      "dif ficul",
      "depart ures",
      "commit ted",
      "commit tees",
      "equ ival",
      "pare n",
      "carr ying",
      "ret urned",
      "provision al",
      "fair ness",
      "ati ves",
      "br o",
      "eng aged",
      "effec tiveness",
      "princi ple",
      "avail ability",
      "quanti fied",
      "curren t",
      "fi ve",
      "fi eld",
      "ass is",
      "log ies",
      "specific ally",
      "recei ving",
      "add enda",
      "tak es",
      "cre ate",
      "prepare s",
      "vari ation",
      "dr af",
      "see k",
      "mod ule",
      "hand s",
      "sur ve",
      "sco re",
      "char ges",
      "purchas ing",
      "even ing",
      "regul ar",
      "gif t",
      "ref lect",
      "matter s",
      "law s",
      "cho ice",
      "cho osing",
      "permit ted",
      "transparen t",
      "satis fied",
      "posi tions",
      "appli es",
      "accept ability",
      "materi al",
      "indic ate",
      "indic ated",
      "adé bọ́",
      "particip ate",
      "particip ating",
      "ran king",
      "beh avi",
      "conver sion",
      "expres sions",
      "clau se",
      "desi red",
      "desi res",
      "hap p",
      "enter tainment",
      "meas urement",
      "prev ent",
      "exper tise",
      "amend ment",
      "cop ies",
      "claim ed",
      "jud gment",
      "associ ation",
      "sole ly",
      "affec t",
      "schedul es",
      "operation al",
      "incur red",
      "famil ies",
      "recogn ized",
      "discrepan cy",
      "vend ors",
      "win ning",
      "youn g",
      "ord in",
      "conting encies",
      "chec k",
      "chris ten",
      "comb ined",
      "typ es",
      "withdraw al",
      "corrup tion",
      "addendu m",
      "obe isance",
      "wom an",
      "àyì ndé",
      "insur ance",
      "seal ed",
      "subsequ ent",
      "descrip tion",
      "resour ces",
      "clic k",
      "hus band",
      "wic ked",
      "inte gr",
      "renow ned",
      "envelop es",
      "demis e",
      "ceremon y",
      "whate ver",
      "uneas iness",
      "immedi ately",
      "consist ent",
      "equival ent",
      "adébọ́ lá",
      "1 5",
      "3 0",
      "a ven",
      "b ó",
      "b ar",
      "b ers",
      "c ance",
      "d í",
      "d en",
      "d ou",
      "d ir",
      "d ail",
      "e ad",
      "f á",
      "f il",
      "f ill",
      "g ar",
      "g ning",
      "h en",
      "h ic",
      "h aw",
      "i ent",
      "j í",
      "k ings",
      "k new",
      "l ated",
      "m id",
      "m ad",
      "m ary",
      "m igh",
      "n g",
      "n kẹ",
      "n ká",
      "p as",
      "p ast",
      "r ights",
      "s n",
      "s in",
      "s le",
      "s ess",
      "s ci",
      "s aw",
      "s af",
      "s ence",
      "s ought",
      "t reat",
      "t urn",
      "t ext",
      "u c",
      "u e",
      "u als",
      "u red",
      "v ic",
      "w r",
      "w w",
      "w on",
      "w at",
      "y es",
      "y ard",
      "ì y",
      "ṣ in",
      "in fr",
      "in du",
      "in cre",
      "in land",
      "re al",
      "re am",
      "re med",
      "re put",
      "re sol",
      "ti ll",
      "ti fy",
      "an ted",
      "er ion",
      "al i",
      "al ong",
      "pr ay",
      "of ten",
      "pro spec",
      "pro pri",
      "is es",
      "ent y",
      "ent ry",
      "ic s",
      "to day",
      "at t",
      "at tention",
      "it ing",
      "it ure",
      "ac qu",
      "ar ise",
      "ar ily",
      "as tru",
      "be au",
      "be have",
      "be ans",
      "con ven",
      "con nec",
      "con sum",
      "con sequ",
      "st ages",
      "st ream",
      "le ave",
      "sh are",
      "tr ation",
      "tr un",
      "tr aded",
      "de red",
      "de mon",
      "contr aven",
      "com pr",
      "com pu",
      "com pre",
      "com mission",
      "ab ase",
      "ab sence",
      "si ze",
      "si gning",
      "po or",
      "ad op",
      "ad vis",
      "sp e",
      "sp are",
      "ten ce",
      "ten ess",
      "bu l",
      "ver se",
      "pre cise",
      "ex plan",
      "ex cess",
      "ex plain",
      "ex isting",
      "ap poin",
      "sub contracting",
      "fr on",
      "we pt",
      "im plic",
      "sup port",
      "co ver",
      "min imize",
      "di e",
      "suppli ed",
      "ting s",
      "form ul",
      "he alth",
      "cr y",
      "cr imin",
      "cr owned",
      "du r",
      "du ly",
      "cor pse",
      "dis as",
      "dis bur",
      "dis tribu",
      "li er",
      "li ability",
      "so cial",
      "mis sible",
      "offic ially",
      "bo x",
      "arr i",
      "son g",
      "responsi veness",
      "reg ion",
      "gr and",
      "tw ins",
      "tw enty",
      "award s",
      "ain s",
      "des ir",
      "request ing",
      "str ate",
      "sele ct",
      "sele cting",
      "dec lar",
      "ho l",
      "ho le",
      "noti fied",
      "review s",
      "review ing",
      "rejec t",
      "comple teness",
      "set ting",
      "invit ations",
      "ear ly",
      "ear lier",
      "crit erion",
      "up date",
      "chief s",
      "cri me",
      "cri tically",
      "period ic",
      "termin ation",
      "condition al",
      "approval s",
      "clo sing",
      "mb ly",
      "fe es",
      "fe llow",
      "fair ly",
      "br ought",
      "eng age",
      "condu cted",
      "effec tive",
      "effec ting",
      "rit es",
      "fed eration",
      "fi le",
      "tal k",
      "particular ly",
      "high er",
      "high ly",
      "prepare d",
      "system s",
      "estim ates",
      "mod ify",
      "pen ed",
      "usu al",
      "hand led",
      "char ge",
      "examin ed",
      "purchas ed",
      "through out",
      "initi ate",
      "effici ent",
      "trans fer",
      "trans action",
      "oc cur",
      "oc currence",
      "ref use",
      "agree ments",
      "corpor ation",
      "corpor ate",
      "communic ation",
      "communic ate",
      "bill s",
      "law ful",
      "agg reg",
      "tax es",
      "oblig ation",
      "invol ving",
      "regis tration",
      "cour se",
      "gree tings",
      "altern ate",
      "identi fy",
      "perform ing",
      "recommend ation",
      "mu ṣin",
      "tre es",
      "suf fer",
      "vers ity",
      "dat abase",
      "say ing",
      "ques tions",
      "comp on",
      "six ty",
      "excep t",
      "prescri be",
      "kẹ nkẹ",
      "organ ization",
      "promis ed",
      "star t",
      "deal ings",
      "uni versity",
      "buil ding",
      "exp end",
      "expres sion",
      "countr ies",
      "ton gue",
      "inten ds",
      "inten ded",
      "refer red",
      "produ ct",
      "town s",
      "asse mbly",
      "cop y",
      "claim s",
      "20 07",
      "bir th",
      "bir ds",
      "eat s",
      "tas ks",
      "delay ed",
      "head s",
      "categor ies",
      "introdu ced",
      "atten dance",
      "seven th",
      "employ ment",
      "hear t",
      "origin al",
      "ben ef",
      "leve l",
      "compare d",
      "compan ies",
      "manufact ured",
      "coll usion",
      "invest ment",
      "stric t",
      "influ ence",
      "colle cted",
      "frequ ently",
      "narr ate",
      "thin k",
      "termit es",
      "los s",
      "budge ting",
      "achiev ed",
      "organiz ations",
      "yí nká",
      "inspec tion",
      "incorpor ated",
      "deem ed",
      "advant age",
      "percent age",
      "previ ously",
      "hel p",
      "hospital ity",
      "elder ly",
      "difficul t",
      "assis tance",
      "surve ys",
      "behavi our",
      "happ y",
      "christen ing",
      "hen sive",
      "migh ty",
      "sci enti",
      "wat ch",
      "infr astru",
      "incre ase",
      "reput ation",
      "prospec tive",
      "connec tion",
      "trun k",
      "demon strate",
      "contraven tion",
      "compre hensive",
      "explan ation",
      "appoin ted",
      "infrastru cture",
      "a ment",
      "a fr",
      "a tic",
      "a ight",
      "b l",
      "b t",
      "b in",
      "b al",
      "b lo",
      "b ow",
      "b less",
      "c at",
      "c ou",
      "c tr",
      "c red",
      "c ident",
      "d á",
      "d ù",
      "d ig",
      "d aw",
      "d res",
      "e ag",
      "e ma",
      "e igh",
      "f al",
      "f ac",
      "f if",
      "f ew",
      "f ight",
      "f ish",
      "f action",
      "g l",
      "g ing",
      "g one",
      "g res",
      "g ins",
      "g bó",
      "h um",
      "i b",
      "i ar",
      "i als",
      "k ó",
      "k es",
      "k ins",
      "l in",
      "l ing",
      "l ation",
      "l ines",
      "l ater",
      "l ined",
      "m i",
      "m p",
      "m ou",
      "m per",
      "m ul",
      "m ands",
      "n at",
      "n ul",
      "n ut",
      "o ce",
      "p p",
      "p ou",
      "p ages",
      "r at",
      "r ow",
      "r oy",
      "s an",
      "s il",
      "s am",
      "s kẹ",
      "t ree",
      "t ale",
      "t ory",
      "t led",
      "u no",
      "v ary",
      "v ise",
      "w o",
      "w ed",
      "w is",
      "w all",
      "w ailing",
      "w arran",
      "y i",
      "é tù",
      "ò d",
      "ó n",
      "ṣ à",
      "ẹ ́",
      "ẹ skẹ",
      "th ought",
      "in sol",
      "re c",
      "re be",
      "re pu",
      "re pe",
      "re ction",
      "re ven",
      "re mo",
      "re ferent",
      "re vision",
      "re stric",
      "re solu",
      "on d",
      "on es",
      "on ic",
      "en se",
      "en ough",
      "en ced",
      "ti vity",
      "an ced",
      "er é",
      "or us",
      "al one",
      "al mighty",
      "ed uc",
      "pro ve",
      "es ty",
      "is ing",
      "is ter",
      "ent r",
      "tion ed",
      "cu lt",
      "to ld",
      "to ol",
      "to pic",
      "and on",
      "at able",
      "at te",
      "at ory",
      "at tract",
      "at tained",
      "id i",
      "it er",
      "it ors",
      "ac compan",
      "ac cident",
      "ar n",
      "ar ound",
      "as h",
      "as ked",
      "su s",
      "su sp",
      "su gar",
      "be red",
      "be gin",
      "con tent",
      "con sol",
      "for t",
      "st u",
      "st ake",
      "le br",
      "all oc",
      "sh or",
      "tr ip",
      "tr oy",
      "se ly",
      "se par",
      "de es",
      "de tec",
      "de gr",
      "de vil",
      "de mands",
      "ce lebr",
      "qu ick",
      "act s",
      "act ing",
      "act ual",
      "ve hic",
      "no thing",
      "ch ap",
      "ch orus",
      "contr o",
      "contr ol",
      "com position",
      "are a",
      "are as",
      "ab a",
      "ab use",
      "ab andon",
      "ay s",
      "po li",
      "with standing",
      "sp ir",
      "un its",
      "un lawful",
      "ten ed",
      "ir y",
      "per v",
      "per missible",
      "bu ild",
      "lo t",
      "lo ve",
      "lo ved",
      "do g",
      "do ing",
      "do ct",
      "pre ten",
      "pre ced",
      "ag o",
      "ag s",
      "ag on",
      "public ation",
      "ex ist",
      "valu ation",
      "au ction",
      "go es",
      "go ld",
      "not withstanding",
      "sub stitu",
      "sub tract",
      "fr ame",
      "pos si",
      "pos sess",
      "we l",
      "we igh",
      "im parti",
      "man ag",
      "man ship",
      "pe ace",
      "evalu ations",
      "evalu ates",
      "ci pl",
      "est ines",
      "co er",
      "co ld",
      "co vered",
      "co ordin",
      "min d",
      "ser ve",
      "out lined",
      "ul ent",
      "ul tan",
      "which ever",
      "te ars",
      "form s",
      "wor ld",
      "ne t",
      "he ard",
      "dis qualification",
      "dis cus",
      "dis crimin",
      "dis cipl",
      "ure r",
      "li on",
      "li ves",
      "por tion",
      "so il",
      "so ld",
      "ow ing",
      "tain cy",
      "af for",
      "work manship",
      "tic able",
      "was te",
      "will ing",
      "nation ally",
      "compe ting",
      "compe tence",
      "mis er",
      "cons ists",
      "op tions",
      "plan t",
      "plan ned",
      "ach ing",
      "ach erous",
      "offic ials",
      "bo s",
      "bo ok",
      "there of",
      "consultan cy",
      "feren ces",
      "consid ers",
      "pres ence",
      "gr ant",
      "gr anted",
      "ant ly",
      "gi ves",
      "des troy",
      "comm od",
      "gu ide",
      "iz es",
      "str ateg",
      "str aight",
      "dec id",
      "dec eas",
      "ho les",
      "inter nationally",
      "review ed",
      "proced ural",
      "rejec ting",
      "issu ance",
      "av ing",
      "ur g",
      "ur y",
      "sign ature",
      "el ders",
      "el imin",
      "el étù",
      "ren t",
      "reas es",
      "cer tifying",
      "invit ing",
      "cau tion",
      "tim ing",
      "finan ced",
      "sure ly",
      "govern ance",
      "ep ing",
      "king dom",
      "int estines",
      "up d",
      "chief taincy",
      "sti ll",
      "present ation",
      "reason ably",
      "period s",
      "deli ber",
      "depart ure",
[...]
