{
  "version": "1.0",
  "truncation": null,
  "padding": null,
  "added_tokens": [
    {
      "id": 0,
      "content": "[UNK]",
      "single_word": false,
      "lstrip": false,
      "rstrip": false,
      "normalized": false,
      "special": true
    }
  ],
  "normalizer": {
    "type": "Lowercase"
  },
  "pre_tokenizer": {
    "type": "Sequence",
    "pretokenizers": [
      {
        "type": "Whitespace"
      },
      {
        "type": "Digits",
        "individual_digits": false
      },
      {
        "type": "Punctuation",
        "behavior": "Isolated"
      }
    ]
  },
  "post_processor": null,
  "decoder": null,
  "model": {
    "type": "BPE",
    "dropout": null,
    "unk_token": "[UNK]",
    "continuing_subword_prefix": null,
    "end_of_word_suffix": null,
    "fuse_unk": false,
    "byte_fallback": false,
    "vocab": {
      "[UNK]": 0,
      "!": 1,
      "\"": 2,
      "%": 3,
      "'": 4,
      "(": 5,
      ")": 6,
      ",": 7,
      "-": 8,
      ".": 9,
      "/": 10,
      "0": 11,
      "1": 12,
      "2": 13,
      "3": 14,
      "4": 15,
      "5": 16,
      "6": 17,
      "7": 18,
      "8": 19,
      "9": 20,
      ":": 21,
      ";": 22,
      "?": 23,
      "[": 24,
      "a": 25,
      "b": 26,
      "c": 27,
      "d": 28,
      "e": 29,
      "f": 30,
      "g": 31,
      "h": 32,
      "i": 33,
      "j": 34,
      "k": 35,
      "l": 36,
      "m": 37,
      "n": 38,
      "o": 39,
      "p": 40,
      "r": 41,
      "s": 42,
      "t": 43,
      "u": 44,
      "v": 45,
      "w": 46,
      "x": 47,
      "y": 48,
      "z": 49,
      "­": 50,
      "à": 51,
      "á": 52,
      "è": 53,
      "é": 54,
      "ì": 55,
      "í": 56,
      "ò": 57,
      "ó": 58,
      "ù": 59,
      "ú": 60,
      "ń": 61,
      "ǎ": 62,
      "ǐ": 63,
      "ǒ": 64,
      "ǔ": 65,
      "ǹ": 66,
      "̀": 67,
      "́": 68,
      "̂": 69,
      "̄": 70,
      "̣": 71,
      "ό": 72,
      "ḿ": 73,
      "ṅ": 74,
      "ṣ": 75,
      "ẹ": 76,
      "ọ": 77,
      "ụ": 78,
      "–": 79,
      "‘": 80,
      "’": 81,
      "“": 82,
      "”": 83,
      "…": 84,
      "à": 85,
      "í": 86,
      "ọ": 87,
      "ì": 88,
      "gb": 89,
      "è": 90,
      "ẹ": 91,
      "á": 92,
      "ti": 93,
      "é": 94,
      "ó": 95,
      "ṣ": 96,
      "ú": 97,
      "ò": 98,
      "wọ": 99,
      "ẹ́": 100,
      "wọ": 101,
      "ní": 102,
      "tí": 103,
      "wọn": 104,
      "ẹ́": 105,
      "ẹ̀": 106,
      "an": 107,
      "ún": 108,
      "ún": 109,
      "ẹ̀": 110,
      "wọn": 111,
      "àwọn": 112,
      "ọ̀": 113,
      "ní": 114,
      "tí": 115,
      "un": 116,
      "ni": 117,
      "kan": 118,
      "ọ́": 119,
      "ṣe": 120,
      "fún": 121,
      "ye": 122,
      "lé": 123,
      "fi": 124,
      "ṣe": 125,
      "ṣẹ́": 126,
      "lé": 127,
      "ọ̀": 128,
      "fún": 129,
      "àwọn": 130,
      "pè": 131,
      "hun": 132,
      "ohun": 133,
      "sí": 134,
      "sè": 135,
      "lá": 136,
      "pèsè": 137,
      "tó": 138,
      "tó": 139,
      "àn": 140,
      "ṣẹ́": 141,
      "pa": 142,
      "iṣẹ́": 143,
      "ìw": 144,
      "sí": 145,
      "bí": 146,
      "bá": 147,
      "pè": 148,
      "ìwé": 149,
      "lá": 150,
      "rí": 151,
      "iṣẹ́": 152,
      "áà": 153,
      "ìw": 154,
      "sè": 155,
      "gbo": 156,
      "pèsè": 157,
      "ọ́": 158,
      "lò": 159,
      "ìwé": 160,
      "ìpèsè": 161,
      "náà": 162,
      "ná": 163,
      "ìd": 164,
      "ń": 165,
      "ow": 166,
      "ìd": 167,
      "àti": 168,
      "náà": 169,
      "àti": 170,
      "ù": 171,
      "tà": 172,
      "láti": 173,
      "jú": 174,
      "lò": 175,
      "rí": 176,
      "èlò": 177,
      "jú": 178,
      "tà": 179,
      "gba": 180,
      "gbà": 181,
      "ló": 182,
      "ba": 183,
      "kò": 184,
      "bí": 185,
      "ilé": 186,
      "ìdí": 187,
      "lẹ̀": 188,
      "àn": 189,
      "lẹ̀": 190,
      "láti": 191,
      "bá": 192,
      "in": 193,
      "rò": 194,
      "gbé": 195,
      "yelé": 196,
      "ìdíyelé": 197,
      "ra": 198,
      "ilé": 199,
      "jọ": 200,
      "ìdí": 201,
      "gbà": 202,
      "yì": 203,
      "wọ́": 204,
      "gbé": 205,
      "ọj": 206,
      "kí": 207,
      "tàbí": 208,
      "yí": 209,
      "àk": 210,
      "ìpèsè": 211,
      "sì": 212,
      "ìdíye": 213,
      "ìdíyelé": 214,
      "óò": 215,
      "kọ": 216,
      "kó": 217,
      "yóò": 218,
      "ìl": 219,
      "wọ́": 220,
      "tàbí": 221,
      "lè": 222,
      "gbogbo": 223,
      "ka": 224,
      "yó": 225,
      "yé": 226,
      "mú": 227,
      "jà": 228,
      "yóò": 229,
      "ùn": 230,
      "owó": 231,
      "nú": 232,
      "ol": 233,
      "ǹ": 234,
      "wò": 235,
      "ẹ́": 236,
      "ga": 237,
      "kò": 238,
      "rè": 239,
      "èlò": 240,
      "pé": 241,
      "rò": 242,
      "wó": 243,
      "owó": 244,
      "jẹ́": 245,
      "nǹ": 246,
      "nǹkan": 247,
      "rú": 248,
      "ànà": 249,
      "ày": 250,
      "jọ": 251,
      "wò": 252,
      "ìlànà": 253,
      "ak": 254,
      "mú": 255,
      "mọ": 256,
      "nú": 257,
      "iye": 258,
      "rẹ̀": 259,
      "kí": 260,
      "dé": 261,
      "dá": 262,
      "yì": 263,
      "̀n": 264,
      "sì": 265,
      "ọjà": 266,
      "gbè": 267,
      "de": 268,
      "bi": 269,
      "wá": 270,
      "kì": 271,
      "ló": 272,
      "yẹ": 273,
      "jọba": 274,
      "gbọ́": 275,
      "yìí": 276,
      "èè": 277,
      "tò": 278,
      "yàn": 279,
      "pé": 280,
      "nínú": 281,
      "ṣí": 282,
      "nínú": 283,
      "ǹkan": 284,
      "ìjọba": 285,
      "ọjà": 286,
      "yí": 287,
      "ẹ̀wò": 288,
      "nǹkan": 289,
      "pà": 290,
      "àgbà": 291,
      "wà": 292,
      "oní": 293,
      "án": 294,
      "sílẹ̀": 295,
      "lè": 296,
      "orí": 297,
      "agba": 298,
      "ọmọ": 299,
      "rin": 300,
      "ájú": 301,
      "ètò": 302,
      "ùn": 303,
      "ọ̀": 304,
      "kú": 305,
      "má": 306,
      "mọ̀": 307,
      "ké": 308,
      "àgbà": 309,
      "lú": 310,
      "yè": 311,
      "ọ̀r": 312,
      "là": 313,
      "fin": 314,
      "rẹ̀": 315,
      "èyí": 316,
      "ṣà": 317,
      "ìgb": 318,
      "ìl": 319,
      "pap": 320,
      "gbèrò": 321,
      "lọ́": 322,
      "ta": 323,
      "jẹ́": 324,
      "ke": 325,
      "yìn": 326,
      "wọ́n": 327,
      "ìy": 328,
      "ojú": 329,
      "mọ́": 330,
      "ẹr": 331,
      "di": 332,
      "dé": 333,
      "pà": 334,
      "àt": 335,
      "kàn": 336,
      "re": 337,
      "àgbé": 338,
      "ìlàn": 339,
      "rè": 340,
      "ìlànà": 341,
      "nu": 342,
      "àgbàṣe": 343,
      "oní": 344,
      "ìṣ": 345,
      "gbọ́n": 346,
      "kún": 347,
      "àkọ": 348,
      "yẹ": 349,
      "ara": 350,
      "ayé": 351,
      "pẹ̀": 352,
      "ìgbèrò": 353,
      "gbá": 354,
      "rú": 355,
      "jà": 356,
      "já": 357,
      "lọ": 358,
      "tò": 359,
      "àmú": 360,
      "dá": 361,
      "mọ̀": 362,
      "ojú": 363,
      "ìṣ": 364,
      "ṣíṣe": 365,
      "kọsí": 366,
      "àkọsílẹ̀": 367,
      "bà": 368,
      "kó": 369,
      "yẹ̀": 370,
      "onígb": 371,
      "wà": 372,
      "èrè": 373,
      "níláti": 374,
      "yìn": 375,
      "àkọsí": 376,
      "ìy": 377,
      "ìmọ̀": 378,
      "wọ̀n": 379,
      "ọ̀wọ́": 380,
      "olù": 381,
      "apa": 382,
      "àgbàṣe": 383,
      "àgbé": 384,
      "àjọ": 385,
      "pẹ̀lú": 386,
      "mi": 387,
      "yẹ̀wò": 388,
      "lórí": 389,
      "jì": 390,
      "rà": 391,
      "nípa": 392,
      "máa": 393,
      "yẹ̀wò": 394,
      "dú": 395,
      "nà": 396,
      "fúnni": 397,
      "ab": 398,
      "lẹ́": 399,
      "àkó": 400,
      "lórí": 401,
      "rúkọ": 402,
      "onígbọ̀wọ́": 403,
      "dọ̀": 404,
      "nípa": 405,
      "mu": 406,
      "ìfi": 407,
      "ín": 408,
      "ìb": 409,
      "má": 410,
      "kọ": 411,
      "ọjọ́": 412,
      "lẹ̀": 413,
      "onígb": 414,
      "yan": 415,
      "ètò": 416,
      "àgbéyẹ̀wò": 417,
      "ṣí": 418,
      "ójú": 419,
      "èèrè": 420,
      "já": 421,
      "nì": 422,
      "pin": 423,
      "ṣẹ́ṣe": 424,
      "fúnni": 425,
      "ìn": 426,
      "ójú": 427,
      "le": 428,
      "pe": 429,
      "ràn": 430,
      "wá": 431,
      "èyí": 432,
      "ìgbìmọ̀": 433,
      "bẹ́": 434,
      "wọ̀n": 435,
      "agbaṣẹ́ṣe": 436,
      "kì": 437,
      "lẹ́": 438,
      "mo": 439,
      "sọ": 440,
      "wa": 441,
      "wó": 442,
      "ìí": 443,
      "àl": 444,
      "gbè": 445,
      "jọba": 446,
      "pọ̀": 447,
      "ìjọba": 448,
      "àt": 449,
      "pad": 450,
      "yìí": 451,
      "fẹ́": 452,
      "mọ́": 453,
      "nà": 454,
      "àmú": 455,
      "ìgbé": 456,
      "áájú": 457,
      "lú": 458,
      "ràn": 459,
      "akọ́": 460,
      "papọ̀": 461,
      "san": 462,
      "ọwọ́": 463,
      "kànsí": 464,
      "bẹ́": 465,
      "jù": 466,
      "jẹ": 467,
      "kún": 468,
      "ìt": 469,
      "gbá": 470,
      "ìdá": 471,
      "olù": 472,
      "àyé": 473,
      "àlàyé": 474,
      "ín": 475,
      "ṣẹ́ṣe": 476,
      "ké": 477,
      "sẹ̀": 478,
      "ìí": 479,
      "làyé": 480,
      "ṣẹ́": 481,
      "àmúlò": 482,
      "orí": 483,
      "àjọ": 484,
      "èèrè": 485,
      "ẹrù": 486,
      "pẹ̀": 487,
      "àà": 488,
      "ẹ̀": 489,
      "pẹ̀lú": 490,
      "jí": 491,
      "kọ̀": 492,
      "ẹr": 493,
      "ìyapa": 494,
      "olùkànsí": 495,
      "ójútó": 496,
      "pinnu": 497,
      "alá": 498,
      "alá": 499,
      "orúkọ": 500,
      "tọ́": 501,
      "ìb": 502,
      "akọ́": 503,
      "dọ̀": 504,
      "lo": 505,
      "èrè": 506,
      "àpapọ̀": 507,
      "ṣáájú": 508,
      "lówó": 509,
      "jàfúnni": 510,
      "akọ́jàfúnni": 511,
      "dè": 512,
      "gbọ́": 513,
      "ìdá": 514,
      "hùn": 515,
      "iṣẹ́": 516,
      "jọ́": 517,
      "ẹ̀": 518,
      "àfi": 519,
      "ìfi": 520,
      "jàfúnni": 521,
      "irú": 522,
      "kọ́": 523,
      "mí": 524,
      "yà": 525,
      "àà": 526,
      "tàkì": 527,
      "pàtàkì": 528,
      "àtún": 529,
      "máa": 530,
      "èèyàn": 531,
      "agbaṣẹ́ṣe": 532,
      "akọ́jàfúnni": 533,
      "ré": 534,
      "so": 535,
      "òfin": 536,
      "níláti": 537,
      "àkọsílẹ̀": 538,
      "òó": 539,
      "ṣù": 540,
      "tàkì": 541,
      "pàtàkì": 542,
      "bẹ́ẹ̀": 543,
      "la": 544,
      "ìgbé": 545,
      "òó": 546,
      "ójútó": 547,
      "gẹ́": 548,
      "irú": 549,
      "àkó": 550,
      "òfin": 551,
      "ọgbọ́n": 552,
      "èrò": 553,
      "ojúlówó": 554,
      "àkókò": 555,
      "ilẹ̀": 556,
      "ká": 557,
      "kọ̀": 558,
      "ẹni": 559,
      "àyẹ̀wò": 560,
      "bò": 561,
      "sẹ̀": 562,
      "láà": 563,
      "jáde": 564,
      "bẹ́ẹ̀": 565,
      "hùn": 566,
      "wọ́": 567,
      "kẹ": 568,
      "kùn": 569,
      "mìí": 570,
      "ọjọ́": 571,
      "ìrò": 572,
      "níbi": 573,
      "ibi": 574,
      "lọ́": 575,
      "pò": 576,
      "torí": 577,
      "èdè": 578,
      "gbí": 579,
      "ẹ́": 580,
      "àgbéyẹ̀wò": 581,
      "mìíràn": 582,
      "kù": 583,
      "mé": 584,
      "pọ̀": 585,
      "sọ": 586,
      "ọ̀wọ́": 587,
      "kalẹ̀": 588,
      "jáde": 589,
      "bèèrè": 590,
      "ìf": 591,
      "pele": 592,
      "ìròyìn": 593,
      "fara": 594,
      "rọ̀": 595,
      "gagbá": 596,
      "ọ̀rọ̀": 597,
      "déke": 598,
      "gagbága": 599,
      "da": 600,
      "ró": 601,
      "̣wò": 602,
      "yẹ̀wò": 603,
      "ìfigagbága": 604,
      "àmúyẹ": 605,
      "bò": 606,
      "gẹ́": 607,
      "mójútó": 608,
      "wo": 609,
      "ìgbà": 610,
      "òk": 611,
      "ìgbà": 612,
      "onígbọ̀wọ́": 613,
      "ẹrù": 614,
      "mìí": 615,
      "áá": 616,
      "ṣẹ": 617,
      "nílò": 618,
      "nígbà": 619,
      "nítorí": 620,
      "ọ̀rẹ́": 621,
      "gbèdéke": 622,
      "ìgbésẹ̀": 623,
      "mìíràn": 624,
      "ju": 625,
      "tẹ̀": 626,
      "tún": 627,
      "yé": 628,
      "gbí": 629,
      "ọ̀": 630,
      "kókó": 631,
      "àtún": 632,
      "àtúnṣe": 633,
      "dí": 634,
      "jọ́": 635,
      "tọ́": 636,
      "yòó": 637,
      "lọ́wọ́": 638,
      "wọ̀nyí": 639,
      "kùn": 640,
      "mẹ́": 641,
      "ìrò": 642,
      "bàbá": 643,
      "ṣíṣe": 644,
      "àkókò": 645,
      "jù": 646,
      "we": 647,
      "wù": 648,
      "àfi": 649,
      "àpap": 650,
      "ọ̀dọ̀": 651,
      "ìyá": 652,
      "padà": 653,
      "òkèèrè": 654,
      "jẹ́": 655,
      "rá": 656,
      "rù": 657,
      "rẹ́": 658,
      "yọ": 659,
      "ṣì": 660,
      "kéré": 661,
      "kà": 662,
      "wí": 663,
      "úná": 664,
      "àtúnṣe": 665,
      "hàn": 666,
      "ìwọ̀n": 667,
      "ọwọ́": 668,
      "láà": 669,
      "gagbá": 670,
      "ìṣúná": 671,
      "àgbéyẹ̀wò": 672,
      "lẹ́yìn": 673,
      "ààbò": 674,
      "ṣùgbọ́n": 675,
      "gagbága": 676,
      "dà": 677,
      "gá": 678,
      "ré": 679,
      "wé": 680,
      "àp": 681,
      "àlàyé": 682,
      "nílò": 683,
      "kankan": 684,
      "bó": 685,
      "bèèrè": 686,
      "fí": 687,
      "sùn": 688,
      "wé": 689,
      "ìf": 690,
      "lẹ́yìn": 691,
      "padà": 692,
      "ìròyìn": 693,
      "ge": 694,
      "ipò": 695,
      "jí": 696,
      "pá": 697,
      "ri": 698,
      "ró": 699,
      "yá": 700,
      "ọ́": 701,
      "ìmú": 702,
      "rẹ̀": 703,
      "ìgbèrò": 704,
      "nìkan": 705,
      "bẹ̀": 706,
      "dín": 707,
      "rùn": 708,
      "yá": 709,
      "àwọn": 710,
      "ìbá": 711,
      "ṣì": 712,
      "ṣàlàyé": 713,
      "wọlé": 714,
      "sílẹ̀": 715,
      "inú": 716,
      "kalẹ̀": 717,
      "ọ̀wọ́": 718,
      "ṣàlàyé": 719,
      "àkọsílẹ̀": 720,
      "onígbọ̀wọ́": 721,
      "ìfigagbága": 722,
      "méjì": 723,
      "yòówù": 724,
      "láàrin": 725,
      "bu": 726,
      "dún": 727,
      "dájú": 728,
      "ilẹ̀": 729,
      "mọ": 730,
      "ọ̀kan": 731,
      "ẹrẹ": 732,
      "gbọ́dọ̀": 733,
      "aba": 734,
      "bo": 735,
      "dè": 736,
      "fí": 737,
      "orù": 738,
      "rọ̀": 739,
      "àb": 740,
      "éèrè": 741,
      "ìp": 742,
      "ìná": 743,
      "yíyàn": 744,
      "yíyan": 745,
      "dáa": 746,
      "ìnáwó": 747,
      "fà": 748,
      "ko": 749,
      "kú": 750,
      "rọ": 751,
      "yorù": 752,
      "àyẹ̀wò": 753,
      "ènì": 754,
      "ìs": 755,
      "ìmọ̀": 756,
      "ẹẹrẹ": 757,
      "ìwọ̀n": 758,
      "án": 759,
      "ọ̀kan": 760,
      "nígbà": 761,
      "rúkọ": 762,
      "áájú": 763,
      "àpẹẹrẹ": 764,
      "ènìyàn": 765,
      "go": 766,
      "pín": 767,
      "tẹ̀": 768,
      "tán": 769,
      "yà": 770,
      "yè": 771,
      "̀f": 772,
      "úró": 773,
      "úná": 774,
      "ẹ̀ka": 775,
      "ọ̀nà": 776,
      "sìkò": 777,
      "ìlú": 778,
      "gbọ́dọ̀": 779,
      "kéyìí": 780,
      "èyíkéyìí": 781,
      "kókó": 782,
      "ìbéèrè": 783,
      "ìná": 784,
      "dí": 785,
      "irò": 786,
      "kàn": 787,
      "lọ": 788,
      "èrò": 789,
      "òun": 790,
      "ṣo": 791,
      "ṣé": 792,
      "ṣẹ": 793,
      "létí": 794,
      "àǹf": 795,
      "ìyapa": 796,
      "pàtó": 797,
      "láàrin": 798,
      "àpapọ̀": 799,
      "abala": 800,
      "yorùbá": 801,
      "àǹfàà": 802,
      "bẹ̀": 803,
      "dì": 804,
      "fàà": 805,
      "jẹ": 806,
      "lu": 807,
      "là": 808,
      "oló": 809,
      "ẹ̀ka": 810,
      "ọ̀gá": 811,
      "níbi": 812,
      "sínú": 813,
      "sínú": 814,
      "lẹ̀": 815,
      "ọ̀ràn": 816,
      "rere": 817,
      "ìṣirò": 818,
      "kéré": 819,
      "kọ̀ọ̀kan": 820,
      "ìdáhùn": 821,
      "ìgbésẹ̀": 822,
      "gẹ́gẹ́": 823,
      "ìnáwó": 824,
      "àǹfààní": 825,
      "fà": 826,
      "fín": 827,
      "gan": 828,
      "gẹ́": 829,
      "hàn": 830,
      "ikú": 831,
      "jì": 832,
      "mí": 833,
      "mójútó": 834,
      "nì": 835,
      "pí": 836,
      "wù": 837,
      "wájú": 838,
      "yọ": 839,
      "ìpinnu": 840,
      "ṣáájú": 841,
      "èdè": 842,
      "ṣètò": 843,
      "ṣọwọ́": 844,
      "yín": 845,
      "gbèdé": 846,
      "kìá": 847,
      "pàtó": 848,
      "orílẹ̀": 849,
      "ìṣúná": 850,
      "dúkìá": 851,
      "fínní": 852,
      "bẹ́": 853,
      "gi": 854,
      "ki": 855,
      "kè": 856,
      "kọ́": 857,
      "tì": 858,
      "tẹ́": 859,
      "ìpele": 860,
      "ọlọ́": 861,
      "àgbékalẹ̀": 862,
      "dáa": 863,
      "dúrà": 864,
      "olùpèsè": 865,
      "gbèdéke": 866,
      "bìn": 867,
      "irò": 868,
      "jé": 869,
      "mù": 870,
      "sun": 871,
      "yàn": 872,
      "yòó": 873,
      "ọdún": 874,
      "éèrè": 875,
      "láì": 876,
      "lórúkọ": 877,
      "àyè": 878,
      "wájú": 879,
      "ìyà": 880,
      "ìṣirò": 881,
      "kúnjú": 882,
      "àkóso": 883,
      "ìbéèrè": 884,
      "tẹ̀lé": 885,
      "bìnrin": 886,
      "dúró": 887,
      "fa": 888,
      "fá": 889,
      "fẹ́": 890,
      "ipa": 891,
      "ja": 892,
      "máà": 893,
      "orúkọ": 894,
      "ro": 895,
      "yọ̀": 896,
      "létí": 897,
      "ọ̀rọ̀": 898,
      "parí": 899,
      "olό": 900,
      "gbọ́n": 901,
      "àfikún": 902,
      "máàkì": 903,
      "bọ̀": 904,
      "jẹ́": 905,
      "rọ": 906,
      "rùn": 907,
      "só": 908,
      "te": 909,
      "ìr": 910,
      "ìrí": 911,
      "ìṣà": 912,
      "ìjá": 913,
      "òṣì": 914,
      "ọ̀nà": 915,
      "síwájú": 916,
      "kìí": 917,
      "gbára": 918,
      "kọ̀ọ̀kan": 919,
      "gbígba": 920,
      "gbígbé": 921,
      "bẹ́ẹ̀": 922,
      "elé": 923,
      "oo": 924,
      "rẹ́": 925,
      "yin": 926,
      "ìgb": 927,
      "òkú": 928,
      "ọlá": 929,
      "àp": 930,
      "ṣojú": 931,
      "àmúlò": 932,
      "ìdáhùn": 933,
      "orílẹ̀": 934,
      "àfikún": 935,
      "gẹ́gẹ́": 936,
      "ṣìṣẹ́": 937,
      "yèsí": 938,
      "òṣìṣẹ́": 939,
      "ayọ̀": 940,
      "bó": 941,
      "gun": 942,
      "kẹ́": 943,
      "kán": 944,
      "lí": 945,
      "mé": 946,
      "pú": 947,
      "tá": 948,
      "tọ̀": 949,
      "wό": 950,
      "ṣi": 951,
      "ìbá": 952,
      "ẹni": 953,
      "òṣìṣẹ́": 954,
      "únà": 955,
      "síwájú": 956,
      "lásìkò": 957,
      "ọjá": 958,
      "dára": 959,
      "sìkò": 960,
      "lówó": 961,
      "kúrò": 962,
      "kéde": 963,
      "àmúyẹ": 964,
      "ojúlówó": 965,
      "abẹ́": 966,
      "aláṣẹ": 967,
      "ìfọwọ́": 968,
      "gún": 969,
      "lù": 970,
      "lẹ": 971,
      "tẹ́": 972,
      "tún": 973,
      "ṣọ": 974,
      "ṣẹ̀": 975,
      "ẹlẹ́": 976,
      "íyèsí": 977,
      "ọd": 978,
      "ìpè": 979,
      "ìpinnu": 980,
      "ìtọ́": 981,
      "gbò": 982,
      "gbó": 983,
      "ṣù": 984,
      "yege": 985,
      "ìwà": 986,
      "ìdúnà": 987,
      "lójú": 988,
      "ànṣe": 989,
      "yípadà": 990,
      "àkíyèsí": 991,
      "àkànṣe": 992,
      "pàá": 993,
      "ándúrà": 994,
      "kejì": 995,
      "olùpèsè": 996,
      "abú": 997,
      "ìdáni": 998,
      "kùnrin": 999,
      "gbígba": 1000,
      "fífi": 1001,
      "ìfọwọ́sí": 1002,
      "bà": 1003,
      "bùn": 1004,
      "dù": 1005,
      "fá": 1006,
      "fọwọ́": 1007,
      "je": 1008,
      "rẹ": 1009,
      "run": 1010,
      "tè": 1011,
      "ọ́": 1012,
      "ṣà": 1013,
      "báá": 1014,
      "lábẹ́": 1015,
      "kóso": 1016,
      "yẹn": 1017,
      "yèsí": 1018,
      "dúró": 1019,
      "wọ̀nyí": 1020,
      "darí": 1021,
      "abúlé": 1022,
      "adé": 1023,
      "bọ́": 1024,
      "bọ̀": 1025,
      "ibo": 1026,
      "kè": 1027,
      "kù": 1028,
      "ma": 1029,
      "mẹ́": 1030,
      "pú": 1031,
      "sá": 1032,
      "té": 1033,
      "àì": 1034,
      "ìpè": 1035,
      "ìmú": 1036,
      "̣lú": 1037,
      "ṣiṣẹ́": 1038,
      "wọlé": 1039,
      "ẹ̀yin": 1040,
      "ọ̀wé": 1041,
      "lábẹ́": 1042,
      "lásìkò": 1043,
      "inú": 1044,
      "wọ́n": 1045,
      "ojúṣe": 1046,
      "ìtọ́": 1047,
      "ìbẹ̀": 1048,
      "kúrò": 1049,
      "ìdáhùnsí": 1050,
      "yòówù": 1051,
      "púpọ̀": 1052,
      "ká": 1053,
      "kọjá": 1054,
      "obìnrin": 1055,
      "sà": 1056,
      "ya": 1057,
      "àrà": 1058,
      "ìkéde": 1059,
      "ǹfàà": 1060,
      "ìlẹ̀": 1061,
      "ìjá": 1062,
      "ìjí": 1063,
      "gbẹ́": 1064,
      "òò": 1065,
      "títà": 1066,
      "títa": 1067,
      "ẹ̀bùn": 1068,
      "ọ̀dọ̀": 1069,
      "tọ́": 1070,
      "bíi": 1071,
      "pẹ̀lú": 1072,
      "júwe": 1073,
      "baba": 1074,
      "múlò": 1075,
      "akọ̀wé": 1076,
      "kíkọ": 1077,
      "kíkún": 1078,
      "lọ́nà": 1079,
      "ìṣò": 1080,
      "ìṣàkóso": 1081,
      "dára": 1082,
      "èyíké": 1083,
      "gbèrò": 1084,
      "ẹ̀ka": 1085,
      "àfihàn": 1086,
      "kọ́kọ́": 1087,
      "lọ́wọ́": 1088,
      "kùnà": 1089,
      "rẹ́rẹ́": 1090,
      "kànsí": 1091,
      "mímú": 1092,
      "méjì": 1093,
      "abẹ́lé": 1094,
      "ǹfààní": 1095,
      "èyíkéyìí": 1096,
      "agbá": 1097,
      "aṣojú": 1098,
      "bl": 1099,
      "dín": 1100,
      "jò": 1101,
      "kà": 1102,
      "ná": 1103,
      "só": 1104,
      "sún": 1105,
      "torí": 1106,
      "àbá": 1107,
      "édé": 1108,
      "ṣètò": 1109,
      "ípadà": 1110,
      "ọn": 1111,
      "wọ̀": 1112,
      "nílẹ̀": 1113,
      "ẹ̀kún": 1114,
      "bínú": 1115,
      "tààrà": 1116,
      "kọ̀": 1117,
      "àyípadà": 1118,
      "dájú": 1119,
      "ojúṣe": 1120,
      "abbl": 1121,
      "ìtẹ́": 1122,
      "ìtàn": 1123,
      "kéde": 1124,
      "ẹrẹ": 1125,
      "alábò": 1126,
      "ààbò": 1127,
      "gbígbé": 1128,
      "yálà": 1129,
      "ìbámu": 1130,
      "dáadáa": 1131,
      "tẹ̀lé": 1132,
      "nìkan": 1133,
      "alábòójútó": 1134,
      "atọ́": 1135,
      "kèèrè": 1136,
      "lù": 1137,
      "oṣù": 1138,
      "tè": 1139,
      "yàt": 1140,
      "ád": 1141,
      "ìbà": 1142,
      "òwò": 1143,
      "ẹs": 1144,
      "ẹnu": 1145,
      "ọkùnrin": 1146,
      "ọmọ": 1147,
      "ìṣe": 1148,
      "gbọ": 1149,
      "gbòò": 1150,
      "òkèèrè": 1151,
      "ẹ̀rọ": 1152,
      "ọ̀ràn": 1153,
      "ọ̀yà": 1154,
      "pèjúwe": 1155,
      "sílẹ̀": 1156,
      "sísan": 1157,
      "láì": 1158,
      "àkì": 1159,
      "kópa": 1160,
      "kasí": 1161,
      "ṣíṣí": 1162,
      "pàdé": 1163,
      "orísun": 1164,
      "ẹran": 1165,
      "máàkì": 1166,
      "ìgbéṣẹ́": 1167,
      "kúnjú": 1168,
      "kọ̀ọ́": 1169,
      "mímú": 1170,
      "ọwọ́sí": 1171,
      "ìpìlẹ̀": 1172,
      "pípèsè": 1173,
      "ìrírí": 1174,
      "ìbámu": 1175,
      "ọdún": 1176,
      "ṣùgbọ́n": 1177,
      "ẹ̀kúnrẹ́rẹ́": 1178,
      "fẹ̀": 1179,
      "fojú": 1180,
      "gì": 1181,
      "irin": 1182,
      "igi": 1183,
      "nkẹ": 1184,
      "pín": 1185,
      "rà": 1186,
      "rán": 1187,
      "tun": 1188,
      "wu": 1189,
      "àǹfààní": 1190,
      "ìrí": 1191,
      "gban": 1192,
      "èèrè": 1193,
      "ẹẹrẹ": 1194,
      "titun": 1195,
      "níye": 1196,
      "ẹ̀rí": 1197,
      "ẹ̀sùn": 1198,
      "nítorí": 1199,
      "nilétí": 1200,
      "tónilétí": 1201,
      "báyìí": 1202,
      "wọ́gbà": 1203,
      "sìn": 1204,
      "onímọ̀": 1205,
      "onípele": 1206,
      "dégbà": 1207,
      "abẹ́": 1208,
      "ìbèèrè": 1209,
      "àtọ̀": 1210,
      "ìfitónilétí": 1211,
      "míràn": 1212,
      "láàyè": 1213,
      "kẹnkẹ": 1214,
      "lọ́nà": 1215,
      "faramọ́": 1216,
      "ìgbàdégbà": 1217,
      "dínwó": 1218,
      "fààyè": 1219,
      "gẹ́gẹ́": 1220,
      "fínnífínní": 1221,
      "kiri": 1222,
      "ìyàwó": 1223,
      "sókè": 1224,
      "ayọ̀ọlá": 1225,
      "ìdánilẹ́": 1226,
      "ibojì": 1227,
      "ìtẹ́wọ́gbà": 1228,
      "atọ́nà": 1229,
      "aj": 1230,
      "ará": 1231,
      "do": 1232,
      "dùn": 1233,
      "gì": 1234,
      "ib": 1235,
      "lό": 1236,
      "mì": 1237,
      "m̀": 1238,
      "mọ̀": 1239,
      "na": 1240,
      "pí": 1241,
      "pá": 1242,
      "pò": 1243,
      "rán": 1244,
      "sàn": 1245,
      "tù": 1246,
      "tá": 1247,
      "tọ̀": 1248,
      "àkí": 1249,
      "àwò": 1250,
      "àkàn": 1251,
      "ìbínú": 1252,
      "àdé": 1253,
      "ọdọ̀": 1254,
      "ìyẹn": 1255,
      "gbòó": 1256,
      "gbọdọ̀": 1257,
      "ṣẹ́": 1258,
      "títí": 1259,
      "ọ́n": 1260,
      "ṣeé": 1261,
      "fihàn": 1262,
      "rín": 1263,
      "múlò": 1264,
      "múlẹ̀": 1265,
      "déédé": 1266,
      "lọ́": 1267,
      "dáhùn": 1268,
      "ẹ̀dínwó": 1269,
      "àfiwé": 1270,
      "kárà": 1271,
      "kẹkẹnkẹ": 1272,
      "mẹ́ta": 1273,
      "àpapọ̀": 1274,
      "bóyá": 1275,
      "mọṣẹ́": 1276,
      "ìpín": 1277,
      "ìsọmọ": 1278,
      "ọlọ́run": 1279,
      "dáadáa": 1280,
      "olόwό": 1281,
      "ìrì": 1282,
      "ìṣàkóso": 1283,
      "gbòò": 1284,
      "ìtọ́kasí": 1285,
      "yàtọ̀": 1286,
      "ìgbéṣẹ́fúnni": 1287,
      "àdéhùn": 1288,
      "gbòógì": 1289,
      "etò": 1290,
      "gọ́": 1291,
      "mọ̀ràn": 1292,
      "nìy": 1293,
      "po": 1294,
      "pó": 1295,
      "ru": 1296,
      "rìí": 1297,
      "si": 1298,
      "tì": 1299,
      "tán": 1300,
      "wú": 1301,
      "àdé": 1302,
      "àyà": 1303,
      "ńlá": 1304,
      "ṣá": 1305,
      "ṣiṣẹ́": 1306,
      "ẹn": 1307,
      "ọg": 1308,
      "ìtà": 1309,
      "ìkéde": 1310,
      "gbe": 1311,
      "gbòó": 1312,
      "ènìy": 1313,
      "tilẹ̀": 1314,
      "ṣá": 1315,
      "òpó": 1316,
      "tíì": 1317,
      "ọ̀n": 1318,
      "ọ̀tọ̀": 1319,
      "kanṣo": 1320,
      "tọ́": 1321,
      "parí": 1322,
      "ìwà": 1323,
      "bíi": 1324,
      "ìdílé": 1325,
      "kíkọ": 1326,
      "kíkún": 1327,
      "ìletò": 1328,
      "wáyé": 1329,
      "yíyan": 1330,
      "ìyẹn": 1331,
      "ìṣáájú": 1332,
      "abìdí": 1333,
      "àkójọ": 1334,
      "ìdáni": 1335,
      "òótọ́": 1336,
      "kátà": 1337,
      "ìfọwọ́sí": 1338,
      "buwọ́": 1339,
      "burú": 1340,
      "fààyè": 1341,
      "yọrí": 1342,
      "ìjábọ̀": 1343,
      "ìgbìmọ̀": 1344,
      "àpẹẹrẹ": 1345,
      "ìdáhùnsí": 1346,
      "báálẹ̀": 1347,
      "ìbẹ̀w": 1348,
      "ẹskẹkẹnkẹ": 1349,
      "gbọdọ̀": 1350,
      "abẹ́lé": 1351,
      "ìdánilẹ́kọ̀ọ́": 1352,
      "àkíyèsí": 1353,
      "ṣeéṣe": 1354,
      "káràkátà": 1355,
      "àdéhùn": 1356,
      "àyàfi": 1357,
      "ìtàkùn": 1358,
      "gbòógì": 1359,
      "ènìyàn": 1360,
      "kanṣoṣo": 1361,
      "dò": 1362,
      "dó": 1363,
      "fẹ": 1364,
      "fọ́": 1365,
      "fojú": 1366,
      "gà": 1367,
      "iti": 1368,
      "ilẹ̀": 1369,
      "kun": 1370,
      "me": 1371,
      "okùn": 1372,
      "pẹ́": 1373,
      "ran": 1374,
      "rìn": 1375,
      "sán": 1376,
      "sùn": 1377,
      "sọ̀rọ̀": 1378,
      "tẹ": 1379,
      "tẹ": 1380,
      "yán": 1381,
      "àṣà": 1382,
      "àyìn": 1383,
      "àmọ́": 1384,
      "ète": 1385,
      "ìṣe": 1386,
      "ìka": 1387,
      "ìta": 1388,
      "ìpín": 1389,
      "ìpàdé": 1390,
      "̣n": 1391,
      "όò": 1392,
      "ẹlò": 1393,
      "ẹgbẹ́": 1394,
      "ọba": 1395,
      "àgbá": 1396,
      "ọrọ̀": 1397,
      "ìpà": 1398,
      "ìpele": 1399,
      "gbó": 1400,
      "gbọ́": 1401,
      "ṣi": 1402,
      "níí": 1403,
      "ọ̀pọ̀": 1404,
      "nílẹ̀": 1405,
      "nilétí": 1406,
      "lẹ́": 1407,
      "ṣẹ́mọṣẹ́": 1408,
      "pamọ́": 1409,
      "sísan": 1410,
      "pèjú": 1411,
      "ìwád": 1412,
      "ńṣẹ́": 1413,
      "ìdà": 1414,
      "báyìí": 1415,
      "kalẹ̀": 1416,
      "akiti": 1417,
      "lójú": 1418,
      "yípadà": 1419,
      "àgbàsókè": 1420,
      "pàá": 1421,
      "àtẹ": 1422,
      "ìyàtọ̀": 1423,
      "ìfijí": 1424,
      "ìdádúró": 1425,
      "olùdarí": 1426,
      "olùkànsí": 1427,
      "ẹ̀rọ": 1428,
      "alájé": 1429,
      "alábò": 1430,
      "èrèdí": 1431,
      "ìdádúró": 1432,
      "ìmúṣe": 1433,
      "àbù": 1434,
      "bẹ̀rẹ̀": 1435,
      "bóyá": 1436,
      "ìtọ́jú": 1437,
      "gbangba": 1438,
      "ajé": 1439,
      "ránńṣẹ́": 1440,
      "àkànṣe": 1441,
      "ìsọmọlórúkọ": 1442,
      "okùnfà": 1443,
      "àyìndé": 1444,
      "pèjúwe": 1445,
      "akitiyan": 1446,
      "alábòójútó": 1447,
      "agbá": 1448,
      "bójútó": 1449,
      "dọ": 1450,
      "dà": 1451,
      "dàn": 1452,
      "dìb": 1453,
      "dìí": 1454,
      "dìmú": 1455,
      "jό": 1456,
      "oyè": 1457,
      "omi": 1458,
      "okùn": 1459,
      "pẹ́": 1460,
      "sọ́": 1461,
      "sọ́": 1462,
      "sáá": 1463,
      "tak": 1464,
      "ura": 1465,
      "wí": 1466,
      "wẹ̀": 1467,
      "àṣe": 1468,
      "àṣì": 1469,
      "àsìkò": 1470,
      "àyípadà": 1471,
      "àkọ́kọ́": 1472,
      "èkó": 1473,
      "ìtà": 1474,
      "ìjí": 1475,
      "òwe": 1476,
      "ṣin": 1477,
      "ọn": 1478,
      "àbá": 1479,
      "àtò": 1480,
      "àmọ́": 1481,
      "ọgọ́": 1482,
      "ète": 1483,
      "ẹ̀rí": 1484,
      "ọ̀yà": 1485,
      "lérí": 1486,
      "tónilétí": 1487,
      "sílẹ̀": 1488,
      "ríà": 1489,
      "ìdàgbàsókè": 1490,
      "ríà": 1491,
      "lọ́": 1492,
      "wọ́gbà": 1493,
      "gbogbogbòò": 1494,
      "olú": 1495,
      "ǹgbà": 1496,
      "kíá": 1497,
      "dégbà": 1498,
      "wàyìí": 1499,
      "oríṣi": 1500,
      "finmu": 1501,
      "ṣàfihàn": 1502,
      "jẹ́rìí": 1503,
      "ojútá": 1504,
      "nàìjí": 1505,
      "ìfitónilétí": 1506,
      "ìbẹ̀": 1507,
      "wáyé": 1508,
      "olùmúlò": 1509,
      "ẹ̀wò": 1510,
      "jíjẹ́": 1511,
      "aláìrí": 1512,
      "àtúnpín": 1513,
      "èròǹgbà": 1514,
      "ìgbàdégbà": 1515,
      "yòókù": 1516,
      "yọrí": 1517,
      "fífi": 1518,
      "jíṣẹ́": 1519,
      "bẹ̀rẹ̀": 1520,
      "dínkù": 1521,
      "fag": 1522,
      "pàápàá": 1523,
      "tètè": 1524,
      "ìmúṣẹ́ṣe": 1525,
      "ìjábọ̀": 1526,
      "ìbẹ̀wẹ̀": 1527,
      "ẹlòmíràn": 1528,
      "àgbáyé": 1529,
      "ìpàdé": 1530,
      "ìwádìí": 1531,
      "okùnfà": 1532,
      "sáábà": 1533,
      "ọgọ́rùn": 1534,
      "ojútáyé": 1535,
      "nàìjíríà": 1536,
      "aláìrídìmú": 1537,
      "ayé": 1538,
      "apá": 1539,
      "aṣọ": 1540,
      "atọ́": 1541,
      "bú": 1542,
      "bójú": 1543,
      "fo": 1544,
      "fò": 1545,
      "fín": 1546,
      "gá": 1547,
      "hò": 1548,
      "iṣẹ́": 1549,
      "jẹ̀": 1550,
      "lọ̀": 1551,
      "mà": 1552,
      "oko": 1553,
      "pó": 1554,
      "rìí": 1555,
      "sá": 1556,
      "sẹ́": 1557,
      "sọ̀": 1558,
      "tú": 1559,
      "tan": 1560,
      "tẹrù": 1561,
      "wìrì": 1562,
      "yẹ̀": 1563,
      "yόò": 1564,
      "àá": 1565,
      "àrò": 1566,
      "àgbá": 1567,
      "àṣẹ": 1568,
      "ìfẹ́": 1569,
      "ìkókó": 1570,
      "ìkúnjú": 1571,
      "ùsùn": 1572,
      "ẹbí": 1573,
      "ẹyọ": 1574,
      "ọkọ": 1575,
      "àṣẹ": 1576,
      "ọkúrò": 1577,
      "ìtẹ́": 1578,
      "gbọ̀n": 1579,
      "ábà": 1580,
      "ṣo": 1581,
      "ẹ̀kọ́": 1582,
      "ẹ̀yà": 1583,
      "ọ̀mù": 1584,
      "pamọ́": 1585,
      "síbẹ̀": 1586,
      "lájọ": 1587,
      "lápapọ̀": 1588,
      "rírà": 1589,
      "ríṣi": 1590,
      "ìwú": 1591,
      "sẹ̀": 1592,
      "ọ́n": 1593,
      "ìdì": 1594,
      "lóhùn": 1595,
      "lókè": 1596,
      "lóòótọ́": 1597,
      "báwo": 1598,
      "rajà": 1599,
      "jọjú": 1600,
      "kọ́": 1601,
      "ẹ́wọ́": 1602,
      "àgbàṣe": 1603,
      "kéke": 1604,
      "lọ́jọ́": 1605,
      "keré": 1606,
      "ìyàt": 1607,
      "àkọsílẹ̀": 1608,
      "mọ̀dù": 1609,
      "ìṣò": 1610,
      "muṣin": 1611,
      "ìfiwé": 1612,
      "ṣíṣí": 1613,
      "gbèsè": 1614,
      "sanwó": 1615,
      "ìtẹ́wọ́": 1616,
      "kékeré": 1617,
      "sẹ̀múlẹ̀": 1618,
      "alága": 1619,
      "ààlà": 1620,
      "ìgbéyà": 1621,
      "kọ̀ọ́": 1622,
      "darí": 1623,
      "àbójútó": 1624,
      "olόyè": 1625,
      "rẹ́rẹ́": 1626,
      "kánjú": 1627,
      "ṣàpèjúwe": 1628,
      "pútà": 1629,
      "púpọ̀": 1630,
      "ìṣòtí": 1631,
      "agbára": 1632,
      "sókè": 1633,
      "irinṣẹ́": 1634,
      "nai": 1635,
      "àwòrán": 1636,
      "fọ́ọ̀mù": 1637,
      "ìkamọ̀dù": 1638,
      "lẹ́yìn": 1639,
      "ìdààmú": 1640,
      "àbùdá": 1641,
      "agbátẹrù": 1642,
      "dìbò": 1643,
      "àṣìṣe": 1644,
      "oríṣiríṣi": 1645,
      "atọ́nà": 1646,
      "bójúmu": 1647,
      "sáábà": 1648,
      "ìtẹ́wọ́gbà": 1649,
      "kékeré": 1650,
      "ìtẹ́wọ́gbà": 1651,
      "19": 1652,
      "abí": 1653,
      "agbára": 1654,
      "bọ̀": 1655,
      "dan": 1656,
      "dọ̀": 1657,
      "fọ̀": 1658,
      "hù": 1659,
      "ire": 1660,
      "ipò": 1661,
      "ihò": 1662,
      "ku": 1663,
      "lí": 1664,
      "mó": 1665,
      "okò": 1666,
      "olórí": 1667,
      "sin": 1668,
      "té": 1669,
      "tẹrù": 1670,
      "urú": 1671,
      "urú": 1672,
      "àlà": 1673,
      "àkọ": 1674,
      "àwí": 1675,
      "àmì": 1676,
      "àdínkù": 1677,
      "ìj": 1678,
      "ìp": 1679,
      "ìjẹ́": 1680,
      "ìkànsí": 1681,
      "òǹ": 1682,
      "ògb": 1683,
      "òté": 1684,
      "àṣe": 1685,
      "àwù": 1686,
      "ààyè": 1687,
      "àìṣe": 1688,
      "ọgbọ́n": 1689,
      "ìsún": 1690,
      "ìyípadà": 1691,
      "èsì": 1692,
      "ádìí": 1693,
      "éṣe": 1694,
      "édé": 1695,
      "úlò": 1696,
      "òwò": 1697,
      "ẹ̀dá": 1698,
      "ẹ̀yìn": 1699,
      "ṣeéṣe": 1700,
      "lápap": 1701,
      "ṣẹ́mọ": 1702,
      "ìwádìí": 1703,
      "ìdàgbà": 1704,
      "babá": 1705,
      "kòό": 1706,
      "bákan": 1707,
      "rọ̀": 1708,
      "gbàtà": 1709,
      "kógo": 1710,
      "rúurú": 1711,
      "àyàfi": 1712,
      "pàjá": 1713,
      "wàá": 1714,
      "onírúurú": 1715,
      "ṣàpèjúwe": 1716,
      "lọ́rùn": 1717,
      "mọ́lẹ̀": 1718,
      "déédé": 1719,
      "rẹ̀": 1720,
      "onírú": 1721,
      "yẹn": 1722,
      "jàre": 1723,
      "ojútá": 1724,
      "bàá": 1725,
      "kópa": 1726,
      "dúdú": 1727,
      "kọjá": 1728,
      "àtẹ̀": 1729,
      "nàìjí": 1730,
      "jẹun": 1731,
      "kọ̀m̀": 1732,
      "aláṣẹ": 1733,
      "alágbàtà": 1734,
      "tọ́ka": 1735,
      "ìbà": 1736,
      "ìbì": 1737,
      "òórùn": 1738,
      "irúfẹ́": 1739,
      "èròjà": 1740,
      "ṣẹlẹ̀": 1741,
      "tọ́ka": 1742,
      "àfihàn": 1743,
      "rárá": 1744,
      "yálà": 1745,
      "èròǹ": 1746,
      "olóò": 1747,
      "tẹ́lẹ̀": 1748,
      "àpò": 1749,
      "tẹ́lẹ̀": 1750,
      "fáfá": 1751,
      "bọ́lá": 1752,
      "àìní": 1753,
      "agbátẹrù": 1754,
      "buwọ́lù": 1755,
      "jόkòό": 1756,
      "ìbẹ̀rẹ̀": 1757,
      "àgbáyé": 1758,
      "ìfiwéra": 1759,
      "àwíjàre": 1760,
      "ògbójú": 1761,
      "àwùjọ": 1762,
      "ìsúnsíwájú": 1763,
      "ìdàgbàsókè": 1764,
      "pàjáwìrì": 1765,
      "onírúurú": 1766,
      "ojútáyé": 1767,
      "nàìjíríà": 1768,
      "kọ̀m̀pútà": 1769,
      "10": 1770,
      "20": 1771,
      "ati": 1772,
      "asọ": 1773,
      "ago": 1774,
      "bé": 1775,
      "bù": 1776,
      "bójútó": 1777,
      "dẹ": 1778,
      "elé": 1779,
      "fẹ̀": 1780,
      "fun": 1781,
      "gùn": 1782,
      "há": 1783,
      "ji": 1784,
      "jó": 1785,
      "kèè": 1786,
      "mọ́": 1787,
      "nù": 1788,
      "nkan": 1789,
      "pọ̀": 1790,
      "rá": 1791,
      "th": 1792,
      "ty": 1793,
      "tẹ́": 1794,
      "yẹ́": 1795,
      "yọ́": 1796,
      "àwá": 1797,
      "àle": 1798,
      "èmi": 1799,
      "ìmójútó": 1800,
      "ìparí": 1801,
      "ìyípadà": 1802,
      "ìsìn": 1803,
      "ìsanwó": 1804,
      "òrè": 1805,
      "òdi": 1806,
      "òró": 1807,
      "ògi": 1808,
      "òpó": 1809,
      "òdìbò": 1810,
      "úrò": 1811,
      "̣lú": 1812,
      "ṣò": 1813,
      "ṣọ́": 1814,
      "ẹkún": 1815,
      "ọkàn": 1816,
      "àmójútó": 1817,
      "àṣì": 1818,
      "àpèjúwe": 1819,
      "àrà": 1820,
      "ọọdún": 1821,
      "ìs": 1822,
      "ìt": 1823,
      "ìràn": 1824,
      "ìkànsí": 1825,
      "gbẹ́": 1826,
      "èè": 1827,
      "ókò": 1828,
      "ṣẹ̀": 1829,
      "òkè": 1830,
      "ẹ̀tọ́": 1831,
      "ẹ̀tọ́": 1832,
      "ẹ̀rọ": 1833,
      "ọ̀dọ": 1834,
      "níbẹ̀": 1835,
      "ọ̀tọ̀": 1836,
      "pẹ̀lú": 1837,
      "sílẹ̀": 1838,
      "láyé": 1839,
      "ìwúlò": 1840,
      "bákan": 1841,
      "lára": 1842,
      "ríra": 1843,
      "ríyá": 1844,
      "áàbò": 1845,
      "ńlá": 1846,
      "ùgbà": 1847,
      "tààrà": 1848,
      "kín": 1849,
      "gbogbogbòò": 1850,
      "múrí": 1851,
      "lóhùn": 1852,
      "lókè": 1853,
      "yíyàn": 1854,
      "pàà": 1855,
      "kéé": 1856,
      "ọ̀run": 1857,
      "ṣàgbé": 1858,
      "ṣàkóso": 1859,
      "lọ́kàn": 1860,
      "àtìgbàdégbà": 1861,
      "ìṣè": 1862,
      "ìṣẹ̀": 1863,
      "wàá": 1864,
      "ìyọkúrò": 1865,
      "ìbèèrè": 1866,
      "kìí": 1867,
      "lẹ́tà": 1868,
      "àtìgbàdégbà": 1869,
      "akọ́ṣẹ́mọṣẹ́": 1870,
      "ẹ̀rọ": 1871,
      "kùnà": 1872,
      "ìfowó": 1873,
      "ìgbàgbọ́": 1874,
      "gbígbà": 1875,
      "ọ̀kan": 1876,
      "díẹ̀": 1877,
      "bófinmu": 1878,
      "àbúrò": 1879,
      "kúùgbà": 1880,
      "nígbàkúùgbà": 1881,
      "olóyè": 1882,
      "mùlẹ̀": 1883,
      "yòókù": 1884,
      "sórí": 1885,
      "ìrísí": 1886,
      "ìjábọ̀": 1887,
      "kẹ́yìn": 1888,
      "lílò": 1889,
      "gbólóhùn": 1890,
      "báálẹ": 1891,
      "adésàn": 1892,
      "ìjáfáfá": 1893,
      "ìṣòwò": 1894,
      "tètè": 1895,
      "ibùsùn": 1896,
      "gbòòrò": 1897,
      "burúkú": 1898,
      "fẹsẹ̀múlẹ̀": 1899,
      "gbólóhùn": 1900,
      "gbọ́n": 1901,
      "àtòjọ": 1902,
      "yẹ̀wò": 1903,
      "ìyàtọ̀": 1904,
      "nairà": 1905,
      "hùwà": 1906,
      "lílo": 1907,
      "okòòwò": 1908,
      "àtẹ̀jáde": 1909,
      "ìbàjẹ́": 1910,
      "èròǹgbà": 1911,
      "asọye": 1912,
      "àlejò": 1913,
      "adésànmí": 1914,
      "bì": 1915,
      "bẹ": 1916,
      "bọ": 1917,
      "bọ́": 1918,
      "dì": 1919,
      "dó": 1920,
      "dọ́": 1921,
      "ee": 1922,
      "ejì": 1923,
      "ewé": 1924,
      "fú": 1925,
      "fẹ": 1926,
      "fìdí": 1927,
      "fẹ́": 1928,
      "fọwọ́": 1929,
      "gé": 1930,
      "iyè": 1931,
      "ikán": 1932,
      "igbó": 1933,
      "igbe": 1934,
      "káà": 1935,
      "mọ̀": 1936,
      "on": 1937,
      "olówó": 1938,
      "odò": 1939,
      "pójú": 1940,
      "rì": 1941,
      "sọ̀rọ̀": 1942,
      "tǔ": 1943,
      "tό": 1944,
      "tọ̀": 1945,
      "yẹ̀wò": 1946,
      "àpò": 1947,
      "àdí": 1948,
      "àìrò": 1949,
      "àwù": 1950,
      "áhùn": 1951,
      "èjì": 1952,
      "ìṣ": 1953,
      "ìpa": 1954,
      "ìlẹ̀": 1955,
      "ìjì": 1956,
      "ìmùlẹ̀": 1957,
      "òò": 1958,
      "òní": 1959,
      "òye": 1960,
      "òri": 1961,
      "ńṣe": 1962,
      "ńgá": 1963,
      "ṣa": 1964,
      "ṣojú": 1965,
      "ṣìí": 1966,
      "ṣọwọ́": 1967,
      "ẹyẹ": 1968,
      "ẹjọ́": 1969,
      "ẹja": 1970,
      "ọọ": 1971,
      "ọrọ": 1972,
      "ọkúrò": 1973,
      "ọgbọ̀n": 1974,
      "àì": 1975,
      "àdín": 1976,
      "àbójútó": 1977,
      "ẹgbẹ́": 1978,
      "ṣàkóso": 1979,
      "òté": 1980,
      "títọ́": 1981,
      "ẹ̀wà": 1982,
      "ẹ̀kún": 1983,
      "ọ̀sẹ̀": 1984,
      "ọ̀kọ̀ọ̀kan": 1985,
      "ọ̀fọ̀": 1986,
      "títí": 1987,
      "ọ́wọ́": 1988,
      "ọ́jọ́": 1989,
      "ṣepọ̀": 1990,
      "léwọ̀n": 1991,
      "ọ̀rí": 1992,
      "ọ̀kọ̀ọ̀kan": 1993,
      "lára": 1994,
      "lágbára": 1995,
      "láṣọ": 1996,
      "ṣẹ́fúnni": 1997,
      "síta": 1998,
      "bíbèèrè": 1999,
      "ìwọ̀": 2000,
      "ìdúró": 2001,
      "ìdókò": 2002,
      "ìdáhùn": 2003,
      "gbajú": 2004,
      "lógún": 2005,
      "kòó": 2006,
      "kòsí": 2007,
      "bíbèèrè": 2008,
      "báń": 2009,
      "ramu": 2010,
      "radì": 2011,
      "kítà": 2012,
      "wọ́pọ̀": 2013,
      "múlẹ̀": 2014,
      "oló": 2015,
      "wọ̀n": 2016,
      "dáńgá": 2017,
      "wálé": 2018,
      "kìn": 2019,
      "ṣísẹ̀": 2020,
      "ọmọbìnrin": 2021,
      "ọmọkùnrin": 2022,
      "ọ̀kan": 2023,
      "ọ̀ràn": 2024,
      "ọ̀rọ̀": 2025,
      "kété": 2026,
      "ṣàmúlò": 2027,
      "papọ̀": 2028,
      "ìyọkúrò": 2029,
      "gbádùn": 2030,
      "lọpọ̀": 2031,
      "kọsílẹ̀": 2032,
      "èrèdí": 2033,
      "àkọsílẹ": 2034,
      "àgbékalẹ̀": 2035,
      "nípasẹ̀": 2036,
      "abẹ́": 2037,
      "lẹ́kọ̀ọ́": 2038,
      "ìfiyèsí": 2039,
      "ìbejì": 2040,
      "yanjú": 2041,
      "pinpin": 2042,
      "wárí": 2043,
      "lẹ́nu": 2044,
      "sọkún": 2045,
      "wọ́": 2046,
      "pọ̀jù": 2047,
      "ìgbéléwọ̀n": 2048,
      "sanwó": 2049,
      "olùfúnni": 2050,
      "jíṣẹ́": 2051,
      "ìbèèrè": 2052,
      "ìfijíṣẹ́": 2053,
      "ìgbéṣẹ́fúnni": 2054,
      "àkóbá": 2055,
      "méjé": 2056,
      "méje": 2057,
      "ìfẹ́": 2058,
      "faragbá": 2059,
      "tẹ̀síwájú": 2060,
      "ọ̀pọ̀": 2061,
      "ọ̀gá": 2062,
      "ìwọ̀nba": 2063,
      "gere": 2064,
      "gegere": 2065,
      "ìsún": 2066,
      "tẹ̀síwájú": 2067,
      "ṣẹlẹ̀": 2068,
      "fáfá": 2069,
      "rọrùn": 2070,
      "ìran": 2071,
      "ìṣàmúlò": 2072,
      "ìjáfáfá": 2073,
      "gbáradì": 2074,
      "eléyìí": 2075,
      "elétǔ": 2076,
      "lílo": 2077,
      "adébọ́lá": 2078,
      "mẹ́wàá": 2079,
      "ìbẹ̀rẹ̀": 2080,
      "gbòòrò": 2081,
      "irinṣẹ́": 2082,
      "pípèsè": 2083,
      "pátá": 2084,
      "lọ́nà": 2085,
      "wúlò": 2086,
      "ọgọ́": 2087,
      "ìdánilójú": 2088,
      "ìdánilẹ́kọ̀ọ́": 2089,
      "pàápàá": 2090,
      "ìfijíṣẹ́": 2091,
      "sọ́nà": 2092,
      "tako": 2093,
      "ìtàkùn": 2094,
      "àbájáde": 2095,
      "fagilé": 2096,
      "rìísí": 2097,
      "sẹ́yìn": 2098,
      "ìgbéyàwό": 2099,
      "ìṣòtítọ́": 2100,
      "àlàkalẹ̀": 2101,
      "ìpìlẹ̀": 2102,
      "ìjẹ́rìísí": 2103,
      "lápapọ̀": 2104,
      "ṣẹ́mọṣẹ́": 2105,
      "olóògbé": 2106,
      "agogo": 2107,
      "kèèké": 2108,
      "tẹ́lẹ̀": 2109,
      "ìsìnkú": 2110,
      "òdiwọ̀n": 2111,
      "àṣìṣe": 2112,
      "pààrọ̀": 2113,
      "ṣàgbékalẹ̀": 2114,
      "ìfowópamọ́": 2115,
      "àwùjọ": 2116,
      "òriṣà": 2117,
      "ṣìírí": 2118,
      "ẹ̀kúnrẹ́rẹ́": 2119,
      "ìwọ̀n": 2120,
      "pátákó": 2121,
      "07": 2122,
      "alẹ́": 2123,
      "ari": 2124,
      "ajé": 2125,
      "amó": 2126,
      "bì": 2127,
      "borí": 2128,
      "bójú": 2129,
      "bẹ́": 2130,
      "dún": 2131,
      "dun": 2132,
      "dójú": 2133,
      "dáàbò": 2134,
      "ewu": 2135,
      "fè": 2136,
      "fó": 2137,
      "fò": 2138,
      "gún": 2139,
      "gàn": 2140,
      "hìn": 2141,
      "ipá": 2142,
      "iwájú": 2143,
      "jo": 2144,
      "jọ̀": 2145,
      "jèè": 2146,
      "jìbì": 2147,
      "kẹ́": 2148,
      "lẹ": 2149,
      "layé": 2150,
      "mì": 2151,
      "man": 2152,
      "mù": 2153,
      "mẹ́": 2154,
      "mọjá": 2155,
      "nt": 2156,
      "nnkan": 2157,
      "oò": 2158,
      "orú": 2159,
      "ogun": 2160,
      "pọ́n": 2161,
      "rọ́": 2162,
      "rẹ́": 2163,
      "se": 2164,
      "su": 2165,
      "sẹ": 2166,
      "tú": 2167,
      "tàn": 2168,
      "tẹ̀": 2169,
      "tẹ̀": 2170,
      "ww": 2171,
      "wè": 2172,
      "wẹ́": 2173,
      "wẹ́": 2174,
      "àjá": 2175,
      "àìb": 2176,
      "àsan": 2177,
      "àjù": 2178,
      "àkù": 2179,
      "àyẹ̀wò": 2180,
      "àwo": 2181,
      "àsà": 2182,
      "àád": 2183,
      "áfí": 2184,
      "árín": 2185,
      "èé": 2186,
      "èlé": 2187,
      "èké": 2188,
      "èkejì": 2189,
      "ìwọ": 2190,
      "ìmọ̀ràn": 2191,
      "írà": 2192,
      "òde": 2193,
      "òjé": 2194,
      "ṣè": 2195,
      "ṣú": 2196,
      "ṣòwò": 2197,
      "ọkọ̀": 2198,
      "ọgbọ́n": 2199,
      "àrí": 2200,
      "ààl": 2201,
      "àpapọ̀": 2202,
      "ọrí": 2203,
      "ọjà": 2204,
      "ìkó": 2205,
      "ìlẹ̀": 2206,
      "ìrì": 2207,
      "gbẹ": 2208,
      "gbẹ̀": 2209,
      "ẹnìkan": 2210,
      "áradì": 2211,
      "ṣé": 2212,
      "ṣìí": 2213,
      "ṣàgbékalẹ̀": 2214,
      "ṣàfihàn": 2215,
      "òye": 2216,
      "òǹ": 2217,
      "òdi": 2218,
      "ẹ́rú": 2219,
      "wọ̀": 2220,
      "nílé": 2221,
      "níwọ̀n": 2222,
      "ẹ́k": 2223,
      "ẹ́yìn": 2224,
      "ẹ̀ẹ́": 2225,
      "ẹ̀ẹ̀": 2226,
      "ẹ̀gbọ́n": 2227,
      "ani": 2228,
      "ẹ̀bẹ̀": 2229,
      "ẹ̀dà": 2230,
      "ọ̀tẹ̀": 2231,
      "ọ̀dà": 2232,
      "ọ̀sán": 2233,
      "níwè": 2234,
      "ṣeun": 2235,
      "yemu": 2236,
      "figagbága": 2237,
      "ṣepọ̀": 2238,
      "létò": 2239,
      "ọ̀kankan": 2240,
      "ọ̀mù": 2241,
      "lájọ": 2242,
      "lásán": 2243,
      "bíbá": 2244,
      "báni": 2245,
      "lágbá": 2246,
      "láàyè": 2247,
      "ríbà": 2248,
      "ìdì": 2249,
      "ríra": 2250,
      "tàbi": 2251,
      "gbàrò": 2252,
      "gbàja": 2253,
      "baà": 2254,
      "kíá": 2255,
      "óòrè": 2256,
      "ìlẹ́": 2257,
      "kaj": 2258,
      "kasí": 2259,
      "olon": 2260,
      "ròrò": 2261,
      "àyẹ̀wò": 2262,
      "kíkọ̀": 2263,
      "dán": 2264,
      "dere": 2265,
      "tọ̀": 2266,
      "ṣírò": 2267,
      "pàṣí": 2268,
      "wàhá": 2269,
      "onímọ̀": 2270,
      "ánu": 2271,
      "ọmọdé": 2272,
      "ọ̀dọ̀": 2273,
      "ọ̀tọ̀": 2274,
      "kégbàja": 2275,
      "ìgbáradì": 2276,
      "ìgbẹ́k": 2277,
      "ìlú": 2278,
      "tayọ": 2279,
      "tayọ": 2280,
      "kejì": 2281,
      "kedere": 2282,
      "retí": 2283,
      "nubà": 2284,
      "ìṣè": 2285,
      "pẹ̀lẹ́": 2286,
      "jàrajà": 2287,
      "mọ̀lẹ́": 2288,
      "bàjẹ́": 2289,
      "bàjẹ́": 2290,
      "yẹ̀pẹ̀": 2291,
      "onígbè": 2292,
      "onígbọ̀": 2293,
      "lẹ́nu": 2294,
      "márùn": 2295,
      "wólé": 2296,
      "àtìl": 2297,
      "jùlọ": 2298,
      "ìtu": 2299,
      "ìdámọ̀": 2300,
      "orísun": 2301,
      "oríṣi": 2302,
      "ẹ̀rí": 2303,
      "jíá": 2304,
      "aláṣìírí": 2305,
      "akọ́ṣẹ́mọṣẹ́": 2306,
      "dènà": 2307,
      "ìgbésẹ̀": 2308,
      "láàrín": 2309,
      "láàárín": 2310,
      "wọ́n": 2311,
      "lọ́jọ́": 2312,
      "kùkù": 2313,
      "méjèè": 2314,
      "daràn": 2315,
      "òkè": 2316,
      "dídá": 2317,
      "mẹ́rin": 2318,
      "mẹ́fà": 2319,
      "fíf": 2320,
      "ìforú": 2321,
      "jíjẹ́": 2322,
      "pátá": 2323,
      "pálọ̀": 2324,
      "ìmúyẹ": 2325,
      "ìbátan": 2326,
      "ìbáṣepọ̀": 2327,
      "buwọ́": 2328,
      "dènà": 2329,
      "fífẹ̀": 2330,
      "àbọ̀": 2331,
      "ìsà": 2332,
      "ìsàn": 2333,
      "godo": 2334,
      "dípò": 2335,
      "lura": 2336,
      "nìwọ̀nyí": 2337,
      "yínká": 2338,
      "kọ́kọ́": 2339,
      "jagun": 2340,
      "ìrìn": 2341,
      "ooo": 2342,
      "kẹ́ni": 2343,
      "ẹlẹ́ran": 2344,
      "ọdọọdún": 2345,
      "ìtọ́ni": 2346,
      "ìtọ́kasí": 2347,
      "ṣùwọ̀n": 2348,
      "bàá": 2349,
      "ṣàájú": 2350,
      "sáyẹ́": 2351,
      "ìtọ́ni": 2352,
      "ìjíyìn": 2353,
      "náírà": 2354,
      "sórí": 2355,
      "láìsí": 2356,
      "wuye": 2357,
      "aráyé": 2358,
      "lόrí": 2359,
      "lọ́wọ́": 2360,
      "rug": 2361,
      "ọ̀tọ̀ọ̀tọ̀": 2362,
      "tọ́ka": 2363,
      "ìtajàrajà": 2364,
      "ìpínlẹ̀": 2365,
      "ọ̀pọ̀lọpọ̀": 2366,
      "kíákíá": 2367,
      "ṣoṣo": 2368,
      "lájọlájọ": 2369,
      "ìwúre": 2370,
      "ìṣòtítọ́": 2371,
      "abíọ́": 2372,
      "àkọsílẹ̀": 2373,
      "òǹrajà": 2374,
      "àṣeyọrí": 2375,
      "2007": 2376,
      "eléyìí": 2377,
      "ṣẹ̀dá": 2378,
      "kínni": 2379,
      "kéékèèké": 2380,
      "ìṣẹ̀lẹ̀": 2381,
      "àìròtẹ́lẹ̀": 2382,
      "àdínkù": 2383,
      "ọ́wọ́tó": 2384,
      "báńkì": 2385,
      "dáńgájíá": 2386,
      "abẹ́lé": 2387,
      "méjéèjì": 2388,
      "ìsúnsíwájú": 2389,
      "amóríyá": 2390,
      "bójúmu": 2391,
      "jìbìtì": 2392,
      "mọjáde": 2393,
      "àjálù": 2394,
      "àádọ́": 2395,
      "ààlà": 2396,
      "ọrísí": 2397,
      "ṣìírí": 2398,
      "òdiwọ̀n": 2399,
      "níwèé": 2400,
      "lágbára": 2401,
      "olongo": 2402,
      "wàhálà": 2403,
      "mọ̀lẹ́bí": 2404,
      "onígbọ̀wọ́": 2405,
      "kùkùté": 2406,
      "méjèèjì": 2407,
      "ìforúkọsílẹ̀": 2408,
      "aá": 2409,
      "aá": 2410,
      "aṣ": 2411,
      "agbé": 2412,
      "adá": 2413,
      "alà": 2414,
      "ata": 2415,
      "ayẹ": 2416,
      "amá": 2417,
      "agbè": 2418,
      "atọ́": 2419,
      "adarí": 2420,
      "aṣojú": 2421,
      "bìl": 2422,
      "borí": 2423,
      "bẹ̀": 2424,
      "du": 2425,
      "dú": 2426,
      "dẹ́": 2427,
      "dẹ̀": 2428,
      "dìd": 2429,
      "dìdí": 2430,
      "dójú": 2431,
      "dìí": 2432,
      "dẹr": 2433,
      "dolóògbé": 2434,
      "fọ́": 2435,
      "fìdí": 2436,
      "forúkọ": 2437,
      "fẹnu": 2438,
      "gí": 2439,
      "gé": 2440,
      "gẹ̀": 2441,
      "gọ̀": 2442,
      "gán": 2443,
      "gùn": 2444,
      "gọ̀": 2445,
      "gédé": 2446,
      "gìrì": 2447,
      "hún": 2448,
      "háà": 2449,
      "hù": 2450,
      "hee": 2451,
      "ir": 2452,
      "iyì": 2453,
      "ilú": 2454,
      "ikọ̀": 2455,
      "ifá": 2456,
      "ipá": 2457,
      "iman": 2458,
      "jín": 2459,
      "jọ́": 2460,
      "kό": 2461,
      "kẹ": 2462,
      "kìl": 2463,
      "kán": 2464,
      "múná": 2465,
      "mọ́": 2466,
      "mẹ̀yà": 2467,
      "nlẹ̀": 2468,
      "nnà": 2469,
      "oń": 2470,
      "oun": 2471,
      "orin": 2472,
      "ogún": 2473,
      "pọn": 2474,
      "rún": 2475,
      "sé": 2476,
      "sú": 2477,
      "sẹ": 2478,
      "sún": 2479,
      "tọkọ": 2480,
      "tọrọ": 2481,
      "wì": 2482,
      "yi": 2483,
      "yìw": 2484,
      "yapa": 2485,
      "yàtọ̀": 2486,
      "àtí": 2487,
      "àrí": 2488,
      "àrẹ̀": 2489,
      "àyè": 2490,
      "àṣí": 2491,
      "àgá": 2492,
      "àmójútó": 2493,
      "àjò": 2494,
      "àpèjúwe": 2495,
      "àyẹ̀wò": 2496,
      "éwe": 2497,
      "ìh": 2498,
      "ìjú": 2499,
      "ìsì": 2500,
      "ìkó": 2501,
      "ìgbè": 2502,
      "ìjọba": 2503,
      "ìyàn": 2504,
      "ìjà": 2505,
      "ìkọ́": 2506,
      "ìkópa": 2507,
      "ìmọ̀": 2508,
      "ìlérí": 2509,
      "ísì": 2510,
      "òpò": 2511,
      "òmíràn": 2512,
      "órí": 2513,
      "ógun": 2514,
      "úpa": 2515,
      "újẹ́": 2516,
      "úró": 2517,
      "ńkì": 2518,
      "ńkẹ́": 2519,
      "ǹsì": 2520,
      "ṣu": 2521,
      "ṣán": 2522,
      "ẹní": 2523,
      "ẹnìkan": 2524,
      "ọọ́": 2525,
      "ọrọ̀": 2526,
      "àlé": 2527,
      "àmọ̀": 2528,
      "àsan": 2529,
      "àbò": 2530,
      "àdí": 2531,
      "àsìkò": 2532,
      "àṣà": 2533,
      "àwárí": 2534,
      "àmì": 2535,
      "àrọ́": 2536,
      "ọja": 2537,
      "ọpinpin": 2538,
      "ìlé": 2539,
      "ìlò": 2540,
      "ìkọ́": 2541,
      "ìjẹ́rìí": 2542,
      "ìmọ̀": 2543,
      "gbọ́": 2544,
      "ẹnì": 2545,
      "ébù": 2546,
      "ótí": 2547,
      "ókí": 2548,
      "ṣẹ́": 2549,
      "ṣọ̀wọ́": 2550,
      "ṣèè": 2551,
      "ṣókí": 2552,
      "òun": 2553,
      "òṣùwọ̀n": 2554,
      "níjà": 2555,
      "títẹ̀lé": 2556,
      "ẹ̀pà": 2557,
      "ẹ̀yẹ": 2558,
      "ẹ̀mí": 2559,
      "ẹ̀dà": 2560,
      "ẹ̀sìn": 2561,
      "ẹ̀ẹ́": 2562,
      "ẹ̀lé": 2563,
      "ẹ̀yìn": 2564,
      "ẹ̀mí": 2565,
      "ẹ̀me": 2566,
      "ọ̀dàn": 2567,
      "ọ̀jọ̀": 2568,
      "níí": 2569,
      "níwọ̀n": 2570,
      "níyà": 2571,
      "nikú": 2572,
      "nilójú": 2573,
      "nisọ̀rọ̀": 2574,
      "kanṣoṣo": 2575,
      "fitì": 2576,
      "ọ̀daràn": 2577,
      "ọ̀hún": 2578,
      "síta": 2579,
      "sẹ̀": 2580,
      "ládé": 2581,
      "láre": 2582,
      "lábẹ́": 2583,
      "àná": 2584,
      "ànújẹ́": 2585,
      "patà": 2586,
      "ìwé": 2587,
      "ìwọ̀": 2588,
      "sís": 2589,
      "sísọ": 2590,
      "báńkì": 2591,
      "láìfi": 2592,
      "láìbì": 2593,
      "lábàá": 2594,
      "lárug": 2595,
      "ìda": 2596,
      "ìdójú": 2597,
      "ìdúró": 2598,
      "àtijọ́": 2599,
      "rín": 2600,
      "rírà": 2601,
      "ríṣi": 2602,
      "lónì": 2603,
      "lóòrè": 2604,
      "báramu": 2605,
      "ròyìn": 2606,
      "rajà": 2607,
      "wọ́pọ̀": 2608,
      "gbéyẹ̀wò": 2609,
      "ọja": 2610,
      "ọjọ́": 2611,
      "kíkó": 2612,
      "kíbi": 2613,
      "kíko": 2614,
      "kówó": 2615,
      "kóòrè": 2616,
      "wọ́tó": 2617,
      "yéè": 2618,
      "olú": 2619,
      "kọ̀": 2620,
      "àyàn": 2621,
      "àyọrísí": 2622,
      "akọjà": 2623,
      "akéwe": 2624,
      "kítà": 2625,
      "kíkùnà": 2626,
      "débi": 2627,
      "dáhùn": 2628,
      "dámọ̀ràn": 2629,
      "dákun": 2630,
      "dágodo": 2631,
      "dánilójú": 2632,
      "gbèsè": 2633,
      "wárí": 2634,
      "wádìí": 2635,
      "kìnì": 2636,
      "wàràn": 2637,
      "onítọ̀": 2638,
      "taya": 2639,
      "keje": 2640,
      "mọ́ra": 2641,
      "didi": 2642,
      "délẹ̀": 2643,
      "àtẹ̀": 2644,
      "àtẹ̀yìn": 2645,
      "àtìlẹ́": 2646,
      "àtúpa": 2647,
      "numọ́": 2648,
      "ìṣètò": 2649,
      "ìṣàmúlò": 2650,
      "yẹra": 2651,
      "tòfò": 2652,
      "dárúkọ": 2653,
      "dáàbò": 2654,
      "mọ̀ọ́": 2655,
      "ojúṣàájú": 2656,
      "ìṣí": 2657,
      "ìṣáájú": 2658,
      "kọ́": 2659,
      "olùkégbàja": 2660,
      "abọ́": 2661,
      "nípasẹ̀": 2662,
      "mumi": 2663,
      "ìbànújẹ́": 2664,
      "onígbọ̀wọ́": 2665,
      "pege": 2666,
      "wọ̀nyìí": 2667,
      "kìn": 2668,
      "lẹ́kùn": 2669,
      "àmúdójú": 2670,
      "ìgbélárug": 2671,
      "jẹyọ": 2672,
      "ìtan": 2673,
      "ìtìjú": 2674,
      "ìdápadà": 2675,
      "olùjẹ́rìí": 2676,
      "olùkópa": 2677,
      "orílẹ̀": 2678,
      "jídé": 2679,
      "alápatà": 2680,
      "ìdáláre": 2681,
      "ẹ̀dà": 2682,
      "àfisùn": 2683,
      "ààyè": 2684,
      "àtúnyẹ̀wò": 2685,
      "àtúnyẹ̀wò": 2686,
      "àkójọ": 2687,
      "kọ̀wé": 2688,
      "ẹnikẹ́ni": 2689,
      "kẹta": 2690,
      "lọ́rùn": 2691,
      "gbígbà": 2692,
      "kùlé": 2693,
      "pọ̀jù": 2694,
      "ìfọ̀rọ̀": 2695,
      "faramọ́": 2696,
      "ìgbàpadà": 2697,
      "yédẹr": 2698,
      "díje": 2699,
      "tọ́rọ̀": 2700,
      "mẹ́jọ": 2701,
      "mẹ́wàá": 2702,
      "mẹ́ẹ̀ẹ́": 2703,
      "jùlọ": 2704,
      "àfiwé": 2705,
      "àfijíṣẹ́": 2706,
      "ìyábọ̀": 2707,
      "dàá": 2708,
      "dàbí": 2709,
      "bóyemu": 2710,
      "fífẹ̀": 2711,
      "fíìsì": 2712,
      "sùnwọ̀n": 2713,
      "wérọ̀": 2714,
      "ìfura": 2715,
      "ìfìfẹ́": 2716,
      "ọ́rùn": 2717,
      "ìmúṣẹ́ṣe": 2718,
      "ìbánisọ̀rọ̀": 2719,
      "kúrú": 2720,
      "díẹ̀": 2721,
      "èròjà": 2722,
      "bẹ̀bẹ̀": 2723,
      "jẹyọ": 2724,
      "pípa": 2725,
      "gidi": 2726,
      "ọlọ́jọ́": 2727,
      "láìṣe": 2728,
      "ìyàrá": 2729,
      "fáfitì": 2730,
      "gbáralé": 2731,
      "elétù": 2732,
      "rẹ́sì": 2733,
      "àpótí": 2734,
      "ẹnikẹ́": 2735,
      "ṣẹ̀ṣẹ̀": 2736,
      "ìdánimọ̀": 2737,
      "ìdánilójú": 2738,
      "mẹ́ta": 2739,
      "mẹ́fà": 2740,
      "àìsí": 2741,
      "kásẹ̀": 2742,
      "ìjíròrò": 2743,
      "àbájáde": 2744,
      "kọ̀ọ̀kan": 2745,
      "sísanwó": 2746,
      "fojúsùn": 2747,
      "dodo": 2748,
      "ibú": 2749,
      "mọ̀lò": 2750,
      "àwòdì": 2751,
      "polówó": 2752,
      "ọgọ́rùn": 2753,
      "dógún": 2754,
      "fẹnu": 2755,
      "fojúsùn": 2756,
      "gbọ́dọ̀": 2757,
      "ìfijíṣẹ́": 2758,
      "sọ́tọ̀": 2759,
      "àṣeparí": 2760,
      "ìtàpá": 2761,
      "lọ́nà": 2762,
      "fagilé": 2763,
      "tútù": 2764,
      "tani": 2765,
      "àròkọ": 2766,
      "ìwúlò": 2767,
      "ìṣòro": 2768,
      "ìgbéyàwó": 2769,
      "kánjúkánjú": 2770,
      "ìṣòtítọ́": 2771,
      "dandan": 2772,
      "ìjìyà": 2773,
      "yọ́nú": 2774,
      "àwárí": 2775,
      "ògiri": 2776,
      "ògidì": 2777,
      "ṣọ́ra": 2778,
      "ìsọ̀rí": 2779,
      "ìtọpinpin": 2780,
      "ọ̀tọ̀ọ̀tọ̀": 2781,
      "ìṣèwádìí": 2782,
      "dóko": 2783,
      "iyèméjì": 2784,
      "káàkiri": 2785,
      "ìjìnlẹ̀": 2786,
      "ìdúrófún": 2787,
      "ìdókòwò": 2788,
      "gbajúmọ̀": 2789,
      "ọgọ́rùn": 2790,
      "ariwo": 2791,
      "túmọ̀": 2792,
      "tẹ̀lé": 2793,
      "àjùmọ̀lò": 2794,
      "àkùdé": 2795,
      "ṣúgà": 2796,
      "ìrìnnà": 2797,
      "òǹrajà": 2798,
      "ọ̀dàlẹ̀": 2799,
      "pàṣípààrọ̀": 2800,
      "ìgbẹ́kẹ̀lé": 2801,
      "onígbèdéke": 2802,
      "ìtumọ̀": 2803,
      "ìsàlẹ̀": 2804,
      "sáyẹ́ǹsì": 2805,
      "aáwọ̀": 2806,
      "aṣòfin": 2807,
      "agbéròyìn": 2808,
      "ayẹyẹ": 2809,
      "amáyédẹr": 2810,
      "agbègbè": 2811,
      "atọ́nà": 2812,
      "bìlísì": 2813,
      "dìde": 2814,
      "fọ́ọ̀mù": 2815,
      "fẹnukò": 2816,
      "kìlọ̀": 2817,
      "múnádóko": 2818,
      "tọkọtaya": 2819,
      "àṣírí": 2820,
      "àgádágodo": 2821,
      "ìgbèrí": 2822,
      "ọọ́fíìsì": 2823,
      "àléébù": 2824,
      "àsansílẹ̀": 2825,
      "àdírẹ́sì": 2826,
      "àṣàrò": 2827,
      "àrọ́wọ́tó": 2828,
      "ṣọ̀wọ́n": 2829,
      "ṣèèṣì": 2830,
      "ẹ̀mejì": 2831,
      "ọ̀jọ̀gbọ́n": 2832,
      "ìwọ̀n": 2833,
      "láìbìkítà": 2834,
      "ìdójútòfò": 2835,
      "lóòrèkóòrè": 2836,
      "kíkorò": 2837,
      "akọjàfúnni": 2838,
      "akéwejẹ": 2839,
      "kìnìún": 2840,
      "onítọ̀ún": 2841,
      "àtìlẹ́yìn": 2842,
      "àtúpalẹ̀": 2843,
      "pegedé": 2844,
      "ìgbélárugẹ": 2845,
      "mẹ́ẹ̀ẹ́dógún": 2846,
      "ìfìfẹ́hàn": 2847,
      "ẹnikẹ́ni": 2848,
      "amáyédẹrùn": 2849,
      "44": 2850,
      "50": 2851,
      "af": 2852,
      "ar": 2853,
      "awọn": 2854,
      "arí": 2855,
      "akó": 2856,
      "amú": 2857,
      "ajá": 2858,
      "asọ": 2859,
      "ají": 2860,
      "agún": 2861,
      "apá": 2862,
      "afín": 2863,
      "ará": 2864,
      "awuye": 2865,
      "bp": 2866,
      "bùn": 2867,
      "bẹ̀": 2868,
      "béèrè": 2869,
      "ce": 2870,
      "dọ́": 2871,
      "dù": 2872,
      "dìdí": 2873,
      "din": 2874,
      "dèyí": 2875,
      "dòwò": 2876,
      "dọọdún": 2877,
      "es": 2878,
      "eé": 2879,
      "etí": 2880,
      "eré": 2881,
      "epo": 2882,
      "eku": 2883,
      "ewì": 2884,
      "fì": 2885,
      "fù": 2886,
      "fọ": 2887,
      "fì": 2888,
      "fìn": 2889,
      "fẹ́": 2890,
      "fọ́": 2891,
      "fura": 2892,
      "fọkàn": 2893,
      "gè": 2894,
      "gí": 2895,
      "gú": 2896,
      "gìd": 2897,
      "gẹ̀ẹ́": 2898,
      "hu": 2899,
      "hí": 2900,
      "hẹ": 2901,
      "if": 2902,
      "il": 2903,
      "is": 2904,
      "iyè": 2905,
      "igbá": 2906,
      "idà": 2907,
      "ibẹ̀": 2908,
      "iwájú": 2909,
      "ifẹ̀": 2910,
      "iṣẹ́": 2911,
      "jìdí": 2912,
      "jin": 2913,
      "jìyà": 2914,
      "kǒ": 2915,
      "krí": 2916,
      "kow": 2917,
      "kọ̀rọ̀": 2918,
      "kóòrè": 2919,
      "lì": 2920,
      "lì": 2921,
      "làti": 2922,
      "lóòrè": 2923,
      "ms": 2924,
      "mè": 2925,
      "mò": 2926,
      "ḿ": 2927,
      "min": 2928,
      "mín": 2929,
      "mẹ́": 2930,
      "ng": 2931,
      "nù": 2932,
      "ndé": 2933,
      "nnà": 2934,
      "nkọ́": 2935,
      "nnì": 2936,
      "nọ́": 2937,
      "og": 2938,
      "oy": 2939,
      "orò": 2940,
      "oró": 2941,
      "oro": 2942,
      "odù": 2943,
      "ojo": 2944,
      "odidi": 2945,
      "pẹ": 2946,
      "pọ": 2947,
      "pẹ́": 2948,
      "pọ̀": 2949,
      "pọn": 2950,
      "pẹrẹ": 2951,
      "polongo": 2952,
      "rì": 2953,
      "ráà": 2954,
      "ràk": 2955,
      "rọ́wọ́tó": 2956,
      "sù": 2957,
      "sàt": 2958,
      "sójú": 2959,
      "stì": 2960,
      "sẹ́yìn": 2961,
      "to": 2962,
      "tu": 2963,
      "toní": 2964,
      "tọmọ": 2965,
      "tẹ́": 2966,
      "tọ̀nà": 2967,
      "tẹlẹ́": 2968,
      "tìgbàdégbà": 2969,
      "tìfura": 2970,
      "uwọ́": 2971,
      "ure": 2972,
      "wè": 2973,
      "wẹ": 2974,
      "wèrè": 2975,
      "xty": 2976,
      "yò": 2977,
      "yùn": 2978,
      "yaba": 2979,
      "­­": 2980,
      "àj": 2981,
      "àkan": 2982,
      "àbí": 2983,
      "àpè": 2984,
      "àwa": 2985,
      "àso": 2986,
      "àyọ": 2987,
      "àdúrà": 2988,
      "àgbó": 2989,
      "àṣa": 2990,
      "àdán": 2991,
      "àìsàn": 2992,
      "àsùnwọ̀n": 2993,
      "àrọ́wọ́tó": 2994,
      "ádí": 2995,
      "èwọ̀": 2996,
      "éè": 2997,
      "élò": 2998,
      "ìní": 2999,
      "ìṣẹ́": 3000,
      "ìlò": 3001,
      "ìkọ": 3002,
      "ìyó": 3003,
      "ìrẹ̀": 3004,
      "ìpà": 3005,
      "ìsọ": 3006,
      "ìjẹ": 3007,
      "ìkà": 3008,
      "ìpá": 3009,
      "ìko": 3010,
      "ìkẹ́": 3011,
      "ìtọ́": 3012,
      "ìhùwà": 3013,
      "ìkítà": 3014,
      "ìgbáradì": 3015,
      "ìkọ̀wé": 3016,
      "ìpolówó": 3017,
      "ílù": 3018,
      "òbí": 3019,
      "òrù": 3020,
      "òrùn": 3021,
      "òru": 3022,
      "òwú": 3023,
      "òfú": 3024,
      "óó": 3025,
      "óún": 3026,
      "ókò": 3027,
      "ópe": 3028,
      "ótọ́": 3029,
      "ófinmu": 3030,
      "ùrù": 3031,
      "ńjẹ́": 3032,
      "ńlu": 3033,
      "ńgbádùn": 3034,
      "ǔn": 3035,
      "ǹtak": 3036,
      "ǹnkan": 3037,
      "ǹjo": 3038,
      "̣tà": 3039,
      "ḿbé": 3040,
      "ṅkan": 3041,
      "ṅkàn": 3042,
      "ṣó": 3043,
      "ṣọ̀": 3044,
      "ṣalá": 3045,
      "ẹlẹ̀": 3046,
      "ẹrẹ̀": 3047,
      "ẹdọ̀": 3048,
      "ẹnì": 3049,
      "ẹsẹ̀": 3050,
      "ẹkùn": 3051,
      "ẹbọ": 3052,
      "ọgbà": 3053,
      "ọwọ́": 3054,
      "ọgbọ́n": 3055,
      "ọdọ": 3056,
      "ọlọ́": 3057,
      "ọdẹ": 3058,
      "ọpinpin": 3059,
      "ọdun": 3060,
      "àṣ": 3061,
      "àlẹ̀": 3062,
      "àrò": 3063,
      "àwò": 3064,
      "àpé": 3065,
      "àìṣ": 3066,
      "àìrò": 3067,
      "àsọ": 3068,
      "àrọ̀": 3069,
      "àbọ̀": 3070,
      "àsùn": 3071,
      "àbù": 3072,
      "àfojúsùn": 3073,
      "íme": 3074,
      "ọgbọ́n": 3075,
      "ọkọ̀": 3076,
      "ọlọ́": 3077,
      "ọjọ́": 3078,
      "ìní": 3079,
      "ìgbo": 3080,
      "ìkí": 3081,
      "ìta": 3082,
      "ìkọ": 3083,
      "ìsọ": 3084,
      "ìwọ̀nyí": 3085,
      "ìjẹ": 3086,
      "ìjẹ́": 3087,
      "ìkúnjú": 3088,
      "ìparí": 3089,
      "ìṣàkóso": 3090,
      "gbọ̀": 3091,
      "gbìjì": 3092,
      "gbìyàn": 3093,
      "èdìdí": 3094,
      "èlì": 3095,
      "ẹyìn": 3096,
      "ẹjọ́": 3097,
      "ẹsẹ̀múlẹ̀": 3098,
      "áni": 3099,
      "átà": 3100,
      "ádọ́": 3101,
      "tise": 3102,
      "ṣí": 3103,
      "ṣè": 3104,
      "ṣò": 3105,
      "ṣàtúnṣe": 3106,
      "ṣàǹfààní": 3107,
      "ṣàmúlò": 3108,
      "ṣokùnfà": 3109,
      "òtí": 3110,
      "níní": 3111,
      "níláti": 3112,
      "níyàn": 3113,
      "níjọ́": 3114,
      "níbo": 3115,
      "níwájú": 3116,
      "nísà": 3117,
      "nífẹ̀": 3118,
      "nímọ̀ràn": 3119,
      "nípọn": 3120,
      "títẹ̀": 3121,
      "wọnú": 3122,
      "ẹ̀dọ̀": 3123,
      "ẹ̀kán": 3124,
      "ẹ̀ṣẹ̀": 3125,
      "ẹ̀hìn": 3126,
      "anu": 3127,
      "anyàn": 3128,
      "únrẹ́rẹ́": 3129,
      "únrẹ́rẹ́": 3130,
      "ẹ̀sùn": 3131,
      "ọ̀la": 3132,
      "ọ̀tún": 3133,
      "ọ̀kankan": 3134,
      "ọ̀pá": 3135,
      "ọ̀bùn": 3136,
      "ọ̀yọ́": 3137,
      "ọ̀bẹ": 3138,
      "nísí": 3139,
      "nílá": 3140,
      "nílẹ̀": 3141,
      "níṣojú": 3142,
      "nífẹ̀": 3143,
      "níṣókí": 3144,
      "títẹ̀": 3145,
      "títẹ": 3146,
      "nira": 3147,
      "nibú": 3148,
      "niníyà": 3149,
      "ọ́dé": 3150,
      "ṣebí": 3151,
      "ṣeré": 3152,
      "fúnra": 3153,
      "lérò": 3154,
      "léèwọ̀": 3155,
      "fiyè": 3156,
      "fikún": 3157,
      "fihàn": 3158,
      "fiyèsí": 3159,
      "ṣedéédé": 3160,
      "ṣẹ́fúnni": 3161,
      "lélẹ̀": 3162,
      "lẹ́tà": 3163,
      "ọ̀sẹ̀": 3164,
      "ọ̀gá": 3165,
      "ọ̀wọ́": 3166,
      "fúnra": 3167,
      "síṣẹ́": 3168,
      "síwá": 3169,
      "sílẹ̀": 3170,
      "sísọ̀": 3171,
      "lámọ̀": 3172,
      "láìfi": 3173,
      "lárá": 3174,
      "lákà": 3175,
      "lárọ̀": 3176,
      "láṣẹ": 3177,
      "tóbi": 3178,
      "àna": 3179,
      "para": 3180,
      "pamí": 3181,
      "ìwòye": 3182,
      "síbì": 3183,
      "bíye": 3184,
      "bímọ": 3185,
      "bíadé": 3186,
      "báà": 3187,
      "bálẹ̀": 3188,
      "bára": 3189,
      "bájù": 3190,
      "báwo": 3191,
      "bádámọ̀ràn": 3192,
      "láày": 3193,
      "láre": 3194,
      "lákọ̀ọ́": 3195,
      "láṣìírí": 3196,
      "látìgbàdégbà": 3197,
      "ríhun": 3198,
      "ríbá": 3199,
      "rími": 3200,
      "ríkà": 3201,
      "rígà": 3202,
      "ọ́kọ́": 3203,
      "ìdarí": 3204,
      "owo": 3205,
      "owό": 3206,
      "ìdáàbò": 3207,
      "ìdókò": 3208,
      "àtiṣe": 3209,
      "àtipé": 3210,
      "àtipé": 3211,
      "júgba": 3212,
      "gbajà": 3213,
      "gbajúgba": 3214,
      "gbàgbé": 3215,
      "gbàdúrà": 3216,
      "gbàǹjo": 3217,
      "lóti": 3218,
      "lódé": 3219,
      "lóbìnrin": 3220,
      "lóru": 3221,
      "lónibú": 3222,
      "bara": 3223,
      "kòrí": 3224,
      "kòsùn": 3225,
      "kòpẹ́": 3226,
      "iná": 3227,
      "inmi": 3228,
      "ròrò": 3229,
      "gbékalẹ̀": 3230,
      "ilédì": 3231,
      "gbàgbọ́": 3232,
      "gbàja": 3233,
      "gbéwọ̀n": 3234,
      "gbéyẹ̀wò": 3235,
      "ọjọ": 3236,
      "kíni": 3237,
      "kíkọ̀": 3238,
      "yíyẹ": 3239,
      "yíyá": 3240,
      "yíyàn": 3241,
      "àkọ́kọ́": 3242,
      "ìdíyele": 3243,
      "óòó": 3244,
      "kóríyá": 3245,
      "karùn": 3246,
      "yéké": 3247,
      "múlẹ̀": 3248,
      "múyìw": 3249,
      "ǹgbà": 3250,
      "wòye": 3251,
      "rèwà": 3252,
      "péye": 3253,
      "péjọ": 3254,
      "rọ̀": 3255,
      "jẹ́rìí": 3256,
      "nǹkankan": 3257,
      "àyè": 3258,
      "àyọkúrò": 3259,
      "jọjú": 3260,
      "jọra": 3261,
      "wòye": 3262,
      "wọ̀n": 3263,
      "akọ́": 3264,
      "iyebíye": 3265,
      "kíkọ́": 3266,
      "kíkéde": 3267,
      "délé": 3268,
      "déṣeré": 3269,
      "dákà": 3270,
      "dábàá": 3271,
      "dánù": 3272,
      "wándé": 3273,
      "kìkí": 3274,
      "lórúkọ": 3275,
      "yẹpẹrẹ": 3276,
      "èèyán": 3277,
      "ṣíṣètò": 3278,
      "ṣíṣé": 3279,
      "nǹkankan": 3280,
      "pàdánù": 3281,
      "onílé": 3282,
      "onígbèdéke": 3283,
      "onímuṣin": 3284,
      "ánì": 3285,
      "orílẹ̀": 3286,
      "oríkì": 3287,
      "ọmọlú": 3288,
      "ọ̀nà": 3289,
      "ọ̀mù": 3290,
      "ọ̀gọ̀": 3291,
      "kúù": 3292,
      "kúlẹ̀": 3293,
      "kúlí": 3294,
      "máá": 3295,
      "márùn": 3296,
      "àgbàyé": 3297,
      "lúmọ": 3298,
      "ọ̀ré": 3299,
      "ṣàṣà": 3300,
      "ṣàǹfààní": 3301,
      "ṣàwárí": 3302,
      "ìgbó": 3303,
      "ìgbọ́": 3304,
      "ìgbani": 3305,
      "ìlì": 3306,
      "lọ́ọ́": 3307,
      "lọ́lẹ̀": 3308,
      "lọ́sẹ̀": 3309,
      "lọ́rẹ": 3310,
      "yìntì": 3311,
      "ìyáà": 3312,
      "ojúmọ́": 3313,
      "ojúlù": 3314,
      "mọ́wọ́": 3315,
      "mọ́ná": 3316,
      "mọ́gà": 3317,
      "mọ́yán": 3318,
      "débi": 3319,
      "pàdá": 3320,
      "àgbéjáde": 3321,
      "àgbéwọlé": 3322,
      "nubà": 3323,
      "onímọ̀": 3324,
      "ìṣura": 3325,
      "ìṣàmójútó": 3326,
      "kúnkún": 3327,
      "kúnrẹ́": 3328,
      "gbádéṣeré": 3329,
      "jàṅkàn": 3330,
      "jáwé": 3331,
      "tòótọ́": 3332,
      "àmúyẹ": 3333,
      "àmújáde": 3334,
      "àmúdójú": 3335,
      "dátà": 3336,
      "ojúrere": 3337,
      "ìṣura": 3338,
      "ìṣẹlẹ̀": 3339,
      "bàrà": 3340,
      "bàrígà": 3341,
      "onígbọ̀wọ́": 3342,
      "ìyàtò": 3343,
      "ìmọ̀ràn": 3344,
      "wọ̀nyẹn": 3345,
      "olùkọ́": 3346,
      "olùkópa": 3347,
      "olùbádámọ̀ràn": 3348,
      "àgbéyẹ̀wò": 3349,
      "lóríi": 3350,
      "lẹ́sẹ̀": 3351,
      "dọ̀bálẹ̀": 3352,
      "ìfinú": 3353,
      "ìfilọ́lẹ̀": 3354,
      "ìbùsùn": 3355,
      "ìbẹrẹ̀": 3356,
      "máro": 3357,
      "kọrúkọ": 3358,
      "yanjú": 3359,
      "ṣíṣètò": 3360,
      "jára": 3361,
      "nìnú": 3362,
      "wádìí": 3363,
      "wọ̀nyẹn": 3364,
      "lẹ́kaj": 3365,
      "lẹ́ẹ̀mejì": 3366,
      "wósílẹ̀": 3367,
      "wọ́n": 3368,
      "gbèrú": 3369,
      "pọ̀n": 3370,
      "fẹ́ni": 3371,
      "fẹ́ràn": 3372,
      "fẹ́fẹ́": 3373,
      "àmúkúrò": 3374,
      "ìgbéjáde": 3375,
      "ìgbésẹ̀": 3376,
      "akọ́jàfúnni": 3377,
      "kúná": 3378,
      "ìdájọ́": 3379,
      "ìdámẹ́wàá": 3380,
      "ìdáláre": 3381,
      "olùgbó": 3382,
      "olùwòye": 3383,
      "kété": 3384,
      "ṣẹ́ṣe": 3385,
      "àjọsọ": 3386,
      "ẹ̀lé": 3387,
      "ẹ̀bẹ̀": 3388,
      "jíí": 3389,
      "jíjẹ": 3390,
      "alábọ́": 3391,
      "alákòó": 3392,
      "aláìsàn": 3393,
      "aláǹtak": 3394,
      "aláìl": 3395,
      "aládà": 3396,
      "aláṣìírí": 3397,
      "aláìní": 3398,
      "tọ́jú": 3399,
      "ìbuwọ́": 3400,
      "ìdámọ̀": 3401,
      "ìdájí": 3402,
      "ẹ̀yà": 3403,
      "ẹ̀kúnrẹ́": 3404,
      "ìfilọ́": 3405,
      "irúfẹ́": 3406,
      "míì": 3407,
      "mímójútó": 3408,
      "mímúlò": 3409,
      "yàrá": 3410,
      "ààrin": 3411,
      "ààrọ̀": 3412,
      "réré": 3413,
      "ṣùgbọ́n": 3414,
      "lah": 3415,
      "laiman": 3416,
      "ìgbéga": 3417,
      "ìgbésẹ": 3418,
      "ìgbéṣẹ́fúnni": 3419,
      "òótọ́": 3420,
      "àkóso": 3421,
      "kábá": 3422,
      "kárí": 3423,
      "káma": 3424,
      "kọ̀m̀": 3425,
      "bọ̀": 3426,
      "sẹ̀dé": 3427,
      "bẹ́ẹ̀ni": 3428,
      "kẹjọ": 3429,
      "kẹrin": 3430,
      "kẹfà": 3431,
      "kẹwàá": 3432,
      "níbikíbi": 3433,
      "lọ́nà": 3434,
      "lọ́kàn": 3435,
      "lọ́dún": 3436,
      "kùtú": 3437,
      "ìfẹ́": 3438,
      "ìforúkọ": 3439,
      "ìfòò": 3440,
      "ìfẹ̀yìn": 3441,
      "ìfẹsẹ̀múlẹ̀": 3442,
      "farajọ": 3443,
      "faramọ": 3444,
      "faramọ́": 3445,
      "rọ̀bì": 3446,
      "dail": 3447,
      "róye": 3448,
      "bòńkẹ́": 3449,
      "gẹ́ẹ́": 3450,
      "ìgbàwọlé": 3451,
      "tẹ̀le": 3452,
      "tẹ̀dó": 3453,
      "túndé": 3454,
      "gbígbáradì": 3455,
      "ọ̀nà": 3456,
      "àtúnyẹ̀wò": 3457,
      "àtúnpín": 3458,
      "dídùn": 3459,
      "tọ́jú": 3460,
      "tọ́kasí": 3461,
      "lọ́wọ́lọ́wọ́": 3462,
      "mẹ́sàn": 3463,
      "mẹ́rìn": 3464,
      "mẹ́nubà": 3465,
      "ráílù": 3466,
      "wíwà": 3467,
      "wíjọ́": 3468,
      "wíire": 3469,
      "láàrín": 3470,
      "dàyìí": 3471,
      "àpáà": 3472,
      "àpọ́n": 3473,
      "fífún": 3474,
      "fífagilé": 3475,
      "ìfórí": 3476,
      "ìfọwọ́": 3477,
      "yára": 3478,
      "yásà": 3479,
      "ọ́ràn": 3480,
      "ìmúṣẹ": 3481,
      "bẹ̀rẹ̀": 3482,
      "yára": 3483,
      "ìbáà": 3484,
      "méjìlá": 3485,
      "fífúnni": 3486,
      "fífaramọ́": 3487,
      "àbẹ̀": 3488,
      "ìpoló": 3489,
      "ìpìlẹ̀": 3490,
      "yíyanjú": 3491,
      "fààyè": 3492,
      "fàdákà": 3493,
      "kúlù": 3494,
      "yorùba": 3495,
      "ìsọ̀rọ̀": 3496,
      "ìsinmi": 3497,
      "ándú": 3498,
      "gov": 3499,
      "yàtọ̀": 3500,
      "dídarí": 3501,
      "èròǹgbà": 3502,
      "ṣoró": 3503,
      "ṣooṣù": 3504,
      "ṣẹnu": 3505,
      "lujára": 3506,
      "làá": 3507,
      "olóró": 3508,
      "olóṣooṣù": 3509,
      "gangan": 3510,
      "mímọ̀": 3511,
      "míràn": 3512,
      "mínísí": 3513,
      "nìyẹn": 3514,
      "pípè": 3515,
      "píparí": 3516,
      "yínmí": 3517,
      "kini": 3518,
      "tìmù": 3519,
      "tẹ́jú": 3520,
      "ọlọ́ṣà": 3521,
      "ọlọ́rọ̀": 3522,
      "ọlọ́fà": 3523,
      "yànji": 3524,
      "fádèyí": 3525,
      "jalẹ̀": 3526,
      "ronú": 3527,
      "sọ́": 3528,
      "elédù": 3529,
      "ooooo": 3530,
      "rẹ́gí": 3531,
      "yindin": 3532,
      "ìgbó": 3533,
      "ìgbẹ́": 3534,
      "ìgbìmọ̀": 3535,
      "ìgbọ́ràn": 3536,
      "méje": 3537,
      "pútà": 3538,
      "tálákà": 3539,
      "ìbáṣepọ̀": 3540,
      "lẹnu": 3541,
      "tẹ́lẹ̀": 3542,
      "túnbọ̀": 3543,
      "ṣọwọ́": 3544,
      "ẹlẹ́nu": 3545,
      "ẹlẹ́kaj": 3546,
      "ẹlẹ́dàá": 3547,
      "fífikún": 3548,
      "bàjẹ́": 3549,
      "fárá": 3550,
      "fáìlì": 3551,
      "jerà": 3552,
      "ṣàwárí": 3553,
      "maá": 3554,
      "marè": 3555,
      "mama": 3556,
      "mẹ́nubà": 3557,
      "sápò": 3558,
      "sátù": 3559,
      "àìṣe": 3560,
      "ìmúṣe": 3561,
      "ṣiṣẹ́pọ̀": 3562,
      "kágbá": 3563,
      "káràk": 3564,
      "káàbọ̀": 3565,
      "ìlẹ̀dí": 3566,
      "dáradára": 3567,
      "mímúṣe": 3568,
      "dínwó": 3569,
      "sófin": 3570,
      "dájúdájú": 3571,
      "yàtọ̀": 3572,
      "ìbàdàn": 3573,
      "ẹsẹ": 3574,
      "gbọn": 3575,
      "ìgbéṣẹ́jáde": 3576,
      "fẹ̀yìntì": 3577,
      "rántí": 3578,
      "ìrísí": 3579,
      "ìrírí": 3580,
      "ìdánilẹ́kọ̀": 3581,
      "ibì": 3582,
      "m̀bá": 3583,
      "pípé": 3584,
      "ṣẹ́mọṣẹ́": 3585,
      "ìpínsís": 3586,
      "ìsọmọlóru": 3587,
      "gọ́ta": 3588,
      "sixty": 3589,
      "tìnnì": 3590,
      "wúrà": 3591,
      "ọgọ": 3592,
      "yíyanjú": 3593,
      "àkójọpọ̀": 3594,
      "ìbẹ̀wẹ̀": 3595,
      "dóró": 3596,
      "dókítà": 3597,
      "ment": 3598,
      "sánpọ́n": 3599,
      "tẹrú": 3600,
      "tẹnumọ́": 3601,
      "yányán": 3602,
      "ìkamò": 3603,
      "ìtakókó": 3604,
      "ìpínsísọ̀": 3605,
      "ìdàkejì": 3606,
      "àbùkù": 3607,
      "sọ́tọ̀": 3608,
      "takun": 3609,
      "wíwọ": 3610,
      "wíwọlé": 3611,
      "àṣeyọrí": 3612,
      "àbáyọ": 3613,
      "lọ́wọ́": 3614,
      "olúborí": 3615,
      "olúmúyìw": 3616,
      "ìbẹ̀wẹ̀": 3617,
      "ayélujára": 3618,
      "búburú": 3619,
      "fínní": 3620,
      "àákú": 3621,
      "àròpọ̀": 3622,
      "síbẹ̀síbẹ̀": 3623,
      "ìyàtọ̀": 3624,
      "195": 3625,
      "1944": 3626,
      "àkọsílẹ̀": 3627,
      "ìjánu": 3628,
      "àṣekágbá": 3629,
      "lápapọ̀": 3630,
      "elétò": 3631,
      "funfun": 3632,
      "jókòó": 3633,
      "jókǒ": 3634,
      "thir": 3635,
      "àwátì": 3636,
      "ṣòro": 3637,
      "ṣòfò": 3638,
      "ìtu": 3639,
      "ìrànwọ́": 3640,
      "ìrànlọ́wọ́": 3641,
      "èèkàn": 3642,
      "bọ́tìnnì": 3643,
      "dọ́gba": 3644,
      "fẹsẹ̀": 3645,
      "fẹsẹ̀": 3646,
      "géḿbé": 3647,
      "odòlayé": 3648,
      "àdíjerà": 3649,
      "àdísátù": 3650,
      "ìpalára": 3651,
      "òòrùn": 3652,
      "ẹjalónibú": 3653,
      "àìsí": 3654,
      "ìdókòòwò": 3655,
      "ìdáhùnsí": 3656,
      "gbajúgbajà": 3657,
      "olórí": 3658,
      "wọ̀nyí": 3659,
      "ọgọ́ta": 3660,
      "bẹ́ẹ̀": 3661,
      "fèsì": 3662,
      "fèdìdí": 3663,
      "mẹ́nubà": 3664,
      "sulaiman": 3665,
      "sẹẹsẹ": 3666,
      "tẹ̀lé": 3667,
      "www": 3668,
      "wẹ́wẹ́": 3669,
      "wẹ́kú": 3670,
      "àìbìkítà": 3671,
      "àìbófinmu": 3672,
      "àsansílẹ̀": 3673,
      "àwodì": 3674,
      "àsàráílù": 3675,
      "áfíà": 3676,
      "áfíríkà": 3677,
      "ṣèlú": 3678,
      "àrídájú": 3679,
      "àríyànji": 3680,
      "ìkówólé": 3681,
      "ìlẹ̀dí": 3682,
      "lájọlájọ": 3683,
      "kíákíá": 3684,
      "ọ̀tọ̀ọ̀tọ̀": 3685,
      "ìṣèjọba": 3686,
      "àtìlẹ́yìn": 3687,
      "àtìlẹyìn": 3688,
      "oríṣiríṣi": 3689,
      "fífọwọ́sí": 3690,
      "pátápátá": 3691,
      "buwọ́lù": 3692,
      "ìrìnnà": 3693,
      "àádọ́ta": 3694,
      "adájọ́": 3695,
      "alààyè": 3696,
      "atare": 3697,
      "bẹ̀rẹ̀": 3698,
      "duwà": 3699,
      "gẹ̀dẹ̀": 3700,
      "gùnlé": 3701,
      "kẹta": 3702,
      "àtíjọ́": 3703,
      "àrẹ̀mú": 3704,
      "ìhà": 3705,
      "ìkómọjáde": 3706,
      "ìjàm̀bá": 3707,
      "ìkọ́lé": 3708,
      "ìléwọ́": 3709,
      "ìkọ́ṣẹ́mọṣẹ́": 3710,
      "gbọ́n": 3711,
      "ẹnìkọ̀ọ̀kan": 3712,
      "níjàánu": 3713,
      "ìdúrófún": 3714,
      "lónìí": 3715,
      "olúkúlù": 3716,
      "àtẹ̀jáde": 3717,
      "àtẹ̀yìnwá": 3718,
      "dáàbòbo": 3719,
      "olùkégbàjarè": 3720,
      "abọ́dún": 3721,
      "ìfọ̀rọ̀wérọ̀": 3722,
      "fẹnukò": 3723,
      "ìgbèríko": 3724,
      "amúṣẹ́ṣe": 3725,
      "asọye": 3726,
      "ajíbọ́lá": 3727,
      "agúnbíadé": 3728,
      "afínjú": 3729,
      "awuyewuye": 3730,
      "bpp": 3731,
      "dọ́gba": 3732,
      "dòwòpọ̀": 3733,
      "etíìgbọ́": 3734,
      "fọhùn": 3735,
      "fọ́ọ̀mù": 3736,
      "gèlè": 3737,
      "gẹ̀ẹ́sì": 3738,
      "jìdín": 3739,
      "krístì": 3740,
      "kowéè": 3741,
      "mèle": 3742,
      "ḿbà": 3743,
      "nọ́ḿbà": 3744,
      "oyún": 3745,
      "odùduwà": 3746,
      "ojoojúmọ́": 3747,
      "sàtánì": 3748,
      "tẹlẹ́mù": 3749,
      "wère": 3750,
      "yùnmù": 3751,
      "àkanlò": 3752,
      "àpèjẹ": 3753,
      "àsomọ́": 3754,
      "àyọkúrò": 3755,
      "àgbókí": 3756,
      "àdánwò": 3757,
      "ádífá": 3758,
      "ìkọlura": 3759,
      "ìyókù": 3760,
      "ìrẹ̀lẹ̀": 3761,
      "ìpàtẹ": 3762,
      "ìjẹṣà": 3763,
      "ìkomọjáde": 3764,
      "ìhùwàsí": 3765,
      "òrùlé": 3766,
      "óúnjẹ": 3767,
      "ọdọọdún": 3768,
      "ọlọ́rọ̀": 3769,
      "àṣàyàn": 3770,
      "àròpọ̀": 3771,
      "àwòrán": 3772,
      "àpérò": 3773,
      "àìṣojúṣàájú": 3774,
      "àsùnwọ̀n": 3775,
      "àbùdá": 3776,
      "ímeèlì": 3777,
      "ọlọ́dọọdún": 3778,
      "ìgboyà": 3779,
      "ìkíni": 3780,
      "ìsọníṣókí": 3781,
      "ìjẹniníyà": 3782,
      "ìjẹ́rìí": 3783,
      "gbọ̀n": 3784,
      "gbìyànjú": 3785,
      "ádọ́ta": 3786,
      "òtítọ́": 3787,
      "nífẹ̀ẹ́": 3788,
      "títẹ̀lé": 3789,
      "ẹ̀hìnkùlé": 3790,
      "nífẹ̀ẹ́": 3791,
      "lárọ̀ọ́wọ́tó": 3792,
      "síbìkan": 3793,
      "bárakú": 3794,
      "bájùláyé": 3795,
      "láàyò": 3796,
      "lákọ̀ọ́kọ́": 3797,
      "rímisá": 3798,
      "ìdáàbòbò": 3799,
      "gbajúgbajà": 3800,
      "gbàjarè": 3801,
      "rèwàlẹ̀": 3802,
      "ọ̀gọ̀ọ̀rọ̀": 3803,
      "ìgbaniwọlé": 3804,
      "mọ́gàjí": 3805,
      "pàdánù": 3806,
      "kúnkúndùn": 3807,
      "ìyàtọ̀": 3808,
      "márosẹ̀": 3809,
      "lẹ́kajẹ̀ka": 3810,
      "olùgbówósílẹ̀": 3811,
      "alábọ́ọ́dé": 3812,
      "alákòóso": 3813,
      "aládàáni": 3814,
      "aláìnígbèdéke": 3815,
      "ìbuwọ́lù": 3816,
      "ẹ̀kúnrẹ́rẹ́": 3817,
      "ìfilọ́lẹ̀": 3818,
      "kọ̀m̀pútà": 3819,
      "ìforúkọsílẹ̀": 3820,
      "ìfòòró": 3821,
      "ìfẹ̀yìntì": 3822,
      "daily": 3823,
      "bòńkẹ́lẹ́": 3824,
      "àpọ́nlé": 3825,
      "ìfórísánpọ́n": 3826,
      "ìfọwọ́sí": 3827,
      "yásàlámọ̀": 3828,
      "ìpolówó": 3829,
      "ándúrà": 3830,
      "mínísítà": 3831,
      "elédùmarè": 3832,
      "ẹlẹ́kajẹ̀ka": 3833,
      "káràkátà": 3834,
      "ìdánilẹ́kọ̀ọ́": 3835,
      "ìpínsísọ̀rí": 3836,
      "ìsọmọlórukọ": 3837,
      "ìkamòdù": 3838,
      "ìpínsísọ̀rí": 3839,
      "olúmúyìwáá": 3840,
      "thirty": 3841,
      "géḿbérí": 3842,
      "àríyànjiyàn": 3843,
      "olúkúlùkù": 3844,
      "11": 3845,
      "30": 3846,
      "35": 3847,
      "60": 3848,
      "74": 3849,
      "84": 3850,
      "ad": 3851,
      "al": 3852,
      "ap": 3853,
      "at": 3854,
      "aṅ": 3855,
      "aṣ": 3856,
      "agb": 3857,
      "afi": 3858,
      "arí": 3859,
      "agbo": 3860,
      "alẹ̀": 3861,
      "arò": 3862,
      "akọ": 3863,
      "aìl": 3864,
      "aga": 3865,
      "arẹ̀": 3866,
      "agbè": 3867,
      "abi": 3868,
      "agbọ́": 3869,
      "amá": 3870,
      "afin": 3871,
      "adi": 3872,
      "adá": 3873,
      "awa": 3874,
      "ajẹ": 3875,
      "aso": 3876,
      "ala": 3877,
      "aró": 3878,
      "ajọ́": 3879,
      "age": 3880,
      "aṣi": 3881,
      "amẹ́": 3882,
      "aya": 3883,
      "abínú": 3884,
      "agban": 3885,
      "amì": 3886,
      "awú": 3887,
      "agbe": 3888,
      "asọ̀": 3889,
      "aago": 3890,
      "agùn": 3891,
      "akín": 3892,
      "aṣàgbé": 3893,
      "adẹ́": 3894,
      "ayò": 3895,
      "afẹ́fẹ́": 3896,
      "ayára": 3897,
      "afárá": 3898,
      "bè": 3899,
      "bù": 3900,
      "b̂": 3901,
      "bẹ̀wò": 3902,
      "bèè": 3903,
      "ca": 3904,
      "ch": 3905,
      "cre": 3906,
      "cda": 3907,
      "cif": 3908,
      "cure": 3909,
      "dǐ": 3910,
      "dǔ": 3911,
      "dẹ́": 3912,
      "dilé": 3913,
      "dowó": 3914,
      "dẹ́": 3915,
      "dowó": 3916,
      "dàgbà": 3917,
      "dorí": 3918,
      "dagba": 3919,
      "dojú": 3920,
      "dẹr": 3921,
      "dre": 3922,
      "dara": 3923,
      "dọgbọ́n": 3924,
      "dìgbà": 3925,
      "dọ̀": 3926,
      "dàgbàsókè": 3927,
      "en": 3928,
      "etí": 3929,
      "ebi": 3930,
      "erin": 3931,
      "emi": 3932,
      "erù": 3933,
      "ejì": 3934,
      "egun": 3935,
      "ejò": 3936,
      "ewú": 3937,
      "eyi": 3938,
      "eṣu": 3939,
      "fp": 3940,
      "fáà": 3941,
      "fìwé": 3942,
      "fùn": 3943,
      "foní": 3944,
      "forí": 3945,
      "fọmọ": 3946,
      "fre": 3947,
      "fèèrè": 3948,
      "fẹ̀": 3949,
      "fòfin": 3950,
      "fòk": 3951,
      "fọ́": 3952,
      "fọ́n": 3953,
      "fèsì": 3954,
      "fty": 3955,
      "fìfẹ́": 3956,
      "gu": 3957,
      "gẹ": 3958,
      "gà": 3959,
      "gú": 3960,
      "gò": 3961,
      "gọ̀": 3962,
      "gàn": 3963,
      "gàà": 3964,
      "gèdè": 3965,
      "gẹ́": 3966,
      "gόò": 3967,
      "ht": 3968,
      "họ": 3969,
      "hẹ́": 3970,
      "họ̀": 3971,
      "hàì": 3972,
      "hǔn": 3973,
      "ii": 3974,
      "iu": 3975,
      "igb": 3976,
      "isí": 3977,
      "ibí": 3978,
      "ibá": 3979,
      "igba": 3980,
      "igbà": 3981,
      "imú": 3982,
      "imọ": 3983,
      "ijọba": 3984,
      "imọ̀": 3985,
      "ilẹ́": 3986,
      "igbá": 3987,
      "ikọ̀": 3988,
      "ikùn": 3989,
      "iṣẹ": 3990,
      "imẹ́": 3991,
      "iri": 3992,
      "ibẹ̀": 3993,
      "iṣé": 3994,
      "iṣẹ": 3995,
      "ilẹ̀": 3996,
      "iyàn": 3997,
      "iṣẹ̀": 3998,
      "irun": 3999,
      "imọ̀ràn": 4000,
      "iyán": 4001,
      "ilójú": 4002,
      "igbèsè": 4003,
      "itẹ́lẹ̀": 4004,
      "idẹ": 4005,
      "ijó": 4006,
      "ifó": 4007,
      "jè": 4008,
      "j̣": 4009,
      "jọ̀": 4010,
      "jẹr": 4011,
      "jìy": 4012,
      "jẹr": 4013,
      "jèrè": 4014,
      "jọ̀wọ́": 4015,
      "jipò": 4016,
      "jọ̀kan": 4017,
      "júnà": 4018,
      "joyè": 4019,
      "janu": 4020,
      "jọjọ": 4021,
      "kẹ̀": 4022,
      "kohun": 4023,
      "kin": 4024,
      "kóò": 4025,
      "kájú": 4026,
      "kojú": 4027,
      "kojú": 4028,
      "kẹ̀lé": 4029,
      "lǒ": 4030,
      "lụ": 4031,
      "lọjọ́": 4032,
      "lóòó": 4033,
      "llah": 4034,
      "lcda": 4035,
      "lifó": 4036,
      "mẹ": 4037,
      "mẹ": 4038,
      "mẹ̀": 4039,
      "mbá": 4040,
      "mgbọ́": 4041,
      "mán": 4042,
      "morí": 4043,
      "mọ̀r": 4044,
      "mab": 4045,
      "mèdè": 4046,
      "mbọ́": 4047,
      "mẹ̀kún": 4048,
      "mẹs": 4049,
      "màná": 4050,
      "mọja": 4051,
      "n̄": 4052,
      "nfi": 4053,
      "nlá": 4054,
      "ngbà": 4055,
      "nrò": 4056,
      "nsì": 4057,
      "nwò": 4058,
      "nde": 4059,
      "nkì": 4060,
      "nìy": 4061,
      "nsọ": 4062,
      "njù": 4063,
      "njẹ": 4064,
      "náá": 4065,
      "ntẹ̀": 4066,
      "nrín": 4067,
      "nìyẹn": 4068,
      "nsọ́": 4069,
      "nty": 4070,
      "nìwọ̀n": 4071,
      "nṅkan": 4072,
      "ok": 4073,
      "oó": 4074,
      "oti": 4075,
      "oni": 4076,
      "oyì": 4077,
      "okò": 4078,
      "omọ": 4079,
      "onínú": 4080,
      "oùn": 4081,
      "ore": 4082,
      "ohùn": 4083,
      "ojọ́": 4084,
      "osùn": 4085,
      "ori": 4086,
      "ogi": 4087,
      "oṣù": 4088,
      "ome": 4089,
      "obì": 4090,
      "ogún": 4091,
      "pu": 4092,
      "pẹ": 4093,
      "pun": 4094,
      "pọ́": 4095,
      "páà": 4096,
      "pìn": 4097,
      "pòó": 4098,
      "pilẹ̀": 4099,
      "pẹrẹ": 4100,
      "poló": 4101,
      "pro": 4102,
      "pọlá": 4103,
      "pẹẹrẹ": 4104,
      "pọ́n": 4105,
      "pani": 4106,
      "pms": 4107,
      "piu": 4108,
      "rẹ": 4109,
      "rún": 4110,
      "rọ́": 4111,
      "rẹrẹ": 4112,
      "rìṣà": 4113,
      "rẹran": 4114,
      "rǔn": 4115,
      "rfp": 4116,
      "st": 4117,
      "sy": 4118,
      "sǎ": 4119,
      "sẹ́": 4120,
      "sáà": 4121,
      "sìd": 4122,
      "sẹr": 4123,
      "sójú": 4124,
      "silẹ̀": 4125,
      "sán": 4126,
      "ste": 4127,
      "sọ̀wé": 4128,
      "sce": 4129,
      "sàlẹ̀": 4130,
      "tp": 4131,
      "tẹ̀wò": 4132,
      "tìí": 4133,
      "twe": 4134,
      "tọwọ́": 4135,
      "tẹnu": 4136,
      "tru": 4137,
      "tìgbàdégbà": 4138,
      "tolórí": 4139,
      "tọmọdé": 4140,
      "tọpinpin": 4141,
      "uwọ́": 4142,
      "uja": 4143,
      "uth": 4144,
      "ugbèrú": 4145,
      "wǎ": 4146,
      "win": 4147,
      "wín": 4148,
      "wójú": 4149,
      "wìn": 4150,
      "wúlò": 4151,
      "wèé": 4152,
      "wìrì": 4153,
      "yό": 4154,
      "yẹ́": 4155,
      "yun": 4156,
      "yáà": 4157,
      "yòò": 4158,
      "yoò": 4159,
      "zon": 4160,
      "àṅ": 4161,
      "àṣ": 4162,
      "àṣ": 4163,
      "àlé": 4164,
      "àpa": 4165,
      "àìd": 4166,
      "àtà": 4167,
      "àjọ": 4168,
      "àìl": 4169,
      "àyé": 4170,
      "àpé": 4171,
      "àdá": 4172,
      "àkú": 4173,
      "àfin": 4174,
      "àdé": 4175,
      "àjà": 4176,
      "àìṣ": 4177,
      "àkó": 4178,
      "àwá": 4179,
      "àpapọ̀": 4180,
      "àìt": 4181,
      "àìgbé": 4182,
      "àkọ̀": 4183,
      "àbò": 4184,
      "àkà": 4185,
      "àdà": 4186,
      "àrùn": 4187,
      "àko": 4188,
      "àìs": 4189,
      "àsun": 4190,
      "àìr": 4191,
      "àlù": 4192,
      "àrán": 4193,
      "àdó": 4194,
      "àgà": 4195,
      "àrìn": 4196,
      "àyọrí": 4197,
      "àmà": 4198,
      "àgùn": 4199,
      "àmọ́": 4200,
      "àìṣè": 4201,
      "àgé": 4202,
      "àjín": 4203,
      "àmín": 4204,
      "àkáma": 4205,
      "àlụ": 4206,
      "àwìn": 4207,
      "áá": 4208,
      "ábí": 4209,
      "ájú": 4210,
      "álẹ̀": 4211,
      "ára": 4212,
      "áyé": 4213,
      "ámú": 4214,
      "ámọ́": 4215,
      "ájì": 4216,
      "álẹ́": 4217,
      "áṣẹ̀": 4218,
      "èǹ": 4219,
      "èló": 4220,
      "èsì": 4221,
      "ègbè": 4222,
      "èyìí": 4223,
      "èyàn": 4224,
      "èkú": 4225,
      "èjí": 4226,
      "èso": 4227,
      "èṣù": 4228,
      "èdì": 4229,
      "ètè": 4230,
      "èkèèké": 4231,
      "èdìdí": 4232,
      "èsú": 4233,
      "èlì": 4234,
      "èníyàn": 4235,
      "étí": 4236,
      "éfà": 4237,
      "égún": 4238,
      "ìti": 4239,
      "ìye": 4240,
      "ìlé": 4241,
      "ìsí": 4242,
      "ìbí": 4243,
      "ìgbo": 4244,
      "ìnú": 4245,
      "ìga": 4246,
      "ìrè": 4247,
      "ìkì": 4248,
      "ìgbọ́": 4249,
      "ìnu": 4250,
      "ìwọ̀n": 4251,
      "ìrà": 4252,
      "ìràn": 4253,
      "ìká": 4254,
      "ìkẹ": 4255,
      "ìró": 4256,
      "ìrù": 4257,
      "ìrọ̀": 4258,
      "ìwọ̀": 4259,
      "ìmì": 4260,
      "ìkọ́": 4261,
      "ìkánjú": 4262,
      "ìjόkòό": 4263,
      "ìkùnà": 4264,
      "ìgé": 4265,
      "ìpààrọ̀": 4266,
      "ìkégbàja": 4267,
      "ìgẹ̀": 4268,
      "ìgbáralé": 4269,
      "ìkìlọ̀": 4270,
      "ìnira": 4271,
      "ìṣedéédé": 4272,
      "ìlárá": 4273,
      "ìkini": 4274,
      "ìmèdè": 4275,
      "íí": 4276,
      "ílé": 4277,
      "írú": 4278,
      "íràn": 4279,
      "íjí": 4280,
      "ídù": 4281,
      "íme": 4282,
      "ísọ̀rọ̀": 4283,
      "íhò": 4284,
      "ípọ": 4285,
      "òni": 4286,
      "òkò": 4287,
      "òrò": 4288,
      "òwó": 4289,
      "òyè": 4290,
      "òyìn": 4291,
      "òmu": 4292,
      "òpin": 4293,
      "òyà": 4294,
      "òṣù": 4295,
      "ògo": 4296,
      "òṣìṣẹ́": 4297,
      "ògún": 4298,
      "ògbó": 4299,
      "òjò": 4300,
      "òmì": 4301,
      "òdò": 4302,
      "òdìb": 4303,
      "òfò": 4304,
      "ògùn": 4305,
      "ònù": 4306,
      "òbì": 4307,
      "òtítọ́": 4308,
      "òfó": 4309,
      "òrún": 4310,
      "òsùnwọ̀n": 4311,
      "òdodo": 4312,
      "òfù": 4313,
      "ògìd": 4314,
      "ògèdè": 4315,
      "òrìṣà": 4316,
      "óń": 4317,
      "óti": 4318,
      "ótí": 4319,
      "ónú": 4320,
      "ódá": 4321,
      "ólú": 4322,
      "óyè": 4323,
      "ójì": 4324,
      "ókù": 4325,
      "óró": 4326,
      "órun": 4327,
      "ókè": 4328,
      "ódò": 4329,
      "ógùn": 4330,
      "óyemu": 4331,
      "ólì": 4332,
      "ùwọ̀n": 4333,
      "ùṣáájú": 4334,
      "úwá": 4335,
      "ńlé": 4336,
      "ńfi": 4337,
      "ńṣẹ́": 4338,
      "ńkí": 4339,
      "ńdá": 4340,
      "ńta": 4341,
      "ńsọ": 4342,
      "ńbẹ́": 4343,
      "ńkọ́": 4344,
      "ńso": 4345,
      "ńpá": 4346,
      "ńgan": 4347,
      "ńgbò": 4348,
      "ńsọ̀rọ̀": 4349,
      "ǹá": 4350,
      "ǹti": 4351,
      "ǹkí": 4352,
      "ǹlà": 4353,
      "ǹta": 4354,
      "ǹle": 4355,
      "ǹró": 4356,
      "ǹgẹ́": 4357,
      "ǹfà": 4358,
      "ǹgbò": 4359,
      "ǹṣàṣà": 4360,
      "̀mọ̀": 4361,
      "̄tí": 4362,
      "̣ìyapa": 4363,
      "̣ná": 4364,
      "̣kọ́": 4365,
      "̣kọ́": 4366,
      "̣ṣẹ́mọṣẹ́": 4367,
      "όjú": 4368,
      "ṅdì": 4369,
      "ṅro": 4370,
      "ṅkin": 4371,
      "ṣáà": 4372,
      "ṣùn": 4373,
      "ṣagba": 4374,
      "ṣèyí": 4375,
      "ṣìn": 4376,
      "ṣiṣẹ́": 4377,
      "ṣọgbọ́n": 4378,
      "ṣáá": 4379,
      "ṣọ̀n": 4380,
      "ṣọ̀kan": 4381,
      "ṣòkè": 4382,
      "ẹẹ́": 4383,
      "ẹbi": 4384,
      "ẹmu": 4385,
      "ẹlẹ́": 4386,
      "ẹṣin": 4387,
      "ẹsẹ̀": 4388,
      "ẹdan": 4389,
      "ẹgẹ": 4390,
      "ọwọ": 4391,
      "ọtí": 4392,
      "ọlò": 4393,
      "ọgba": 4394,
      "ọnà": 4395,
      "ọkà": 4396,
      "ọbẹ̀": 4397,
      "ọrẹ": 4398,
      "ọsọ́": 4399,
      "ọfọ̀": 4400,
      "ọpọ́n": 4401,
      "ọpọ": 4402,
      "ọgbọn": 4403,
      "àwọn": 4404,
      "àlò": 4405,
      "àìd": 4406,
      "àbí": 4407,
      "àjà": 4408,
      "àta": 4409,
      "àwọ̀n": 4410,
      "àwá": 4411,
      "ààmú": 4412,
      "àìfi": 4413,
      "àfara": 4414,
      "àjù": 4415,
      "àbẹ̀": 4416,
      "àmọ": 4417,
      "àrọ̀": 4418,
      "àjẹ": 4419,
      "àṣá": 4420,
      "àṣùwọ̀n": 4421,
      "àìfẹ́": 4422,
      "àádọ́ta": 4423,
      "àbẹ̀wò": 4424,
      "ọwọ": 4425,
      "ọwọ́": 4426,
      "ọlọ́jọ́": 4427,
      "ọgbọ́n": 4428,
      "ìṣe": 4429,
      "ìpa": 4430,
      "ìgba": 4431,
      "ìgbà": 4432,
      "ìra": 4433,
      "ìṣí": 4434,
      "ìgbèrò": 4435,
      "ìfúnni": 4436,
      "ìjọba": 4437,
      "ìké": 4438,
      "ìmójútó": 4439,
      "ìwọlé": 4440,
      "ìká": 4441,
      "ìtọ́": 4442,
      "ìkùnà": 4443,
      "ìpamọ́": 4444,
      "ìsanwó": 4445,
      "ìtẹ̀síwájú": 4446,
      "ìkẹ́": 4447,
      "ìwọ̀": 4448,
      "ìṣírò": 4449,
      "ìmúnádóko": 4450,
      "ìjìy": 4451,
      "gbájú": 4452,
      "gbẹ̀yìn": 4453,
      "gbẹ̀yìn": 4454,
      "èrí": 4455,
      "èlo": 4456,
      "èwo": 4457,
      "ètì": 4458,
      "ẹlò": 4459,
      "ẹka": 4460,
      "ẹnà": 4461,
      "ẹwé": 4462,
      "ẹyọ": 4463,
      "ẹsẹ": 4464,
      "ẹnumọ́": 4465,
      "ẹlẹ́kajẹ̀ka": 4466,
      "árí": 4467,
      "ánú": 4468,
      "tiwọn": 4469,
      "tiwọn": 4470,
      "tiye": 4471,
      "tijú": 4472,
      "tilẹ̀": 4473,
      "tinú": 4474,
      "tirẹ̀": 4475,
      "tibi": 4476,
      "tilè": 4477,
      "tire": 4478,
      "tilẹ̀": 4479,
      "titẹ̀": 4480,
      "tiyín": 4481,
      "titẹ́lẹ̀": 4482,
      "égbàjarè": 4483,
      "ójì": 4484,
      "ṣẹ́": 4485,
      "ṣìṣ": 4486,
      "ṣàgbéyẹ̀wò": 4487,
      "ṣàyẹ̀wò": 4488,
      "ṣọ̀kan": 4489,
      "ṣáájú": 4490,
      "ṣàá": 4491,
      "òrí": 4492,
      "òyìn": 4493,
      "òtú": 4494,
      "òṣìṣ": 4495,
      "wọjú": 4496,
      "wọṣọ": 4497,
      "ẹ́tà": 4498,
      "ẹ́gba": 4499,
      "ẹ́kọ": 4500,
      "ẹ́nà": 4501,
      "ẹ́kun": 4502,
      "ẹ́kọ̀ọ́": 4503,
      "níà": 4504,
      "níti": 4505,
      "níbí": 4506,
      "níilé": 4507,
      "nípà": 4508,
      "níta": 4509,
      "níkàn": 4510,
      "nínu": 4511,
      "nílẹ̀": 4512,
      "nípò": 4513,
      "níbẹ̀": 4514,
      "nígbó": 4515,
      "nílàti": 4516,
      "níṣó": 4517,
      "nídǐ": 4518,
      "tíí": 4519,
      "tíṣẹ́": 4520,
      "tírí": 4521,
      "tínú": 4522,
      "títò": 4523,
      "títì": 4524,
      "títọ́ka": 4525,
      "tínrín": 4526,
      "títọpinpin": 4527,
      "ẹ́ra": 4528,
      "ẹ́tọ̀": 4529,
      "ẹ̀fún": 4530,
      "ẹ̀rí": 4531,
      "ẹ̀kọ": 4532,
      "ẹ̀wò": 4533,
      "ẹ̀ta": 4534,
      "ẹ̀sẹ̀": 4535,
      "ẹ̀wé": 4536,
      "ẹ̀rọ": 4537,
      "ẹ̀lí": 4538,
      "ẹ̀síwájú": 4539,
      "ẹ̀dínwó": 4540,
      "ẹ̀pẹ́": 4541,
      "ẹ̀wẹ̀": 4542,
      "ẹ̀jẹ̀": 4543,
      "ẹ̀gbọ̀n": 4544,
      "ẹ̀ku": 4545,
      "ẹ̀gàn": 4546,
      "ẹ̀tàn": 4547,
      "ẹ̀yọ́nú": 4548,
      "ẹ̀rì": 4549,
      "ẹ̀rẹran": 4550,
      "andre": 4551,
      "únlé": 4552,
      "únko": 4553,
      "únibí": 4554,
      "únà": 4555,
      "ẹ̀ẹ̀": 4556,
      "ẹ̀kan": 4557,
      "ẹ̀dá": 4558,
      "ẹ̀rọ": 4559,
      "ẹ̀yà": 4560,
      "ẹ̀tan": 4561,
      "ẹ̀bùn": 4562,
      "ẹ̀dínwó": 4563,
      "wọnú": 4564,
      "ọ̀lá": 4565,
      "ọ̀bá": 4566,
      "ọ̀rí": 4567,
      "ọ̀mọ̀": 4568,
      "ọ̀nì": 4569,
      "ọ̀fẹ́": 4570,
      "ọ̀da": 4571,
      "ọ̀wé": 4572,
      "ọ̀dún": 4573,
      "ọ̀tẹ́": 4574,
      "ọ̀kẹ́": 4575,
      "ọ̀tá": 4576,
      "ọ̀ṣẹ̀": 4577,
      "ọ̀gbẹ́": 4578,
      "ọ̀wọ̀": 4579,
      "ọ̀gà": 4580,
      "ọ̀sọ́": 4581,
      "ọ̀jẹ̀": 4582,
      "ọ̀bọ": 4583,
      "ọ̀gọ̀": 4584,
      "ọ̀rín": 4585,
      "ọ̀fìn": 4586,
      "ọ̀ṣọ̀": 4587,
      "ọ̀gangan": 4588,
      "ọ̀gẹ̀dẹ̀": 4589,
      "ọ̀kúnkúndùn": 4590,
      "ọ̀mọ̀r": 4591,
      "níye": 4592,
      "níṣẹ́": 4593,
      "níbí": 4594,
      "níjà": 4595,
      "nítò": 4596,
      "nímọ̀": 4597,
      "nínu": 4598,
      "níbò": 4599,
      "níyàn": 4600,
      "nípọn": 4601,
      "nífẹ̀": 4602,
      "nísàlẹ̀": 4603,
      "nígbẹ̀yìn": 4604,
      "títà": 4605,
      "títa": 4606,
      "títọ́": 4607,
      "títẹ̀lé": 4608,
      "unṣe": 4609,
      "unmọ̀": 4610,
      "unbọ̀": 4611,
      "nibí": 4612,
      "nilẹ̀": 4613,
      "nilọ́nà": 4614,
      "nilójú": 4615,
      "nilọ́rùn": 4616,
      "nisọ̀rọ̀": 4617,
      "nilẹ́nu": 4618,
      "nisọ́nà": 4619,
      "kanrí": 4620,
      "kangí": 4621,
      "ọ́ni": 4622,
      "ọ́ọ́": 4623,
      "ọ́ra": 4624,
      "ọ́jọ": 4625,
      "ọ́fá": 4626,
      "ọ́run": 4627,
      "ṣelé": 4628,
      "ṣekú": 4629,
      "ṣetán": 4630,
      "ṣesà": 4631,
      "ṣeyọrí": 4632,
      "yelé": 4633,
      "yemọja": 4634,
      "lénu": 4635,
      "léwọ̀n": 4636,
      "léèrè": 4637,
      "lélógún": 4638,
      "fikún": 4639,
      "fikùn": 4640,
      "figagbága": 4641,
      "fipá": 4642,
      "fiyè": 4643,
      "fiyèsí": 4644,
      "fifty": 4645,
      "ṣeni": 4646,
      "ṣẹ́fúnni": 4647,
      "lérí": 4648,
      "léra": 4649,
      "lérò": 4650,
      "léwu": 4651,
      "ọ̀ǹ": 4652,
      "ọ̀gá": 4653,
      "ọ̀dà": 4654,
      "ọ̀fẹ́": 4655,
      "ọ̀rọ̀": 4656,
      "ọ̀gangan": 4657,
      "ọ̀gọ̀": 4658,
      "pẹ̀lú": 4659,
      "ohunkó": 4660,
      "ohunkό": 4661,
      "ohunkohun": 4662,
      "sín": 4663,
      "síra": 4664,
      "sísì": 4665,
      "sísẹ̀": 4666,
      "síkùn": 4667,
      "síbẹ̀": 4668,
      "sítì": 4669,
      "sílẹ": 4670,
      "símì": 4671,
      "símà": 4672,
      "síbẹ̀": 4673,
      "lárin": 4674,
      "láyè": 4675,
      "lábẹ́": 4676,
      "láìfi": 4677,
      "láyà": 4678,
      "lárọ̀": 4679,
      "láìrò": 4680,
      "lápá": 4681,
      "lágbó": 4682,
      "láìṣè": 4683,
      "lákòó": 4684,
      "lárug": 4685,
      "láfikún": 4686,
      "látìgbàdégbà": 4687,
      "láṣeyọrí": 4688,
      "tóní": 4689,
      "tóun": 4690,
      "tótó": 4691,
      "tóbi": 4692,
      "ànà": 4693,
      "palẹ̀": 4694,
      "payí": 4695,
      "padé": 4696,
      "pajá": 4697,
      "parẹ́": 4698,
      "ìwe": 4699,
      "síbi": 4700,
      "síso": 4701,
      "síwẹ́": 4702,
      "bíjì": 4703,
      "bíbu": 4704,
      "bíbójútó": 4705,
      "bíbẹ̀bẹ̀": 4706,
      "bísímì": 4707,
      "báti": 4708,
      "bákàn": 4709,
      "bámi": 4710,
      "báwí": 4711,
      "bánkọ́": 4712,
      "báráà": 4713,
      "báfẹ́fẹ́": 4714,
      "bámgbọ́": 4715,
      "bánkì": 4716,
      "báǹkí": 4717,
      "pèyín": 4718,
      "láṣẹ": 4719,
      "láyé": 4720,
      "láyè": 4721,
      "lárá": 4722,
      "lápapọ̀": 4723,
      "láṣìírí": 4724,
      "lábẹ́": 4725,
      "lápẹẹrẹ": 4726,
      "lásán": 4727,
      "láfikún": 4728,
      "ríi": 4729,
      "ríkí": 4730,
      "ríbi": 4731,
      "ríta": 4732,
      "ríṣi": 4733,
      "rípọ̀n": 4734,
      "ìwè": 4735,
      "ìwáṣẹ̀": 4736,
      "sèídù": 4737,
      "gbomi": 4738,
      "gbodo": 4739,
      "ọ́ni": 4740,
      "ọ́gba": 4741,
      "ọ́wọ́": 4742,
      "ọ́síwẹ́": 4743,
      "ìdàk": 4744,
      "ìdójú": 4745,
      "ìdààmú": 4746,
      "ìdúnà": 4747,
      "ńlá": 4748,
      "ńpá": 4749,
      "ńgá": 4750,
      "owú": 4751,
      "ìdán": 4752,
      "ìdúnko": 4753,
      "àtigbé": 4754,
      "àtisanwó": 4755,
      "àtinú": 4756,
      "tàgbà": 4757,
      "tàbi": 4758,
      "júkánjú": 4759,
      "lòun": 4760,
      "lògún": 4761,
      "lòòrùn": 4762,
      "lọ̀ná": 4763,
      "rírí": 4764,
      "ríró": 4765,
      "ríyá": 4766,
      "rídájú": 4767,
      "ríkà": 4768,
      "júù": 4769,
      "júlọ": 4770,
      "gbadun": 4771,
      "gbàgbọ́": 4772,
      "gbàmí": 4773,
      "gbàdùn": 4774,
      "lósì": 4775,
      "lóde": 4776,
      "lówà": 4777,
      "lófin": 4778,
      "lópin": 4779,
      "lómí": 4780,
      "lókù": 4781,
      "lówe": 4782,
      "lógun": 4783,
      "lódù": 4784,
      "lógán": 4785,
      "lójúnà": 4786,
      "lóògùn": 4787,
      "balẹ̀": 4788,
      "balẹ": 4789,
      "balό": 4790,
      "baálẹ̀": 4791,
      "balógun": 4792,
      "kòì": 4793,
      "kòun": 4794,
      "kòkò": 4795,
      "kòyí": 4796,
      "kòlè": 4797,
      "kòjẹ́": 4798,
      "kòtò": 4799,
      "kòsọ́": 4800,
      "kòǹgẹ́": 4801,
      "bíbá": 4802,
      "bíbu": 4803,
      "bíbẹ̀rẹ̀": 4804,
      "bíbuwọ́lù": 4805,
      "ìdímúlẹ̀": 4806,
      "lẹ̀pa": 4807,
      "báwọ̀nyí": 4808,
      "inu": 4809,
      "inde": 4810,
      "inúnibí": 4811,
      "rònú": 4812,
      "ròde": 4813,
      "gbétí": 4814,
      "gbéṣẹ́": 4815,
      "gbésè": 4816,
      "gbénú": 4817,
      "gbérà": 4818,
      "gbéyẹ̀wò": 4819,
      "gbéwọ̀n": 4820,
      "gbéyẹ̀wò": 4821,
      "gbésà": 4822,
      "gbéégún": 4823,
      "raa": 4824,
      "raga": 4825,
      "rarẹ̀": 4826,
      "ilérẹ̀": 4827,
      "ìdímù": 4828,
      "gbàtà": 4829,
      "gbàrò": 4830,
      "wọ́mi": 4831,
      "gbékalẹ̀": 4832,
      "kíi": 4833,
      "kíkí": 4834,
      "kíka": 4835,
      "kíkà": 4836,
      "kíkúnjú": 4837,
      "kíyèsí": 4838,
      "kíkọ́": 4839,
      "kíkọsílẹ̀": 4840,
      "yíì": 4841,
      "àkàk": 4842,
      "àkalẹ̀": 4843,
      "àkòrí": 4844,
      "sìkìí": 4845,
      "kọnà": 4846,
      "kókò": 4847,
      "kódà": 4848,
      "kóko": 4849,
      "ìlì": 4850,
      "ìlù": 4851,
      "ìlẹ̀": 4852,
      "ìlàna": 4853,
      "ìlosùn": 4854,
      "ìlànà": 4855,
      "lèmọ́": 4856,
      "lèèdì": 4857,
      "kalè": 4858,
      "kalẹ̀": 4859,
      "karùn": 4860,
      "yóó": 4861,
      "yéni": 4862,
      "yéèè": 4863,
      "yéjídé": 4864,
      "yéwándé": 4865,
      "yétúndé": 4866,
      "yérímisá": 4867,
      "yédẹr": 4868,
      "yésìd": 4869,
      "múra": 4870,
      "múṣé": 4871,
      "múyán": 4872,
      "jàde": 4873,
      "owópamọ́": 4874,
      "núfín": 4875,
      "núríta": 4876,
      "olókò": 4877,
      "ǹjẹ́": 4878,
      "ǹpútà": 4879,
      "wòólì": 4880,
      "rèpè": 4881,
      "rèsé": 4882,
      "péjú": 4883,
      "péré": 4884,
      "pésé": 4885,
      "ròyìn": 4886,
      "wón": 4887,
      "wólé": 4888,
      "wóyè": 4889,
      "wóró": 4890,
      "jẹ́bẹ̀": 4891,
      "rúfú": 4892,
      "ànàkú": 4893,
      "àyẹwé": 4894,
      "àyẹ̀wò": 4895,
      "jọkàn": 4896,
      "jọpọ̀": 4897,
      "akee": 4898,
      "akẹgbẹ́": 4899,
      "akèǹ": 4900,
      "akúwá": 4901,
      "akégbàjarè": 4902,
      "akẹ́kọ̀ọ́": 4903,
      "akọ̀wé": 4904,
      "múlẹ̀": 4905,
      "mọtí": 4906,
      "mọra": 4907,
      "mọdé": 4908,
      "mọbìnrin": 4909,
      "kía": 4910,
      "kíbi": 4911,
      "kíkó": 4912,
      "dédé": 4913,
      "dékùn": 4914,
      "déegun": 4915,
      "dání": 4916,
      "dálé": 4917,
      "dárò": 4918,
      "dápé": 4919,
      "dámi": 4920,
      "dárúkọ": 4921,
      "dáró": 4922,
      "dákẹ́": 4923,
      "dárì": 4924,
      "gbèdè": 4925,
      "debi": 4926,
      "deméjì": 4927,
      "dejò": 4928,
      "biní": 4929,
      "wátì": 4930,
      "kìlómí": 4931,
      "lófin": 4932,
      "lódé": 4933,
      "lólo": 4934,
      "lógún": 4935,
      "lótìí": 4936,
      "èèyan": 4937,
      "tòfò": 4938,
      "péye": 4939,
      "péré": 4940,
      "pésẹ̀": 4941,
      "ṣípà": 4942,
      "ǹkankan": 4943,
      "yíyọ": 4944,
      "yípo": 4945,
      "yíyapa": 4946,
      "pàù": 4947,
      "pàdà": 4948,
      "pàwọ̀": 4949,
      "pààrò": 4950,
      "pààlà": 4951,
      "pàṣán": 4952,
      "pààrọ̀": 4953,
      "àgbàlá": 4954,
      "àgbàgbà": 4955,
      "àgbààgbà": 4956,
      "àgbàdo": 4957,
      "wà̀": 4958,
      "wàkú": 4959,
      "oníbà": 4960,
      "onípò": 4961,
      "oníbàá": 4962,
      "oníṣòwò": 4963,
      "onígbàǹjo": 4964,
      "oníbáráà": 4965,
      "oníkòyí": 4966,
      "onírèsé": 4967,
      "oníwóró": 4968,
      "lèṣe": 4969,
      "oríkò": 4970,
      "oríṣi": 4971,
      "agbami": 4972,
      "agbaṣẹ́ṣe": 4973,
      "rinlẹ̀": 4974,
      "ọ̀kankan": 4975,
      "ọ̀ran": 4976,
      "ọ̀kọ̀ọ̀kan": 4977,
      "ọ̀kúnkúndùn": 4978,
      "kúrú": 4979,
      "kúlú": 4980,
      "kúkúrú": 4981,
      "máṣe": 4982,
      "mádù": 4983,
      "máwọ̀": 4984,
      "márǔn": 4985,
      "máwàkú": 4986,
      "mọ̀ṣe": 4987,
      "mọ̀ṣiṣẹ́pọ̀": 4988,
      "kéké": 4989,
      "kéjá": 4990,
      "kédì": 4991,
      "kése": 4992,
      "kéèkèèké": 4993,
      "lúù": 4994,
      "lúlu": 4995,
      "yèrèpè": 4996,
      "ọ̀re": 4997,
      "ọ̀rọ": 4998,
      "ọ̀ranyàn": 4999,
      "làye": 5000,
      "làfikún": 5001,
      "làáfíà": 5002,
      "làǹta": 5003,
      "ṣàyẹ̀wò": 5004,
      "ṣàmójútó": 5005,
      "ṣàje": 5006,
      "ṣàdéédé": 5007,
      "ṣàdínkù": 5008,
      "ṣàbójútó": 5009,
      "ṣàájú": 5010,
      "ṣàǹfà": 5011,
      "ṣàkíyèsí": 5012,
      "ṣàlàye": 5013,
      "ìgbìmọ̀": 5014,
      "ìgb̀mọ̀": 5015,
      "ìlànà": 5016,
      "papọ̀": 5017,
      "papọ̀": 5018,
      "lọ́ra": 5019,
      "lọ́wó": 5020,
      "lọ́rúkọ": 5021,
      "lọ́dọ̀": 5022,
      "lọ́pọ̀": 5023,
      "lọ́hùn": 5024,
      "lọ́yà": 5025,
      "lọ́rọ̀": 5026,
      "lọ́tọ̀": 5027,
      "lọ́gàn": 5028,
      "lọ́hǔn": 5029,
      "talẹ̀": 5030,
      "tayé": 5031,
      "talo": 5032,
      "tayé": 5033,
      "taari": 5034,
      "taṣọ̀": 5035,
      "keke": 5036,
      "kere": 5037,
      "kete": 5038,
      "kekẹnkẹ": 5039,
      "kejìdín": 5040,
      "ìyẹ̀wé": 5041,
      "ojúṣe": 5042,
      "ojúlό": 5043,
      "ojúfò": 5044,
      "ojúùṣáájú": 5045,
      "ojúṣàá": 5046,
      "ojúkòkò": 5047,
      "ojúwóyè": 5048,
      "mọ́ni": 5049,
      "mọ́kàn": 5050,
      "mọ́jọ́": 5051,
      "mọ́dọ": 5052,
      "mọ́ọ́ni": 5053,
      "ẹrẹ́nà": 5054,
      "dis": 5055,
      "diẹ": 5056,
      "dian": 5057,
      "dipú": 5058,
      "diípọ": 5059,
      "déètì": 5060,
      "pàdé": 5061,
      "pàjá": 5062,
      "pàṣẹ": 5063,
      "pàṣí": 5064,
      "pàṣípà": 5065,
      "àtèyí": 5066,
      "àtọwọ́": 5067,
      "àtẹnu": 5068,
      "àtunṣe": 5069,
      "kànńpá": 5070,
      "ree": 5071,
      "retí": 5072,
      "relé": 5073,
      "rekete": 5074,
      "àgbéyẹ̀wò": 5075,
      "àgbékalè": 5076,
      "ìlàna": 5077,
      "onínǹkan": 5078,
      "onídù": 5079,
      "ìṣàgbéyẹ̀wò": 5080,
      "gbọ́ngbọ́n": 5081,
      "kúni": 5082,
      "kúnlé": 5083,
      "kúnlẹ̀": 5084,
      "kúnàá": 5085,
      "àkọkún": 5086,
      "yẹjú": 5087,
      "yẹmí": 5088,
      "yẹpẹrẹ": 5089,
      "aramọ́ọ́ni": 5090,
      "ayédè": 5091,
      "ayélu": 5092,
      "pẹ̀pẹ̀": 5093,
      "gbáá": 5094,
      "gbári": 5095,
      "gbáko": 5096,
      "gbámúṣé": 5097,
      "jàfúnni": 5098,
      "jàǹti": 5099,
      "jàkéjá": 5100,
      "jára": 5101,
      "jáwọ́": 5102,
      "jáfara": 5103,
      "jágodo": 5104,
      "lọwọ": 5105,
      "lọlá": 5106,
      "lọlẹ̀": 5107,
      "tòun": 5108,
      "àmúṣe": 5109,
      "àmúmọ́ra": 5110,
      "dápadà": 5111,
      "dádúró": 5112,
      "dárá": 5113,
      "dánilójú": 5114,
      "dáńgá": 5115,
      "mọ̀n": 5116,
      "mọ̀mọ́": 5117,
      "mọ̀nà": 5118,
      "mọ̀ṣọ́": 5119,
      "ojútayé": 5120,
      "ìṣiṣẹ́": 5121,
      "ìṣọ̀kan": 5122,
      "ìṣòwò": 5123,
      "ìṣakitiyan": 5124,
      "ìṣọ̀tẹ̀": 5125,
      "ìṣamì": 5126,
      "ìṣọ̀lá": 5127,
      "ìṣọ́ra": 5128,
      "bàa": 5129,
      "bàà": 5130,
      "bàge": 5131,
      "bàlúù": 5132,
      "kójú": 5133,
      "kówó": 5134,
      "kóbó": 5135,
      "kóríyá": 5136,
      "yẹ̀pè": 5137,
      "yẹ̀yẹ́": 5138,
      "yẹ̀pẹ": 5139,
      "àkọsílẹ̀": 5140,
      "ìyọrísí": 5141,
      "ìyọ̀ǹ": 5142,
      "ìmọ̀ṣọ̀kan": 5143,
      "olùyà": 5144,
      "olùbẹ̀": 5145,
      "olùmọ̀ràn": 5146,
      "olùdarí": 5147,
      "àgbéjáde": 5148,
      "àjọṣepọ̀": 5149,
      "miobìnrin": 5150,
      "lóríṣi": 5151,
      "jìnà": 5152,
      "jìnnà": 5153,
      "ràlẹ̀": 5154,
      "dúpẹ́": 5155,
      "dújẹr": 5156,
      "dúǹá": 5157,
      "abẹ́": 5158,
      "abdu": 5159,
      "aboyún": 5160,
      "abuja": 5161,
      "lẹ́bà": 5162,
      "lẹ́kùn": 5163,
      "lẹ́kùn": 5164,
      "lẹ́yọ": 5165,
      "lẹ́hìn": 5166,
      "lẹ́ńkẹ́": 5167,
      "lẹ́sẹẹsẹ": 5168,
      "àkọ́kọ́": 5169,
      "lórílẹ̀": 5170,
      "ìfibèèrè": 5171,
      "ìfisílẹ̀": 5172,
      "ìfiṣọwọ́": 5173,
      "ìbójútó": 5174,
      "ìbuwọ́": 5175,
      "ìbìnú": 5176,
      "ìbóyemu": 5177,
      "onígbó": 5178,
      "onígbẹ̀ẹ́": 5179,
      "onígbọ̀wọ̀": 5180,
      "yanran": 5181,
      "yantu": 5182,
      "yangàn": 5183,
      "ṣíbí": 5184,
      "ṣírò": 5185,
      "ṣílè": 5186,
      "ṣíṣà": 5187,
      "ṣísẹ̀": 5188,
      "jáfáfá": 5189,
      "nìní": 5190,
      "nìbi": 5191,
      "nìwọ̀nyí": 5192,
      "lelẹ̀": 5193,
      "leiman": 5194,
      "perí": 5195,
      "pende": 5196,
      "wálẹ̀": 5197,
      "wákà": 5198,
      "wánilẹ́nu": 5199,
      "bẹ́ẹ̀": 5200,
      "lẹ́yẹ": 5201,
      "lẹ́yìn": 5202,
      "lẹ́sẹ̀": 5203,
      "lẹ́jọ́": 5204,
      "lẹ́kun": 5205,
      "lẹ́mì": 5206,
      "lẹ́sẹ": 5207,
      "lẹ́ẹ̀kan": 5208,
      "moh": 5209,
      "moye": 5210,
      "mokúnjú": 5211,
      "sọnú": 5212,
      "sọri": 5213,
      "sọgi": 5214,
      "sọnù": 5215,
      "sọkúlú": 5216,
      "àlàkalẹ̀": 5217,
      "àtẹnumọ́": 5218,
      "àtunbọ̀": 5219,
      "fẹ́rẹ́": 5220,
      "mọ́ra": 5221,
      "mọ́yá": 5222,
      "mọ́lẹ̀": 5223,
      "mọ́gbọ́n": 5224,
      "nàíjí": 5225,
      "àmúyẹ̀": 5226,
      "ìgbéwọ̀n": 5227,
      "ìgbéṣẹ́": 5228,
      "ìgbésẹ́": 5229,
      "ìgbéròyìn": 5230,
      "lúàbí": 5231,
      "akọ́ṣẹ́mọ": 5232,
      "akọ́jàfúnni": 5233,
      "sanwό": 5234,
      "ọwọ́sí": 5235,
      "jẹjù": 5236,
      "jẹjẹ": 5237,
      "jẹgú": 5238,
      "kúnj̣": 5239,
      "ìtọpinpin": 5240,
      "ìtẹ̀síwájú": 5241,
      "ìtúnlé": 5242,
      "ìtunmọ̀": 5243,
      "ìtọ́ni": 5244,
      "gbáradì": 5245,
      "ìdásílẹ̀": 5246,
      "ìdáméjì": 5247,
      "ìdánwò": 5248,
      "olùṣàkóso": 5249,
      "olùṣè": 5250,
      "sẹ̀múlẹ̀": 5251,
      "ṣẹ́fúnni": 5252,
      "àjọyọ̀": 5253,
      "àjọṣepọ̀": 5254,
      "ààrin": 5255,
      "ẹ̀bá": 5256,
      "ẹ̀yìn": 5257,
      "ẹ̀kọ́": 5258,
      "ẹ̀yá": 5259,
      "ẹ̀yà": 5260,
      "ẹ̀ẹ̀mejì": 5261,
      "ẹ̀bùn": 5262,
      "ẹ̀bẹ̀": 5263,
      "ẹ̀dínwó": 5264,
      "jíjá": 5265,
      "jíjáde": 5266,
      "jíjẹ́": 5267,
      "jíròrò": 5268,
      "jíjọ̀wọ́": 5269,
      "kọ̀ọ̀kan": 5270,
      "kọ̀ǹpútà": 5271,
      "ẹrù": 5272,
      "alásè": 5273,
      "alága": 5274,
      "alákàn": 5275,
      "alápò": 5276,
      "aláṣẹ": 5277,
      "aláje": 5278,
      "aláya": 5279,
      "alákọ̀": 5280,
      "alárìn": 5281,
      "alábàá": 5282,
      "aláfẹ̀yìntì": 5283,
      "aládǔ": 5284,
      "aláàfin": 5285,
      "alágbàtà": 5286,
      "alájẹjù": 5287,
      "aláfara": 5288,
      "alábàá": 5289,
      "tọ́rọ̀": 5290,
      "ìbò": 5291,
      "ìbójútó": 5292,
      "akọ́bi": 5293,
      "loju": 5294,
      "èrèdí": 5295,
      "gbọ́dọ̀": 5296,
      "ìdárò": 5297,
      "ìdájọ́": 5298,
      "ẹ̀ta": 5299,
      "ẹ̀kejì": 5300,
      "ẹ̀tọ́": 5301,
      "ẹ̀dà": 5302,
      "àfibọ̀": 5303,
      "àfibẹ̀rẹ̀": 5304,
      "ìfisílẹ̀": 5305,
      "ìfiṣọwọ́": 5306,
      "ìfisanwó": 5307,
      "kọ́lá": 5308,
      "kọ́mi": 5309,
      "kọ́bọ̀": 5310,
      "mímọ": 5311,
      "mímu": 5312,
      "mílí": 5313,
      "mímọ̀": 5314,
      "yàgbẹ́": 5315,
      "yàmẹ̀yà": 5316,
      "ààgọ̀": 5317,
      "ààmádù": 5318,
      "àtúnṣe": 5319,
      "àtúnwò": 5320,
      "sowọ́pọ̀": 5321,
      "south": 5322,
      "òórọ̀": 5323,
      "ṣùgbọ́": 5324,
      "ṣùrù": 5325,
      "lafi": 5326,
      "labí": 5327,
      "laṣọ": 5328,
      "ìgbéṣẹ́": 5329,
      "ìgbéléwọ̀n": 5330,
      "ìgbéraga": 5331,
      "ìgbéṣẹ́fúnni": 5332,
      "irúfẹ́": 5333,
      "àkóba": 5334,
      "àkópọ̀": 5335,
      "àkóónú": 5336,
      "àkọ́kọ́": 5337,
      "òfintótó": 5338,
      "kání": 5339,
      "kálá": 5340,
      "káṣà": 5341,
      "kágbá": 5342,
      "kálọ": 5343,
      "kásẹ̀": 5344,
      "kásẹ̀": 5345,
      "káalẹ́": 5346,
      "kárarẹ̀": 5347,
      "kọ̀ọ̀": 5348,
      "kọ̀lú": 5349,
      "kọ̀tù": 5350,
      "kọ̀ọ̀n": 5351,
      "láàyì": 5352,
      "láàbò": 5353,
      "láàyi": 5354,
      "láàyò": 5355,
      "hùnpọ̀": 5356,
      "wọ́pọ̀": 5357,
      "kẹsàn": 5358,
      "ìròsínú": 5359,
      "ibikíbi": 5360,
      "ibikíbi": 5361,
      "lọ́dọ̀": 5362,
      "lọ́rọ̀": 5363,
      "lọ́wọ́": 5364,
      "lọ́gọ́ta": 5365,
      "pògì": 5366,
      "gbígbèrò": 5367,
      "gbígbó": 5368,
      "gbígbáradì": 5369,
      "ẹ́wọ́gbà": 5370,
      "kùlú": 5371,
      "kùmọ̀": 5372,
      "kùrọ̀": 5373,
      "kùdì": 5374,
      "kùtù": 5375,
      "méji": 5376,
      "mélǒ": 5377,
      "sọkà": 5378,
      "ìfọ̀rọ̀": 5379,
      "ìfọ́síwẹ́": 5380,
      "ìfìdímúlẹ̀": 5381,
      "ìfìmọ̀ṣọ̀kan": 5382,
      "faragbá": 5383,
      "farahàn": 5384,
      "farajì": 5385,
      "faratì": 5386,
      "farapẹ́": 5387,
      "rọ̀mọ́": 5388,
      "day": 5389,
      "róbó": 5390,
      "woyìw": 5391,
      "ìgbàpadà": 5392,
      "ìgbàki": 5393,
      "ìgbàlódé": 5394,
      "ìgbàwé": 5395,
      "ìgbàlódé": 5396,
      "áárà": 5397,
      "nígbàkúù": 5398,
      "ọ̀rẹ́rẹ́": 5399,
      "tẹ̀yìn": 5400,
      "tẹ̀yin": 5401,
      "tẹ̀lẹ": 5402,
      "tẹ̀ẹ̀ta": 5403,
      "túnfú": 5404,
      "yéni": 5405,
      "gbígbé": 5406,
      "ọ̀rí": 5407,
      "ọ̀dọ̀": 5408,
      "ọ̀rọ̀": 5409,
      "ọ̀kankan": 5410,
      "ọ̀daràn": 5411,
      "àtúnyẹ̀wò": 5412,
      "díjú": 5413,
      "dígbọ́n": 5414,
      "díẹ̀": 5415,
      "dípò": 5416,
      "dídì": 5417,
      "díran": 5418,
      "dídẹ": 5419,
      "dídáńgájíá": 5420,
      "díámọ́": 5421,
      "díyelé": 5422,
      "jọ́họ̀": 5423,
      "jọ́ọ̀ṣẹ̀": 5424,
      "lọ́wọ́ayé": 5425,
      "mẹ́rẹ̀": 5426,
      "mẹ́fa": 5427,
      "mẹ́sǎ": 5428,
      "mẹ́wǎ": 5429,
      "mẹ́tẹ̀ẹ̀ta": 5430,
      "àfipamọ́": 5431,
      "àfibọ̀": 5432,
      "rágbà": 5433,
      "rápá": 5434,
      "yọjú": 5435,
      "ṣìsọ": 5436,
      "ṣìrá": 5437,
      "ṣìkejì": 5438,
      "kàní": 5439,
      "kàwé": 5440,
      "kàfí": 5441,
      "wíwá": 5442,
      "wíwo": 5443,
      "wíwọlé": 5444,
      "wíwẹ̀": 5445,
      "láàádọ́ta": 5446,
      "láàánú": 5447,
      "dàpè": 5448,
      "dàrú": 5449,
      "dàwátì": 5450,
      "wéré": 5451,
      "wédowó": 5452,
      "àpẹẹrẹ": 5453,
      "àpótí": 5454,
      "bóbá": 5455,
      "bóde": 5456,
      "bóyè": 5457,
      "bónílé": 5458,
      "fírí": 5459,
      "fífúnni": 5460,
      "fífí": 5461,
      "fífojú": 5462,
      "fígọ̀": 5463,
      "ìfẹ́": 5464,
      "ìfàkókò": 5465,
      "ìfìmọ̀": 5466,
      "ìfáá": 5467,
      "ìfòyà": 5468,
      "ìfẹsẹ̀": 5469,
      "ìfowópamọ́": 5470,
      "ìfojúfò": 5471,
      "ìfọwọ́sí": 5472,
      "ìfáárà": 5473,
      "jíá": 5474,
      "jíjà": 5475,
      "jíjẹ́rìí": 5476,
      "jíire": 5477,
      "jíròrò": 5478,
      "rigidi": 5479,
      "rica": 5480,
      "yábàá": 5481,
      "yátọ̀": 5482,
      "ọ́gba": 5483,
      "ọ́kọ́": 5484,
      "ìmúlò": 5485,
      "ìmúgbòòrò": 5486,
      "ìmúdójú": 5487,
      "ìmúdàgbàsókè": 5488,
      "ìmúdánilójú": 5489,
      "ìmúyangàn": 5490,
      "dínlógún": 5491,
      "ìbásọ̀rọ̀": 5492,
      "ìbáramu": 5493,
      "ìbáṣepọ̀": 5494,
      "inúrere": 5495,
      "buwọ́": 5496,
      "dúnà": 5497,
      "dúnko": 5498,
      "ababa": 5499,
      "book": 5500,
      "dèrú": 5501,
      "fífún": 5502,
      "fífojú": 5503,
      "fífààyè": 5504,
      "fífò": 5505,
      "orùka": 5506,
      "rọ̀jíí": 5507,
      "àbì": 5508,
      "ìpolongo": 5509,
      "dáadá": 5510,
      "fàní": 5511,
      "fàṣẹ": 5512,
      "fàájì": 5513,
      "fàkàfí": 5514,
      "koro": 5515,
      "kodò": 5516,
      "kooro": 5517,
      "rọjú": 5518,
      "rọrùn": 5519,
      "rọhí": 5520,
      "pínyà": 5521,
      "tánńgan": 5522,
      "yàgò": 5523,
      "̀fáà": 5524,
      "ìnákúnàá": 5525,
      "díjú": 5526,
      "díje": 5527,
      "dípo": 5528,
      "dídènà": 5529,
      "dídápadà": 5530,
      "kàndín": 5531,
      "kànńpá": 5532,
      "èròngbà": 5533,
      "ṣodò": 5534,
      "ṣébi": 5535,
      "àǹfààni": 5536,
      "dìgbò": 5537,
      "jẹmọ́": 5538,
      "jẹgú": 5539,
      "lukùn": 5540,
      "lugi": 5541,
      "olójú": 5542,
      "olókùn": 5543,
      "olóṣì": 5544,
      "olólù": 5545,
      "ológbò": 5546,
      "olóòótọ́": 5547,
      "olódidi": 5548,
      "olókìkí": 5549,
      "olóṣèlú": 5550,
      "ìdáhùnsí": 5551,
      "gandàn": 5552,
      "mímójútó": 5553,
      "pípe": 5554,
      "pípinnu": 5555,
      "pípín": 5556,
      "pípẹ́": 5557,
      "píṅkin": 5558,
      "yínkeke": 5559,
      "gbèdéké": 5560,
      "kilọ̀": 5561,
      "kọ́ṣẹ́mọṣẹ́": 5562,
      "tìkùn": 5563,
      "tìpá": 5564,
      "tìkúù": 5565,
      "tẹ́ẹ": 5566,
      "tẹ́wọ́": 5567,
      "tẹ́rẹ́": 5568,
      "tẹ́ńbẹ́": 5569,
      "tẹ́nilọ́rùn": 5570,
      "ọlọ́hun": 5571,
      "ọlọ́gbọ́n": 5572,
      "ọlọ́dàn": 5573,
      "ọlọ́ṣùn": 5574,
      "jésù": 5575,
      "mùjẹ̀": 5576,
      "ọdúnjọ": 5577,
      "ọdúnayọ̀": 5578,
      "láìsí": 5579,
      "láìsì": 5580,
      "láìpẹ́": 5581,
      "ìyàlẹnu": 5582,
      "tẹ̀léra": 5583,
      "faàyè": 5584,
      "face": 5585,
      "fágún": 5586,
      "fáìlì": 5587,
      "ronú": 5588,
      "robi": 5589,
      "olόwó": 5590,
      "olόde": 5591,
      "olόkìkí": 5592,
      "bọ̀wọ́n": 5593,
      "sóke": 5594,
      "ten": 5595,
      "ìṣàmójútó": 5596,
      "ìṣààjù": 5597,
      "ìṣàwárí": 5598,
      "ìṣàgbéyẹ̀wò": 5599,
      "elébi": 5600,
      "elédè": 5601,
      "elégbò": 5602,
      "elégbodo": 5603,
      "elégbèdè": 5604,
      "elénìní": 5605,
      "oore": 5606,
      "ìgbani": 5607,
      "ìgbòwó": 5608,
      "òkúgbésà": 5609,
      "ọlátẹ́jú": 5610,
      "ayọ̀délé": 5611,
      "bọ́": 5612,
      "bófinmu": 5613,
      "kẹ́ja": 5614,
      "kẹ́sọ̀": 5615,
      "kẹ́kọ̀ọ́": 5616,
      "kánkán": 5617,
      "kánná": 5618,
      "kánjúkánjú": 5619,
      "lílò": 5620,
      "líle": 5621,
      "lílu": 5622,
      "lílù": 5623,
      "lílẹ̀pa": 5624,
      "méwàá": 5625,
      "méjìdín": 5626,
      "táṣọ́": 5627,
      "tọ̀un": 5628,
      "tọ̀kọ̀tù": 5629,
      "ṣiyàn": 5630,
      "ìbáà": 5631,
      "ìbáramu": 5632,
      "ìbádòwòpọ̀": 5633,
      "ìbánisọ̀rọ̀": 5634,
      "dárasí": 5635,
      "abẹ́rẹ́": 5636,
      "ìfọwọ́sowọ́pọ̀": 5637,
      "lùú": 5638,
      "lùlú": 5639,
      "túnbọ̀": 5640,
      "ṣẹ̀wá": 5641,
      "ṣẹ̀yìn": 5642,
      "ẹlẹ́ni": 5643,
      "ẹlẹ́kọ": 5644,
      "ẹlẹ́mìí": 5645,
      "ẹlẹ́gbára": 5646,
      "ẹlẹ́sìn": 5647,
      "ẹlẹ́wìrì": 5648,
      "ẹlẹ́yàmẹ̀yà": 5649,
      "ọdun": 5650,
      "ìpèlè": 5651,
      "ìtọ́sọ́nà": 5652,
      "gbòǹgbò": 5653,
      "gbóhùn": 5654,
      "gbóná": 5655,
      "lójúṣáájú": 5656,
      "abúle": 5657,
      "rẹyìn": 5658,
      "ọ́n": 5659,
      "ṣàrídájú": 5660,
      "báálé": 5661,
      "adéọjọ": 5662,
      "adébóyè": 5663,
      "bọ́jọ́": 5664,
      "bọ́sẹ̀dé": 5665,
      "bọ́mọdé": 5666,
      "ibodè": 5667,
      "mẹ́rin": 5668,
      "mẹ́rì": 5669,
      "mẹ́ẹ̀ẹ́": 5670,
      "púpọ̀": 5671,
      "sára": 5672,
      "sálọ": 5673,
      "àìm": 5674,
      "àìṣedéédé": 5675,
      "àìbalẹ̀": 5676,
      "àìmoye": 5677,
      "ìpèníjà": 5678,
      "ìmúṣe": 5679,
      "ìmúlò": 5680,
      "ìmúgbòòrò": 5681,
      "ìmúdánilójú": 5682,
      "ìmúṣẹ́ṣe": 5683,
      "ìmúdárasí": 5684,
      "ìtọ́nì": 5685,
      "ìbẹ̀rẹ̀": 5686,
      "kárí": 5687,
      "káká": 5688,
      "káàkàk": 5689,
      "sàrípọ̀n": 5690,
      "sàkání": 5691,
      "sàkàní": 5692,
      "ìjábọ̀": 5693,
      "gbẹ́kẹ̀": 5694,
      "tọ́ka": 5695,
      "lọ́nàkọnà": 5696,
      "ìṣòro": 5697,
      "ìṣòdodo": 5698,
      "lọ́wọ́lọ́wọ́": 5699,
      "mímúlò": 5700,
      "mímúra": 5701,
      "mímúṣẹ": 5702,
      "mímúugbèrú": 5703,
      "jòjò": 5704,
      "náìrà": 5705,
      "sóde": 5706,
      "súnmọ́": 5707,
      "àbáyọ": 5708,
      "àbáwọlé": 5709,
      "àbádárì": 5710,
      "wọ̀bì": 5711,
      "atọ́nisọ́nà": 5712,
      "tèlé": 5713,
      "ìbàjẹ́": 5714,
      "ìbàjẹ́": 5715,
      "ìbàjẹ̀": 5716,
      "ọmọlúàbí": 5717,
      "ìṣesí": 5718,
      "ìṣedéédé": 5719,
      "ìṣewẹ́kú": 5720,
      "gbọọgba": 5721,
      "láìní": 5722,
      "láìka": 5723,
      "láìsọ": 5724,
      "láìmọ": 5725,
      "ẹranko": 5726,
      "mímúṣe": 5727,
      "ìrírídọgbọ́n": 5728,
      "fẹ̀jẹ̀": 5729,
      "fẹ̀sọ̀": 5730,
      "ránmi": 5731,
      "ránńṣẹ́": 5732,
      "wuyì": 5733,
      "gbangban": 5734,
      "sìnkú": 5735,
      "sìnmí": 5736,
      "sìnkúni": 5737,
      "kiriká": 5738,
      "ajẹran": 5739,
      "ajigbèsè": 5740,
      "aráye": 5741,
      "ibẹ̀": 5742,
      "lόde": 5743,
      "lόko": 5744,
      "lόore": 5745,
      "m̀íràn": 5746,
      "nawọ́": 5747,
      "pípa": 5748,
      "pípinnu": 5749,
      "pípín": 5750,
      "píparí": 5751,
      "pípẹ́": 5752,
      "sànwá": 5753,
      "àkísà": 5754,
      "àwòrò": 5755,
      "àkànlò": 5756,
      "àkànjí": 5757,
      "rínsá": 5758,
      "lọ́dún": 5759,
      "lọ́gọ́ta": 5760,
      "káràmáá": 5761,
      "mẹ́tamẹ́ta": 5762,
      "ìpínlẹ̀": 5763,
      "ìrìmọ́lẹ̀": 5764,
      "pohùnpọ̀": 5765,
      "sisí": 5766,
      "ńláǹlà": 5767,
      "ṣákálá": 5768,
      "ṣiṣẹ́pọ̀": 5769,
      "ọgọgọ": 5770,
      "gberí": 5771,
      "ọ̀nù": 5772,
      "ọ̀tọ̀kùlú": 5773,
      "tọ́jú": 5774,
      "àkójọpọ̀": 5775,
      "ìdánilóhùn": 5776,
      "fẹsẹ̀múlẹ̀": 5777,
      "fọ́rẹ̀": 5778,
      "fọ́kọ́": 5779,
      "gàrí": 5780,
      "kunkun": 5781,
      "mejì": 5782,
      "rìndé": 5783,
      "rìnrìn": 5784,
      "tẹlifó": 5785,
      "àṣàyàn": 5786,
      "àṣàkáṣà": 5787,
      "àṣàìtọ́nì": 5788,
      "àmọ́dù": 5789,
      "ìṣesí": 5790,
      "ìṣeré": 5791,
      "ẹlòmíì": 5792,
      "àgbájọ": 5793,
      "ìpààrọ̀": 5794,
      "gbówólé": 5795,
      "lẹ́sẹẹsẹ": 5796,
      "ìwádǐ": 5797,
      "lójúṣàájú": 5798,
      "lójúkójú": 5799,
      "ìfijíṣẹ́": 5800,
      "ìfijíṣẹ́": 5801,
      "agbárí": 5802,
      "dàná": 5803,
      "dànù": 5804,
      "jόkό": 5805,
      "sọ́kàn": 5806,
      "sọ́tọ̀": 5807,
      "wíwo": 5808,
      "wẹ̀yìn": 5809,
      "àṣeyẹ": 5810,
      "àṣejù": 5811,
      "àṣetì": 5812,
      "àṣekágbá": 5813,
      "àṣìlò": 5814,
      "ìtàkùrọ̀": 5815,
      "ìjíyìn": 5816,
      "ìjíròrò": 5817,
      "àtòjọ̀": 5818,
      "ọ̀yàyà": 5819,
      "lọ́rùn": 5820,
      "lọ́gbọọgba": 5821,
      "olúgbọ́n": 5822,
      "olúwa": 5823,
      "olújídé": 5824,
      "kíákía": 5825,
      "fífilọ̀": 5826,
      "fagílé": 5827,
      "ayédèrú": 5828,
      "apákan": 5829,
      "búra": 5830,
      "fob": 5831,
      "fohùn": 5832,
      "fíngbá": 5833,
      "fínnúfín": 5834,
      "jẹ̀fun": 5835,
      "màa": 5836,
      "màmà": 5837,
      "màjè": 5838,
      "okoòwò": 5839,
      "pósí": 5840,
      "pónà": 5841,
      "rìíra": 5842,
      "sẹ́ni": 5843,
      "sẹ́hìn": 5844,
      "sẹ́lẹ́ńkẹ́": 5845,
      "sọ̀kalẹ̀": 5846,
      "sọ̀wédowó": 5847,
      "túmọ̀": 5848,
      "yẹ̀lẹ": 5849,
      "àáró": 5850,
      "àárọ̀": 5851,
      "àáfà": 5852,
      "àárín": 5853,
      "àròpọ̀": 5854,
      "àròjin": 5855,
      "àgbájọpọ̀": 5856,
      "ìfẹ́dàrú": 5857,
      "gbọ̀ngàn": 5858,
      "ẹ̀yàmẹ̀yà": 5859,
      "ẹ̀yàyorùba": 5860,
      "ìwúrí": 5861,
      "lóhùnkà": 5862,
      "kọ́kọ́": 5863,
      "ìṣòdodo": 5864,
      "ìfiwérà": 5865,
      "naira": 5866,
      "nairobi": 5867,
      "1974": 5868,
      "1984": 5869,
      "abímbọ́": 5870,
      "abíóyè": 5871,
      "abínibí": 5872,
      "fọ̀ṣà": 5873,
      "kulẹ̀": 5874,
      "lílẹ": 5875,
      "móòrún": 5876,
      "okòmọ́ni": 5877,
      "sina": 5878,
      "sinmi": 5879,
      "àlàáfíà": 5880,
      "àkọsílẹ̀": 5881,
      "ìjọ̀wọ́": 5882,
      "ìjanu": 5883,
      "ìpolongo": 5884,
      "ìpìlẹ̀": 5885,
      "òǹgbẹ": 5886,
      "òǹkọ̀wé": 5887,
      "òǹkàwé": 5888,
      "àṣeyege": 5889,
      "àìṣedéédé": 5890,
      "ẹ̀dáwó": 5891,
      "ẹ̀yìnkùlé": 5892,
      "babájídé": 5893,
      "babáwándé": 5894,
      "babátúndé": 5895,
      "babárímisá": 5896,
      "babáyẹjú": 5897,
      "babárínsá": 5898,
      "babárìndé": 5899,
      "dúdúmọ̀ọ́": 5900,
      "àtẹ̀mọ́lẹ̀": 5901,
      "ìbàjẹ́": 5902,
      "èròǹgbà": 5903,
      "olóògbè": 5904,
      "olóòlà": 5905,
      "àìnírònú": 5906,
      "100": 5907,
      "2019": 5908,
      "bépo": 5909,
      "bébé": 5910,
      "béèyàn": 5911,
      "hárí": 5912,
      "hájì": 5913,
      "jiníà": 5914,
      "jimoh": 5915,
      "kèèkéé": 5916,
      "pọ̀jù": 5917,
      "the": 5918,
      "this": 5919,
      "three": 5920,
      "àwáwí": 5921,
      "òdiwọ̀n": 5922,
      "òrófo": 5923,
      "òrófó": 5924,
      "òrónnà": 5925,
      "òróǹró": 5926,
      "òróṅro": 5927,
      "òpópónà": 5928,
      "ṣòrọ̀": 5929,
      "ṣòjòjò": 5930,
      "àṣìlò": 5931,
      "ìsàlẹ̀": 5932,
      "ìsẹ́ra": 5933,
      "ìsọ̀rí": 5934,
      "ìtẹ́wọ́gbà": 5935,
      "ìrànlọ́wọ́": 5936,
      "ìrànlọ́wọ́": 5937,
      "gbẹ́kẹ̀lé": 5938,
      "ṣẹ̀ṣẹ̀": 5939,
      "pẹ̀lúpẹ̀lú": 5940,
      "ńláńlá": 5941,
      "pààrọ̀": 5942,
      "kéékèèkéé": 5943,
      "ìṣèlú": 5944,
      "ìṣẹ̀wá": 5945,
      "ìṣẹ̀mbá": 5946,
      "ìfowóṣò": 5947,
      "bìkítà": 5948,
      "bìláàyì": 5949,
      "bọnu": 5950,
      "dópin": 5951,
      "dógún": 5952,
      "dọ́là": 5953,
      "eegun": 5954,
      "ewédú": 5955,
      "ewéko": 5956,
      "fẹjú": 5957,
      "fìdíhẹ": 5958,
      "àìròtẹ́lẹ̀": 5959,
      "ìṣúná": 5960,
      "ìṣàgbéyẹ̀wò": 5961,
      "ìṣirò": 5962,
      "ìṣòwò": 5963,
      "ìṣàkóso": 5964,
      "ìpatì": 5965,
      "ìpalèmọ́": 5966,
      "ìpayínkeke": 5967,
      "òòtọ́": 5968,
      "òògùn": 5969,
      "ṣojúṣàájú": 5970,
      "ẹyẹàwo": 5971,
      "ẹjọ́ro": 5972,
      "ọọọ": 5973,
      "ọọọọ": 5974,
      "àìtẹ̀lé": 5975,
      "àìláṣìírí": 5976,
      "àìlèṣe": 5977,
      "àdínku": 5978,
      "báńtẹ́": 5979,
      "olóye": 5980,
      "wọ̀nyẹn": 5981,
      "dáńgájá": 5982,
      "kìnní": 5983,
      "méjéèjí": 5984,
      "ìsúnsíwá": 5985,
      "ìranú": 5986,
      "ìrandíran": 5987,
      "bẹ́ẹ̀": 5988,
      "dúnà": 5989,
      "dunni": 5990,
      "dáàbòbò": 5991,
      "gúnlẹ̀": 5992,
      "lẹyẹ̀lẹ": 5993,
      "manage": 5994,
      "mẹ́ta": 5995,
      "mẹ́tẹ̀": 5996,
      "oòrùn": 5997,
      "oòjíí": 5998,
      "oònilẹ̀": 5999,
      "pọ́nlé": 6000,
      "rọ́pò": 6001,
      "suleiman": 6002,
      "tẹ̀lẹ́": 6003,
      "tẹ̀síwájú": 6004,
      "àsansílẹ̀": 6005,
      "àsanparí": 6006,
      "àkùdé": 6007,
      "àwon": 6008,
      "èérún": 6009,
      "èékánná": 6010,
      "ṣèlérí": 6011,
      "ṣèríà": 6012,
      "ìkọ́ṣẹ́mọṣẹ́": 6013,
      "gbẹwọ̀n": 6014,
      "gbẹ̀yẹ": 6015,
      "gbẹ̀san": 6016,
      "gbẹ̀gìrì": 6017,
      "gbẹ̀gẹ̀dẹ̀": 6018,
      "òǹgbèrò": 6019,
      "ẹ̀ẹ̀méje": 6020,
      "ẹ̀ẹ̀mẹ́jọ": 6021,
      "ẹ̀ẹ̀mẹs": 6022,
      "ẹ̀ẹ̀mejì": 6023,
      "ọ̀dàlè": 6024,
      "létòlétò": 6025,
      "ìlẹ́tírí": 6026,
      "dángbọ́ngbọ́n": 6027,
      "pàṣípààrò": 6028,
      "ọmọdétẹ̀lé": 6029,
      "ìgbẹ́kẹ̀lé": 6030,
      "ìṣègùn": 6031,
      "ìṣèwádìí": 6032,
      "onígbèsè": 6033,
      "ìtumọ̀": 6034,
      "fífẹ̀": 6035,
      "fífẹ̀": 6036,
      "buwọ́lu": 6037,
      "ìsàlẹ̀": 6038,
      "jagunlabí": 6039,
      "ìrìnàjò": 6040,
      "ìtọ́nisọ́nà": 6041,
      "sáyẹ́nsì": 6042,
      "lọ́wọ́lọ́wọ́": 6043,
      "abíọ́lá": 6044,
      "abíọ́nà": 6045,
      "abíọ́sẹ̀": 6046,
      "abíọ́dún": 6047,
      "kínniwín": 6048,
      "àádọ́rin": 6049,
      "àádọ́rùn": 6050,
      "aáyan": 6051,
      "aájò": 6052,
      "aáwọ̀": 6053,
      "adáríhun": 6054,
      "alàyè": 6055,
      "dújẹr": 6056,
      "dẹ́kun": 6057,
      "dẹ̀dẹ́": 6058,
      "gígé": 6059,
      "gédégédé": 6060,
      "gìrìgìrì": 6061,
      "hùwà": 6062,
      "irọ́": 6063,
      "ifásítì": 6064,
      "jínà": 6065,
      "jínkìn": 6066,
      "kẹrin": 6067,
      "kánmọ́": 6068,
      "kánkán": 6069,
      "ońjẹ": 6070,
      "ońdè": 6071,
      "ońmùlẹ̀": 6072,
      "ogúnpọlá": 6073,
      "séríkí": 6074,
      "súyọ": 6075,
      "sẹpẹ́": 6076,
      "súnmọ́": 6077,
      "yii": 6078,
      "àríwá": 6079,
      "àríri": 6080,
      "àrídájú": 6081,
      "àrẹ̀mọbìnrin": 6082,
      "ìho": 6083,
      "ìkórìíra": 6084,
      "ìyàndá": 6085,
      "ìkọ́ṣẹ́mọṣẹ́": 6086,
      "órílẹ̀": 6087,
      "ṣubú": 6088,
      "ṣánlẹ̀": 6089,
      "ìlérí": 6090,
      "ìkọ́lé": 6091,
      "ìjẹ́rìísí": 6092,
      "gbọ́dọ̀": 6093,
      "ẹnìkẹta": 6094,
      "ládéládé": 6095,
      "sísàmì": 6096,
      "ìdarí": 6097,
      "ìdayìí": 6098,
      "ìdajì": 6099,
      "yéèyéè": 6100,
      "olúborí": 6101,
      "kọ̀ọ̀kan": 6102,
      "àyànláàyò": 6103,
      "wàrànṣesà": 6104,
      "wàrànwéré": 6105,
      "àtẹ̀mẹ́rẹ̀": 6106,
      "àtẹ̀yìnwò": 6107,
      "mọ̀ọ́mọ̀": 6108,
      "ìṣíni": 6109,
      "ìṣínilétí": 6110,
      "ìṣíwèé": 6111,
      "kọ́kọ́": 6112,
      "olùkégbàjare": 6113,
      "abọ́sẹ̀dé": 6114,
      "ìtanjẹ": 6115,
      "olùjẹ́rìísí": 6116,
      "ìfọ̀rọ̀wánilẹ́nu": 6117,
      "ìyábọ̀dé": 6118,
      "dàáro": 6119,
      "díẹ̀díẹ̀": 6120,
      "ìtàpásófin": 6121,
      "ìgbẹ́kẹ̀léni": 6122,
      "ìfìfẹ́hànsí": 6123,
      "afọ̀": 6124,
      "africa": 6125,
      "arms": 6126,
      "ardian": 6127,
      "akókò": 6128,
      "akódúdú": 6129,
      "apákan": 6130,
      "bẹ̀rẹ̀": 6131,
      "eskẹkẹnkẹ": 6132,
      "eskekẹnkẹ": 6133,
      "eédú": 6134,
      "eépìn": 6135,
      "eréko": 6136,
      "ekum": 6137,
      "fìkí": 6138,
      "fùrọ̀": 6139,
      "gíga": 6140,
      "gúsu": 6141,
      "gìdìgbà": 6142,
      "huwà": 6143,
      "híhu": 6144,
      "ifọwọ́sí": 6145,
      "isye": 6146,
      "iyèkan": 6147,
      "iyèméjì": 6148,
      "jinnà": 6149,
      "lóòrèkóòrè": 6150,
      "minu": 6151,
      "mínàṣàìtọ́nì": 6152,
      "mẹ́jọ": 6153,
      "mẹ́ta": 6154,
      "ogójì": 6155,
      "ogójì": 6156,
      "pẹlu": 6157,
      "sùbìláàyì": 6158,
      "tukọ̀": 6159,
      "tẹ́lẹ̀": 6160,
      "tẹ́lẹ̀": 6161,
      "­­­": 6162,
      "àjèjì": 6163,
      "àjànàkú": 6164,
      "àbíìbá": 6165,
      "àṣayàn": 6166,
      "àṣamọ̀": 6167,
      "ìsọníṣó": 6168,
      "ìsọdipú": 6169,
      "ìkàyẹ": 6170,
      "ìpámọ́": 6171,
      "ìpáǹle": 6172,
      "ìkẹ́dùn": 6173,
      "ìkẹ́kọ̀ọ́": 6174,
      "ìtọ́ni": 6175,
      "ìtọ́jú": 6176,
      "òwúrọ̀": 6177,
      "òfúùrù": 6178,
      "òfúrúfú": 6179,
      "óóó": 6180,
      "ṣóyínká": 6181,
      "ṣaláìní": 6182,
      "ṣaláìsí": 6183,
      "ẹnìkọ̀ọ̀kan": 6184,
      "ẹnìkẹta": 6185,
      "ẹbọra": 6186,
      "àìròtẹ́lẹ̀": 6187,
      "àìròtẹ́lẹ̀": 6188,
      "àsọyé": 6189,
      "àsọsíwájú": 6190,
      "ìtalólo": 6191,
      "ìkọlura": 6192,
      "ìkọkàndín": 6193,
      "gbìjìgbìjì": 6194,
      "ṣíṣètò": 6195,
      "ṣèlérí": 6196,
      "ṣòro": 6197,
      "níyànjú": 6198,
      "nísàlẹ̀": 6199,
      "nísàlẹ̀": 6200,
      "nílátí": 6201,
      "níláárí": 6202,
      "títẹpẹ": 6203,
      "ṣebíoti": 6204,
      "fúnrarẹ̀": 6205,
      "parapọ̀": 6206,
      "parapọ̀": 6207,
      "báàlẹ́": 6208,
      "ìdókòwò": 6209,
      "ìdókòòwò": 6210,
      "barau": 6211,
      "kòríkòsùn": 6212,
      "kòpẹ́kòpẹ́": 6213,
      "óòótọ́": 6214,
      "yékéyéké": 6215,
      "wọ̀nyí": 6216,
      "wọ̀nyẹn": 6217,
      "akọ́ṣẹ́mọṣẹ́": 6218,
      "akọ́ṣẹ́mọṣẹ́": 6219,
      "ọmọlúàbí": 6220,
      "ọmọlúàbì": 6221,
      "kúlẹ̀kúlẹ̀": 6222,
      "kúlíkúlí": 6223,
      "lúmọlúmọ": 6224,
      "ìgbógun": 6225,
      "ìgbówólé": 6226,
      "lọ́ọ́lọ́ọ́": 6227,
      "ìyáàlà": 6228,
      "ìyáàfin": 6229,
      "ojúlùmọ": 6230,
      "ojúlùmọ̀": 6231,
      "mọ́námọ́ná": 6232,
      "mọ́yánlórí": 6233,
      "àmúdójúùwọ̀n": 6234,
      "bàràbàrà": 6235,
      "pọ̀nná": 6236,
      "aláǹtakù": 6237,
      "aláǹtakùn": 6238,
      "aláìlẹ́tọ̀": 6239,
      "aláìlóòótọ́": 6240,
      "ẹ̀yàmẹ̀yà": 6241,
      "lahún": 6242,
      "káríayé": 6243,
      "kámaṣọ": 6244,
      "kùtúkùtú": 6245,
      "mẹ́rìnlá": 6246,
      "mẹ́rìndínlógún": 6247,
      "àpáàrà": 6248,
      "àpáàdì": 6249,
      "àbẹ̀ní": 6250,
      "àbẹ̀tẹ́lẹ̀": 6251,
      "ṣẹnure": 6252,
      "làálàá": 6253,
      "yínmíyínmí": 6254,
      "tìmùtìmù": 6255,
      "sọ́tọ̀": 6256,
      "sọ́tọ̀": 6257,
      "ìgbówólé": 6258,
      "ìgbẹ́jọ́": 6259,
      "fáráyé": 6260,
      "àìṣedéédé": 6261,
      "ọgọrin": 6262,
      "takuntakun": 6263,
      "lọ́wọ́lọ́wọ́": 6264,
      "fínnífínní": 6265,
      "1952": 6266,
      "1957": 6267,
      "ìtumọ̀": 6268,
      "ìtumọ̀": 6269,
      "olórísun": 6270,
      "ìkówólélórí": 6271,
      "abọ́dúndé": 6272,
      "abọ́dúnrín": 6273,
      "mèlemèle": 6274,
      "wèrewère": 6275,
      "yùnmùyùnmù": 6276,
      "ìjẹ́rìísí": 6277,
      "gbọ̀ngbọ̀n": 6278,
      "addis": 6279,
      "alfre": 6280,
      "apẹran": 6281,
      "atìdí": 6282,
      "aṣòfin": 6283,
      "agbẹjọ́ro": 6284,
      "afinú": 6285,
      "arínúríta": 6286,
      "aròbó": 6287,
      "aìlè": 6288,
      "agara": 6289,
      "arẹ̀sà": 6290,
      "agbègbè": 6291,
      "abirù": 6292,
      "amáyédẹr": 6293,
      "afinjú": 6294,
      "adigun": 6295,
      "adájọ́": 6296,
      "asokoro": 6297,
      "alaekum": 6298,
      "arógun": 6299,
      "ajọ́ṣẹ̀": 6300,
      "aṣinilọ́nà": 6301,
      "amẹ́ríkà": 6302,
      "agbanisí": 6303,
      "awúsùbìláàyì": 6304,
      "agbedeméjì": 6305,
      "asọ̀lú": 6306,
      "agùntáṣọ́": 6307,
      "akínyẹmí": 6308,
      "aṣàgbéyẹ̀wò": 6309,
      "adẹ́tẹ̀": 6310,
      "bùṣìrá": 6311,
      "b̂ara": 6312,
      "bèère": 6313,
      "cresce": 6314,
      "curement": 6315,
      "dẹ́kun": 6316,
      "dẹ́símà": 6317,
      "doríkodò": 6318,
      "dagbaro": 6319,
      "enjiníà": 6320,
      "ewúrẹ́": 6321,
      "foríji": 6322,
      "fòfinde": 6323,
      "fòkun": 6324,
      "fọ́ọ̀mù": 6325,
      "fọ́nká": 6326,
      "guardian": 6327,
      "gààrí": 6328,
      "gẹ́gẹ́": 6329,
      "gόòlù": 6330,
      "http": 6331,
      "họrí": 6332,
      "igbimọ": 6333,
      "igbákejì": 6334,
      "imẹ́lẹ́": 6335,
      "iṣẹ̀lẹ̀": 6336,
      "kóòdù": 6337,
      "lóòótọ́": 6338,
      "llahi": 6339,
      "mẹwàá": 6340,
      "mẹta": 6341,
      "mẹ̀fa": 6342,
      "mánǐ": 6343,
      "mabì": 6344,
      "mẹ̀kúnù": 6345,
      "mànáfìkí": 6346,
      "nròó": 6347,
      "nìyǐ": 6348,
      "náání": 6349,
      "ntẹ̀lẹ̀": 6350,
      "nsọ́ra": 6351,
      "nìwọ̀nyí": 6352,
      "oótù": 6353,
      "onitọ̀un": 6354,
      "okòòwò": 6355,
      "onínúure": 6356,
      "omele": 6357,
      "pupọ̀": 6358,
      "punch": 6359,
      "pọ́ùn": 6360,
      "pòórá": 6361,
      "polówo": 6362,
      "procurement": 6363,
      "pius": 6364,
      "rẹmi": 6365,
      "rúnilójú": 6366,
      "rọ́pò": 6367,
      "syste": 6368,
      "sẹri": 6369,
      "sọ̀wédowó": 6370,
      "tẹ̀wọ̀n": 6371,
      "twenty": 6372,
      "trust": 6373,
      "winná": 6374,
      "yẹ́lẹyẹ̀lẹ": 6375,
      "yunifásítì": 6376,
      "yáàbá": 6377,
      "yoòbá": 6378,
      "zone": 6379,
      "àṅfàní": 6380,
      "àṣìgbé": 6381,
      "àṣìlò": 6382,
      "àlééfà": 6383,
      "àparò": 6384,
      "àìdọ́gba": 6385,
      "àtàtá": 6386,
      "àìlọ́wọ́": 6387,
      "àpérò": 6388,
      "àdáyàtọ̀": 6389,
      "àkúrun": 6390,
      "àdéhùn": 6391,
      "àìṣojúùṣáájú": 6392,
      "àkókò": 6393,
      "àwárí": 6394,
      "àìtètè": 6395,
      "àìgbéwọ̀n": 6396,
      "àkọ̀mọ̀nà": 6397,
      "àbòsí": 6398,
      "àkàṣu": 6399,
      "àdàbà": 6400,
      "àkoso": 6401,
      "àìsaṅ": 6402,
      "àìrόjú": 6403,
      "àlùfáà": 6404,
      "àgàbàge": 6405,
      "àyọrísí": 6406,
      "àmàlà": 6407,
      "àgùntàn": 6408,
      "àìṣègbè": 6409,
      "àgékù": 6410,
      "àjínde": 6411,
      "àkámarà": 6412,
      "àlụ̀fáà": 6413,
      "ábíára": 6414,
      "ámúsà": 6415,
      "èkúté": 6416,
      "èsúsú": 6417,
      "ìyekàn": 6418,
      "ìgboro": 6419,
      "ìgalà": 6420,
      "ìrètí": 6421,
      "ìnura": 6422,
      "ìrànwọ́": 6423,
      "ìkápá": 6424,
      "ìkẹyìn": 6425,
      "ìróra": 6426,
      "ìrọ̀rí": 6427,
      "ìkọ́lé": 6428,
      "ìgéran": 6429,
      "ìkégbàjarè": 6430,
      "ìmèdèélò": 6431,
      "ímeèlì": 6432,
      "òkòwò": 6433,
      "òrònròó": 6434,
      "òyìnbó": 6435,
      "òmugọ̀": 6436,
      "òṣùwọ̀n": 6437,
      "ògbómọ̀ṣọ́": 6438,
      "òmìnira": 6439,
      "òdòlayé": 6440,
      "òdìbo": 6441,
      "òfófó": 6442,
      "òfùùrù": 6443,
      "ògìdìgbó": 6444,
      "ògèdègédé": 6445,
      "óńjẹ": 6446,
      "ólúwa": 6447,
      "ókùú": 6448,
      "ńkíra": 6449,
      "ńdárin": 6450,
      "ńgbòde": 6451,
      "ṣagbaja": 6452,
      "ṣìnkun": 6453,
      "ṣọ̀npọ̀nná": 6454,
      "ẹẹ́wàá": 6455,
      "ẹlẹ́ẹ̀kejì": 6456,
      "ọpọlọ": 6457,
      "ọgbọngbọn": 6458,
      "àlòpẹ́": 6459,
      "àìdọ́gba": 6460,
      "àjàgà": 6461,
      "àtarè": 6462,
      "àwáwí": 6463,
      "àfaraléra": 6464,
      "àjùmọ̀ṣiṣẹ́pọ̀": 6465,
      "àbẹ̀tẹ́lẹ̀": 6466,
      "àjẹsílẹ̀": 6467,
      "àìfẹ́ṣe": 6468,
      "ìpamọ́": 6469,
      "ìgbafẹ́": 6470,
      "ìgbàlódé": 6471,
      "ìrawọ́": 6472,
      "ìṣíde": 6473,
      "ìfúnniláyè": 6474,
      "ìkégbàjarè": 6475,
      "ìkápá": 6476,
      "ìtọ́jú": 6477,
      "ìkẹ́kọ̀ọ́": 6478,
      "ìjìyà": 6479,
      "gbájúmọ́": 6480,
      "ẹlòmíràn": 6481,
      "ẹyọkan": 6482,
      "òyìnbó": 6483,
      "òtúbáńtẹ́": 6484,
      "òṣìṣẹ́": 6485,
      "nípàmọ́": 6486,
      "títòjọ": 6487,
      "ẹ̀lírí": 6488,
      "ẹ̀kudiẹ": 6489,
      "andrew": 6490,
      "ẹ̀ẹ̀mẹta": 6491,
      "ẹ̀dáwó": 6492,
      "ẹ̀tanú": 6493,
      "ọ̀ríjínà": 6494,
      "ọ̀mọ̀wé": 6495,
      "ọ̀daràn": 6496,
      "ọ̀dúnrún": 6497,
      "ọ̀tẹ́gbẹ̀yẹ": 6498,
      "ọ̀gbẹ́ni": 6499,
      "ọ̀gàlàǹta": 6500,
      "ọ̀jẹ̀lu": 6501,
      "ọ̀gọ̀ọ̀rọ̀": 6502,
      "ọ̀rínkínniwín": 6503,
      "ọ̀ṣọ̀ọ̀rọ̀": 6504,
      "ọ̀mọ̀ran": 6505,
      "nítòsí": 6506,
      "nímọ̀ràn": 6507,
      "níbòmíràn": 6508,
      "níyànjú": 6509,
      "nífẹ̀ẹ́": 6510,
      "títọ́jọ́": 6511,
      "ọ́ọ́yọ́": 6512,
      "fikùnlukùn": 6513,
      "ọ̀dàlẹ̀": 6514,
      "ọ̀gọ̀ọ̀rọ̀": 6515,
      "ohunkóhun": 6516,
      "ohunkόhun": 6517,
      "sísẹ̀ntẹ̀lẹ̀": 6518,
      "lárinrin": 6519,
      "lárọ̀ọ́wọ́": 6520,
      "láìròtẹ́lẹ̀": 6521,
      "láìṣègbé": 6522,
      "lákòókò": 6523,
      "lárugẹ": 6524,
      "palẹ̀mọ́": 6525,
      "payítalẹ̀": 6526,
      "bísímìláàyi": 6527,
      "bámidélé": 6528,
      "bánkọ́lé": 6529,
      "báfẹ́fẹ́́": 6530,
      "bámgbọ́pàá": 6531,
      "gbomimu": 6532,
      "ìdàkejì": 6533,
      "ìdójútòfò": 6534,
      "ìdánwò": 6535,
      "ìdúnkookòmọ́ni": 6536,
      "àtigbéṣẹ́fúnni": 6537,
      "àtinúdá": 6538,
      "balόgun": 6539,
      "kòsọ́kọ́": 6540,
      "independe": 6541,
      "inúnibíni": 6542,
      "yéèèèè": 6543,
      "yésìdé": 6544,
      "olókòòwò": 6545,
      "akeem": 6546,
      "akèǹgbè": 6547,
      "akúwárápá": 6548,
      "kìlómítà": 6549,
      "lótìítọ́": 6550,
      "pàwọ̀dà": 6551,
      "oníbàráà": 6552,
      "onípòjipò": 6553,
      "oníbàárà": 6554,
      "oníwóróbo": 6555,
      "oríṣiríṣi": 6556,
      "ọ̀ranyàn": 6557,
      "kékére": 6558,
      "ṣàjejì": 6559,
      "ṣàǹfàni": 6560,
      "lọ́pọ̀lọpọ̀": 6561,
      "lọ́tọ̀ọ̀tọ̀": 6562,
      "lọ́gànjọ́": 6563,
      "taṣọ̀ọ̀": 6564,
      "kejìdínlọ́gọ́ta": 6565,
      "ojúlόwό": 6566,
      "ojúṣàájú": 6567,
      "ojúkòkòrò": 6568,
      "mọ́kànlélógún": 6569,
      "pàjáwìrì": 6570,
      "pàṣípààrọ̀": 6571,
      "pàṣípààrọ̀": 6572,
      "àtẹnumọ́": 6573,
      "onídùúró": 6574,
      "ayédèrú": 6575,
      "ayélujára": 6576,
      "jàǹtirẹrẹ": 6577,
      "jàkéjádò": 6578,
      "dáńgájíá": 6579,
      "ìyọ̀ǹda": 6580,
      "olùbẹ̀wẹ̀": 6581,
      "lóríṣiríṣi": 6582,
      "dújẹrá": 6583,
      "abdullahi": 6584,
      "ìbuwọ́lù": 6585,
      "ìbìnújẹ́": 6586,
      "onígbẹ̀ẹ́tì": 6587,
      "yanran̄tí": 6588,
      "yanturu": 6589,
      "wákàtí": 6590,
      "lẹ́sẹẹsẹ": 6591,
      "àtunbọ̀tán": 6592,
      "mọ́yán": 6593,
      "nàíjíríà": 6594,
      "ìgbéṣẹ́fúnni": 6595,
      "akọ́ṣẹ́mọṣẹ́": 6596,
      "jẹgúdújẹrá": 6597,
      "kúnj̣ú": 6598,
      "olùṣèwádìí": 6599,
      "ẹ̀yáwó": 6600,
      "alákọ̀ọ́kọ́": 6601,
      "alárìnjìnà": 6602,
      "alábàáṣiṣẹ́pọ̀": 6603,
      "aládǔgbò": 6604,
      "aláfarahẹ": 6605,
      "alábàáṣiṣẹ́pọ̀": 6606,
      "mílíọ̀nù": 6607,
      "ìgbéṣẹ́fúnni": 6608,
      "kọ̀ọ̀nkọ̀": 6609,
      "gbígbógun": 6610,
      "kùdìẹ̀kudiẹ": 6611,
      "ìfọ̀rọ̀wérọ̀": 6612,
      "ìfọ́síwẹ́wẹ́": 6613,
      "róbótó": 6614,
      "woyìwoyì": 6615,
      "ìgbàkigbà": 6616,
      "nígbàkúùgbà": 6617,
      "túnfúlù": 6618,
      "dídẹwọ́": 6619,
      "díámọ́ṅdì": 6620,
      "jọ́họ̀jọ́": 6621,
      "mẹ́sǎn": 6622,
      "ìfìmọ̀ṣọ̀kan": 6623,
      "ìfáárà": 6624,
      "ìfẹsẹ̀múlẹ̀": 6625,
      "buwọ́lu": 6626,
      "dúnkokò": 6627,
      "fífòpin": 6628,
      "rọ̀jíími": 6629,
      "fàkàfíkí": 6630,
      "rọhíìmì": 6631,
      "tánńganran": 6632,
      "dìgbòlugi": 6633,
      "jẹgúdújẹr": 6634,
      "olólùfẹ́": 6635,
      "tìkúùkù": 6636,
      "tẹ́ńbẹ́lú": 6637,
      "facebook": 6638,
      "fágúnwà": 6639,
      "elégbòogi": 6640,
      "ìgbanisíṣẹ́": 6641,
      "òkúgbésàbí": 6642,
      "méjìdínláàádọ́ta": 6643,
      "tọ̀kọ̀tùlùú": 6644,
      "mẹ́rìnlá": 6645,
      "mẹ́ẹ̀ẹ́dógún": 6646,
      "káàkàkiri": 6647,
      "sàrípọ̀nlọ": 6648,
      "gbẹ́kẹ̀lé": 6649,
      "àbádárìgì": 6650,
      "wọ̀bìà": 6651,
      "fẹ̀jẹ̀wẹ̀": 6652,
      "káràmáásìkìí": 6653,
      "ọgọgọlúmọlúmọ": 6654,
      "tẹlifóònù": 6655,
      "jόkόό": 6656,
      "ìtàkùrọ̀sọ": 6657,
      "fínnúfíndọ̀": 6658,
      "màjèsín": 6659,
      "sẹ́lẹ́ńkẹ́jọ̀": 6660,
      "àròjinlẹ̀": 6661,
      "abímbọ́là": 6662,
      "dúdúmọ̀ọ́dú": 6663,
      "ìṣẹ̀mbáyé": 6664,
      "ìfowóṣòfò": 6665,
      "fìdíhẹẹ́": 6666,
      "ẹyẹàwodi": 6667,
      "ìsúnsíwájú": 6668,
      "management": 6669,
      "mẹ́tẹ̀ẹ̀ta": 6670,
      "oòjííre": 6671,
      "ẹ̀ẹ̀mẹsàn": 6672,
      "ìlẹ́tíríìkì": 6673,
      "pàṣípààrọ̀": 6674,
      "ìgbẹ́kẹ̀léni": 6675,
      "adáríhunrun": 6676,
      "ìfọ̀rọ̀wánilẹ́nuwò": 6677,
      "eépìnnì": 6678,
      "ìsọníṣókí": 6679,
      "ìsọdipúpọ̀": 6680,
      "ìtalólobó": 6681,
      "ìkọkàndínlọ́gọ́ta": 6682,
      "títẹpẹlẹ": 6683,
      "ṣebíotimọ": 6684,
      "aláìlẹ́tọ̀ọ́": 6685,
      "alfred": 6686,
      "amáyédẹrùn": 6687,
      "agbanisíṣẹ́": 6688,
      "agùntáṣọ́ọlò": 6689,
      "crescent": 6690,
      "system": 6691,
      "àgàbàgebè": 6692,
      "lárọ̀ọ́wọ́tó": 6693,
      "independent": 6694,
      "jẹgúdújẹrá": 6695
    },
    "merges": [
      "a ̀",
      "i ́",
      "o ̣",
      "i ̀",
      "g b",
      "e ̀",
      "e ̣",
      "a ́",
      "t i",
      "e ́",
      "o ́",
      "s ̣",
      "u ́",
      "o ̀",
      "w ọ",
      "ẹ ́",
      "w ọ",
      "n í",
      "t í",
      "wọ n",
      "ẹ ́",
      "ẹ ̀",
      "a n",
      "ú n",
      "ú n",
      "ẹ ̀",
      "wọ n",
      "à wọn",
      "ọ ̀",
      "n í",
      "t í",
      "u n",
      "n i",
      "k an",
      "ọ ́",
      "ṣ e",
      "f ún",
      "y e",
      "l é",
      "f i",
      "ṣ e",
      "ṣ ẹ́",
      "l é",
      "ọ ̀",
      "f ún",
      "à wọn",
      "p è",
      "h un",
      "o hun",
      "s í",
      "s è",
      "l á",
      "pè sè",
      "t ó",
      "t ó",
      "à n",
      "ṣ ẹ́",
      "p a",
      "i ṣẹ́",
      "ì w",
      "s í",
      "b í",
      "b á",
      "p è",
      "ìw é",
      "l á",
      "r í",
      "i ṣẹ́",
      "á à",
      "ì w",
      "s è",
      "gb o",
      "pè sè",
      "ọ ́",
      "l ò",
      "ìw é",
      "ì pèsè",
      "n áà",
      "n á",
      "ì d",
      "n ́",
      "o w",
      "ì d",
      "à ti",
      "ná à",
      "à ti",
      "u ̀",
      "t à",
      "lá ti",
      "j ú",
      "l ò",
      "r í",
      "è lò",
      "j ú",
      "t à",
      "gb a",
      "gb à",
      "l ó",
      "b a",
      "k ò",
      "b í",
      "i lé",
      "ìd í",
      "l ẹ̀",
      "à n",
      "l ẹ̀",
      "lá ti",
      "b á",
      "i n",
      "r ò",
      "gb é",
      "ye lé",
      "ìdí yelé",
      "r a",
      "i lé",
      "j ọ",
      "ìd í",
      "gb à",
      "y ì",
      "wọ ́",
      "gb é",
      "ọ j",
      "k í",
      "tà bí",
      "y í",
      "à k",
      "ì pèsè",
      "s ì",
      "ìdí ye",
      "ìdíye lé",
      "ó ò",
      "k ọ",
      "k ó",
      "y óò",
      "ì l",
      "wọ ́",
      "tà bí",
      "l è",
      "gbo gbo",
      "k a",
      "y ó",
      "y é",
      "m ú",
      "j à",
      "yó ò",
      "ù n",
      "ow ó",
      "n ú",
      "o l",
      "n ̀",
      "w ò",
      "é ̣",
      "g a",
      "k ò",
      "r è",
      "è lò",
      "p é",
      "r ò",
      "w ó",
      "ow ó",
      "j ẹ́",
      "n ǹ",
      "nǹ kan",
      "r ú",
      "àn à",
      "à y",
      "j ọ",
      "w ò",
      "ìl ànà",
      "a k",
      "m ú",
      "m ọ",
      "n ú",
      "i ye",
      "r ẹ̀",
      "k í",
      "d é",
      "d á",
      "y ì",
      "̀ n",
      "s ì",
      "ọj à",
      "gb è",
      "d e",
      "b i",
      "w á",
      "k ì",
      "l ó",
      "y ẹ",
      "jọ ba",
      "gb ọ́",
      "yì í",
      "è è",
      "t ò",
      "y àn",
      "p é",
      "ní nú",
      "ṣ í",
      "ní nú",
      "ǹ kan",
      "ì jọba",
      "ọ jà",
      "y í",
      "ẹ̀ wò",
      "n ǹkan",
      "p à",
      "à gbà",
      "w à",
      "o ní",
      "á n",
      "sí lẹ̀",
      "l è",
      "o rí",
      "a gba",
      "ọ mọ",
      "r in",
      "á jú",
      "è tò",
      "ù n",
      "ò ̣",
      "k ú",
      "m á",
      "m ọ̀",
      "k é",
      "à gbà",
      "l ú",
      "y è",
      "ọ̀ r",
      "l à",
      "fi n",
      "r ẹ̀",
      "è yí",
      "ṣ à",
      "ì gb",
      "ì l",
      "pa p",
      "gbè rò",
      "l ọ́",
      "t a",
      "j ẹ́",
      "k e",
      "yì n",
      "wọ́ n",
      "ì y",
      "o jú",
      "m ọ́",
      "ẹ r",
      "d i",
      "d é",
      "p à",
      "à t",
      "k àn",
      "r e",
      "à gbé",
      "ìl àn",
      "r è",
      "ìlàn à",
      "n u",
      "àgbà ṣe",
      "o ní",
      "ì ṣ",
      "gbọ́ n",
      "k ún",
      "àk ọ",
      "y ẹ",
      "a ra",
      "a yé",
      "p ẹ̀",
      "ì gbèrò",
      "gb á",
      "r ú",
      "j à",
      "j á",
      "l ọ",
      "t ò",
      "à mú",
      "d á",
      "m ọ̀",
      "o jú",
      "ì ṣ",
      "ṣí ṣe",
      "kọ sí",
      "àkọ sílẹ̀",
      "b à",
      "k ó",
      "y ẹ̀",
      "oní gb",
      "w à",
      "è rè",
      "ní láti",
      "yì n",
      "à kọsí",
      "ì y",
      "ì mọ̀",
      "wọ ̀n",
      "ọ̀ wọ́",
      "ol ù",
      "a pa",
      "àgbà ṣe",
      "à gbé",
      "à jọ",
      "pẹ̀ lú",
      "m i",
      "y ẹ̀wò",
      "ló rí",
      "j ì",
      "r à",
      "ní pa",
      "má a",
      "yẹ̀ wò",
      "d ú",
      "n à",
      "fún ni",
      "a b",
      "l ẹ́",
      "àk ó",
      "ló rí",
      "rú kọ",
      "onígb ọ̀wọ́",
      "d ọ̀",
      "ní pa",
      "m u",
      "ì fi",
      "í n",
      "ì b",
      "m á",
      "k ọ",
      "ọj ọ́",
      "lè ̣",
      "oní gb",
      "y an",
      "è tò",
      "àgbé yẹ̀wò",
      "ṣ í",
      "ó jú",
      "èè rè",
      "j á",
      "n ì",
      "p in",
      "ṣẹ́ ṣe",
      "fún ni",
      "ì n",
      "ó jú",
      "l e",
      "p e",
      "r àn",
      "w á",
      "è yí",
      "ìgb ìmọ̀",
      "b ẹ́",
      "wọ ̀n",
      "agba ṣẹ́ṣe",
      "k ì",
      "l ẹ́",
      "m o",
      "s ọ",
      "w a",
      "w ó",
      "ì í",
      "à l",
      "gb è",
      "jọ ba",
      "p ọ̀",
      "ì jọba",
      "à t",
      "pa d",
      "yì í",
      "f ẹ́",
      "m ọ́",
      "n à",
      "à mú",
      "ì gbé",
      "á ájú",
      "l ú",
      "r àn",
      "ak ọ́",
      "pap ọ̀",
      "s an",
      "ọ wọ́",
      "kàn sí",
      "b ẹ́",
      "j ù",
      "j ẹ",
      "k ún",
      "ì t",
      "gb á",
      "ìd á",
      "ol ù",
      "ày é",
      "àl àyé",
      "í n",
      "ṣẹ́ ṣe",
      "k é",
      "s ẹ̀",
      "ì í",
      "là yé",
      "ṣ ẹ́",
      "àmú lò",
      "o rí",
      "à jọ",
      "è èrè",
      "ẹr ù",
      "p ẹ̀",
      "à à",
      "è ̣",
      "pẹ̀ lú",
      "j í",
      "k ọ̀",
      "ẹ r",
      "ìy apa",
      "olù kànsí",
      "ójú tó",
      "pin nu",
      "a lá",
      "a lá",
      "o rúkọ",
      "t ọ́",
      "ì b",
      "ak ọ́",
      "d ọ̀",
      "l o",
      "è rè",
      "à papọ̀",
      "ṣ áájú",
      "ló wó",
      "jà fúnni",
      "akọ́ jàfúnni",
      "d è",
      "gb ọ́",
      "ìd á",
      "h ùn",
      "i ṣẹ́",
      "j ọ́",
      "è ̣",
      "à fi",
      "ì fi",
      "jà fúnni",
      "i rú",
      "k ọ́",
      "m í",
      "y à",
      "à à",
      "tà kì",
      "pà tàkì",
      "àt ún",
      "má a",
      "èè yàn",
      "agba ṣẹ́ṣe",
      "akọ́ jàfúnni",
      "r é",
      "s o",
      "ò fin",
      "ní láti",
      "àkọsí lẹ̀",
      "ò ó",
      "ṣ ù",
      "tà kì",
      "pà tàkì",
      "bẹ́ ẹ̀",
      "l a",
      "ì gbé",
      "ò ó",
      "ójú tó",
      "g ẹ́",
      "i rú",
      "à kó",
      "ò fin",
      "ọ gbọ́n",
      "è rò",
      "ojú lówó",
      "àkó kò",
      "i lẹ̀",
      "k á",
      "k ọ̀",
      "ẹ ni",
      "ày ẹ̀wò",
      "b ò",
      "s ẹ̀",
      "lá à",
      "já de",
      "bẹ́ ẹ̀",
      "h ùn",
      "wó ̣",
      "k ẹ",
      "k ùn",
      "m ìí",
      "ọ jọ́",
      "ì rò",
      "ní bi",
      "i bi",
      "l ọ́",
      "p ò",
      "t orí",
      "è dè",
      "gb í",
      "é ̣",
      "àgbé yẹ̀wò",
      "mìí ràn",
      "k ù",
      "m é",
      "p ọ̀",
      "s ọ",
      "ọ̀ wọ́",
      "ka lẹ̀",
      "já de",
      "b èèrè",
      "ì f",
      "pe le",
      "ìrò yìn",
      "f ara",
      "r ọ̀",
      "ga gbá",
      "ọ̀r ọ̀",
      "dé ke",
      "gagbá ga",
      "d a",
      "r ó",
      "̣ wò",
      "yè ̣wò",
      "ìfi gagbága",
      "àmú yẹ",
      "b ò",
      "g ẹ́",
      "m ójútó",
      "w o",
      "ì gbà",
      "ò k",
      "ì gbà",
      "onígb ọ̀wọ́",
      "ẹr ù",
      "m ìí",
      "á á",
      "ṣ ẹ",
      "ní lò",
      "ní gbà",
      "ní torí",
      "ọ̀r ẹ́",
      "gbè déke",
      "ìgbé sẹ̀",
      "mìí ràn",
      "j u",
      "t ẹ̀",
      "t ún",
      "y é",
      "gb í",
      "ò ̣",
      "kó kó",
      "àt ún",
      "àtún ṣe",
      "d í",
      "j ọ́",
      "t ọ́",
      "y òó",
      "lọ́ wọ́",
      "wọ̀n yí",
      "k ùn",
      "m ẹ́",
      "ì rò",
      "bà bá",
      "ṣí ṣe",
      "àkó kò",
      "j ù",
      "w e",
      "w ù",
      "à fi",
      "à pap",
      "ọ̀ dọ̀",
      "ìy á",
      "pad à",
      "òk èèrè",
      "j ẹ́",
      "r á",
      "r ù",
      "r ẹ́",
      "y ọ",
      "ṣ ì",
      "ké ré",
      "k à",
      "w í",
      "ún á",
      "àtún ṣe",
      "h àn",
      "ì wọ̀n",
      "ọ wọ́",
      "lá à",
      "ga gbá",
      "ìṣ úná",
      "àgbé yẹ̀wò",
      "lẹ́ yìn",
      "àà bò",
      "ṣù gbọ́n",
      "gagbá ga",
      "d à",
      "g á",
      "r é",
      "w é",
      "à p",
      "à làyé",
      "ní lò",
      "kan kan",
      "b ó",
      "b èèrè",
      "f í",
      "s ùn",
      "w é",
      "ì f",
      "lẹ́ yìn",
      "pad à",
      "ìrò yìn",
      "g e",
      "i pò",
      "j í",
      "p á",
      "r i",
      "r ó",
      "y á",
      "ó ̣",
      "ì mú",
      "rè ̣",
      "ìgb èrò",
      "nì kan",
      "b ẹ̀",
      "d ín",
      "r ùn",
      "y á",
      "à wọn",
      "ì bá",
      "ṣ ì",
      "ṣ àlàyé",
      "wọ lé",
      "sí lẹ̀",
      "in ú",
      "ka lẹ̀",
      "ọ̀ wọ́",
      "ṣà làyé",
      "àkọsí lẹ̀",
      "onígb ọ̀wọ́",
      "ìfi gagbága",
      "mé jì",
      "yòó wù",
      "láà rin",
      "b u",
      "d ún",
      "d ájú",
      "i lẹ̀",
      "m ọ",
      "ọ̀ kan",
      "ẹr ẹ",
      "gbọ́ dọ̀",
      "a ba",
      "b o",
      "d è",
      "f í",
      "o rù",
      "r ọ̀",
      "à b",
      "é èrè",
      "ì p",
      "ì ná",
      "yí yàn",
      "yí yan",
      "dá a",
      "ìná wó",
      "f à",
      "k o",
      "k ú",
      "r ọ",
      "y orù",
      "à yẹ̀wò",
      "è nì",
      "ì s",
      "ì mọ̀",
      "ẹ ẹrẹ",
      "ì wọ̀n",
      "á n",
      "ọ̀ kan",
      "ní gbà",
      "rú kọ",
      "áá jú",
      "àp ẹẹrẹ",
      "ènì yàn",
      "g o",
      "p ín",
      "t ẹ̀",
      "t án",
      "y à",
      "y è",
      "̀ f",
      "ú ró",
      "ún á",
      "ẹ̀ ka",
      "ọ̀ nà",
      "sì kò",
      "ìl ú",
      "gbọ́ dọ̀",
      "ké yìí",
      "èyí kéyìí",
      "kó kó",
      "ìb éèrè",
      "ìn á",
      "d í",
      "i rò",
      "k àn",
      "l ọ",
      "è rò",
      "ò un",
      "ṣ o",
      "ṣ é",
      "ṣ ẹ",
      "lé tí",
      "àn ̀f",
      "ìy apa",
      "pà tó",
      "láà rin",
      "àpap ọ̀",
      "aba la",
      "yorù bá",
      "àǹf àà",
      "b ẹ̀",
      "d ì",
      "f àà",
      "j ẹ",
      "l u",
      "l à",
      "o ló",
      "ẹ̀ ka",
      "ọ̀ gá",
      "ní bi",
      "sí nú",
      "sí nú",
      "lè ̣",
      "ọ̀r àn",
      "re re",
      "ìṣ irò",
      "ké ré",
      "kọ̀ ọ̀kan",
      "ìdá hùn",
      "ìgbé sẹ̀",
      "gẹ́ gẹ́",
      "ìná wó",
      "àǹfàà ní",
      "f à",
      "f ín",
      "g an",
      "g ẹ́",
      "h àn",
      "i kú",
      "j ì",
      "m í",
      "m ójútó",
      "n ì",
      "p í",
      "w ù",
      "w ájú",
      "y ọ",
      "ì pinnu",
      "ṣ áájú",
      "è dè",
      "ṣ ètò",
      "ṣ ọwọ́",
      "yí n",
      "gbè dé",
      "kì á",
      "pà tó",
      "orí lẹ̀",
      "ìṣ úná",
      "dú kìá",
      "fín ní",
      "b ẹ́",
      "g i",
      "k i",
      "k è",
      "k ọ́",
      "t ì",
      "t ẹ́",
      "ì pele",
      "ọ lọ́",
      "àgbé kalẹ̀",
      "dá a",
      "dú rà",
      "olù pèsè",
      "gbèdé ke",
      "b ìn",
      "i rò",
      "j é",
      "m ù",
      "s un",
      "y àn",
      "y òó",
      "ọ dún",
      "é èrè",
      "lá ì",
      "ló rúkọ",
      "ày è",
      "wá jú",
      "ìy à",
      "ìṣ irò",
      "kún jú",
      "àkó so",
      "ìb éèrè",
      "tẹ̀ lé",
      "bìn rin",
      "d úró",
      "f a",
      "f á",
      "f ẹ́",
      "i pa",
      "j a",
      "m áà",
      "o rúkọ",
      "r o",
      "y ọ̀",
      "lé tí",
      "ọ̀ rọ̀",
      "pa rí",
      "ol ό",
      "gbọ́ n",
      "àfi kún",
      "máà kì",
      "b ọ̀",
      "j ẹ́",
      "r ọ",
      "r ùn",
      "s ó",
      "t e",
      "ì r",
      "ì rí",
      "ì ṣà",
      "ì já",
      "ò ṣì",
      "ọ̀ nà",
      "sí wájú",
      "kì í",
      "gbá ra",
      "kọ̀ ọ̀kan",
      "gbí gba",
      "gbí gbé",
      "bẹ́ ẹ̀",
      "e lé",
      "o o",
      "r ẹ́",
      "y in",
      "ì gb",
      "ò kú",
      "ọ lá",
      "à p",
      "ṣ ojú",
      "àmú lò",
      "ìdá hùn",
      "orí lẹ̀",
      "àfi kún",
      "gẹ́ gẹ́",
      "ṣì ṣẹ́",
      "yè sí",
      "òṣì ṣẹ́",
      "a yọ̀",
      "b ó",
      "g un",
      "k ẹ́",
      "k án",
      "l í",
      "m é",
      "p ú",
      "t á",
      "t ọ̀",
      "w ό",
      "ṣ i",
      "ì bá",
      "ẹ ni",
      "ò ṣìṣẹ́",
      "ún à",
      "sí wájú",
      "lá sìkò",
      "ọj á",
      "dá ra",
      "sì kò",
      "ló wó",
      "kú rò",
      "ké de",
      "àmú yẹ",
      "ojú lówó",
      "ab ẹ́",
      "alá ṣẹ",
      "ìf ọwọ́",
      "g ún",
      "l ù",
      "l ẹ",
      "t ẹ́",
      "t ún",
      "ṣ ọ",
      "ṣ ẹ̀",
      "ẹ lẹ́",
      "í yèsí",
      "ọ d",
      "ì pè",
      "ì pinnu",
      "ì tọ́",
      "gb ò",
      "gb ó",
      "ṣ ù",
      "ye ge",
      "ìw à",
      "ìd únà",
      "ló jú",
      "àn ṣe",
      "yí padà",
      "àk íyèsí",
      "àk ànṣe",
      "pà á",
      "án dúrà",
      "ke jì",
      "olù pèsè",
      "ab ú",
      "ìdá ni",
      "kùn rin",
      "gbí gba",
      "fí fi",
      "ìfọwọ́ sí",
      "b à",
      "b ùn",
      "d ù",
      "f á",
      "f ọwọ́",
      "j e",
      "r ẹ",
      "r un",
      "t è",
      "ó ̣",
      "ṣ à",
      "bá á",
      "lá bẹ́",
      "kó so",
      "yẹ n",
      "yè sí",
      "dú ró",
      "wọ̀n yí",
      "da rí",
      "abú lé",
      "a dé",
      "b ọ́",
      "b ọ̀",
      "i bo",
      "k è",
      "k ù",
      "m a",
      "m ẹ́",
      "p ú",
      "s á",
      "t é",
      "à ì",
      "ì pè",
      "ì mú",
      "̣ lú",
      "ṣ iṣẹ́",
      "wọ lé",
      "ẹ̀ yin",
      "ọ̀ wé",
      "lá bẹ́",
      "lá sìkò",
      "in ú",
      "wọ́ n",
      "ojú ṣe",
      "ìt ọ́",
      "ìb ẹ̀",
      "kú rò",
      "ìdáhùn sí",
      "yòó wù",
      "pú pọ̀",
      "k á",
      "k ọjá",
      "o bìnrin",
      "s à",
      "y a",
      "à rà",
      "ì kéde",
      "ǹ fàà",
      "ì lẹ̀",
      "ì já",
      "ì jí",
      "gb ẹ́",
      "ò ò",
      "tí tà",
      "tí ta",
      "ẹ̀ bùn",
      "ọ̀ dọ̀",
      "tó ̣",
      "bí i",
      "pè ̣lú",
      "jú we",
      "ba ba",
      "mú lò",
      "ak ọ̀wé",
      "kí kọ",
      "kí kún",
      "lọ́ nà",
      "ìṣ ò",
      "ìṣ àkóso",
      "dá ra",
      "èyí ké",
      "gbè rò",
      "ẹ̀ ka",
      "àfi hàn",
      "kọ́ kọ́",
      "lọ́ wọ́",
      "kùn à",
      "rẹ́ rẹ́",
      "kàn sí",
      "mí mú",
      "mé jì",
      "abẹ́ lé",
      "ǹfàà ní",
      "èyíké yìí",
      "a gbá",
      "a ṣojú",
      "b l",
      "d ín",
      "j ò",
      "k à",
      "n á",
      "s ó",
      "s ún",
      "t orí",
      "à bá",
      "é dé",
      "ṣ ètò",
      "í padà",
      "ọ n",
      "wọ ̀",
      "ní lẹ̀",
      "ẹ̀ kún",
      "bí nú",
      "tà àrà",
      "kò ̣",
      "ày ípadà",
      "dá jú",
      "ojú ṣe",
      "ab bl",
      "ìt ẹ́",
      "ìt àn",
      "ké de",
      "ẹr ẹ",
      "alá bò",
      "àà bò",
      "gbí gbé",
      "yá là",
      "ìbá mu",
      "dáa dáa",
      "tẹ̀ lé",
      "nì kan",
      "alábò ójútó",
      "a tọ́",
      "k èèrè",
      "l ù",
      "o ṣù",
      "t è",
      "y àt",
      "á d",
      "ì bà",
      "ò wò",
      "ẹ s",
      "ẹ nu",
      "ọ kùnrin",
      "ọ mọ",
      "ì ṣe",
      "gb ọ",
      "gb òò",
      "ò kèèrè",
      "ẹ̀ rọ",
      "ọ̀ ràn",
      "ọ̀ yà",
      "pè júwe",
      "sí lẹ̀",
      "sí san",
      "lá ì",
      "àk ì",
      "kó pa",
      "ka sí",
      "ṣí ṣí",
      "pà dé",
      "orí sun",
      "ẹr an",
      "má àkì",
      "ìgbé ṣẹ́",
      "kún jú",
      "kọ̀ ọ́",
      "mí mú",
      "ọwọ́ sí",
      "ìp ìlẹ̀",
      "pí pèsè",
      "ìrí rí",
      "ìbá mu",
      "ọd ún",
      "ṣù gbọ́n",
      "ẹ̀kún rẹ́rẹ́",
      "f ẹ̀",
      "f ojú",
      "g ì",
      "i rin",
      "i gi",
      "n kẹ",
      "p ín",
      "r à",
      "r án",
      "t un",
      "w u",
      "à ǹfààní",
      "ì rí",
      "gb an",
      "è èrè",
      "ẹ ẹrẹ",
      "ti tun",
      "ní ye",
      "ẹ̀ rí",
      "ẹ̀ sùn",
      "ní torí",
      "ni létí",
      "tó nilétí",
      "bá yìí",
      "wọ́ gbà",
      "sì n",
      "oní mọ̀",
      "oní pele",
      "dé gbà",
      "ab ẹ́",
      "ìb èèrè",
      "àt ọ̀",
      "ìfi tónilétí",
      "mí ràn",
      "láà yè",
      "kẹ nkẹ",
      "lọ́ nà",
      "fara mọ́",
      "ìgbà dégbà",
      "dín wó",
      "fà àyè",
      "gẹ́ gẹ́",
      "fínní fínní",
      "ki ri",
      "ìyà wó",
      "só kè",
      "ayọ̀ ọlá",
      "ìdáni lẹ́",
      "ibo jì",
      "ìtẹ́ wọ́gbà",
      "atọ́ nà",
      "a j",
      "a rá",
      "d o",
      "d ùn",
      "g ì",
      "i b",
      "l ό",
      "m ì",
      "m ̀",
      "m ọ̀",
      "n a",
      "p í",
      "p á",
      "p ò",
      "r án",
      "s àn",
      "t ù",
      "t á",
      "t ọ̀",
      "à kí",
      "à wò",
      "à kàn",
      "ì bínú",
      "à dé",
      "ọ dọ̀",
      "ì yẹn",
      "gb òó",
      "gb ọdọ̀",
      "ṣ ẹ́",
      "tí tí",
      "ọ́ n",
      "ṣe é",
      "fi hàn",
      "rí n",
      "mú lò",
      "mú lẹ̀",
      "dé édé",
      "ló ̣",
      "dá hùn",
      "ẹ̀ dínwó",
      "àfi wé",
      "ká rà",
      "kẹ kẹnkẹ",
      "mẹ́ ta",
      "àpap ọ̀",
      "bó yá",
      "mọ ṣẹ́",
      "ìp ín",
      "ìs ọmọ",
      "ọlọ́ run",
      "dáa dáa",
      "olό wό",
      "ìr ì",
      "ìṣà kóso",
      "gbò ò",
      "ìtọ́ kasí",
      "yàt ọ̀",
      "ìgbéṣẹ́ fúnni",
      "àdé hùn",
      "gbòó gì",
      "e tò",
      "g ọ́",
      "m ọ̀ràn",
      "n ìy",
      "p o",
      "p ó",
      "r u",
      "r ìí",
      "s i",
      "t ì",
      "t án",
      "w ú",
      "à dé",
      "à yà",
      "ń lá",
      "ṣ á",
      "ṣ iṣẹ́",
      "ẹ n",
      "ọ g",
      "ì tà",
      "ì kéde",
      "gb e",
      "gb òó",
      "è nìy",
      "ti lẹ̀",
      "ṣ á",
      "ò pó",
      "tí ì",
      "ọ̀ n",
      "ọ̀ tọ̀",
      "kan ṣo",
      "tó ̣",
      "pa rí",
      "ìw à",
      "bí i",
      "ìdí lé",
      "kí kọ",
      "kí kún",
      "ìl etò",
      "wá yé",
      "yí yan",
      "ìy ẹn",
      "ìṣ áájú",
      "ab ìdí",
      "àkó jọ",
      "ìdá ni",
      "òó tọ́",
      "ká tà",
      "ìf ọwọ́sí",
      "bu wọ́",
      "bu rú",
      "fàà yè",
      "yọ rí",
      "ìjá bọ̀",
      "ìgb ìmọ̀",
      "àp ẹẹrẹ",
      "ìdáhùn sí",
      "báá lẹ̀",
      "ìbẹ̀ w",
      "ẹs kẹkẹnkẹ",
      "gbọ dọ̀",
      "abẹ́ lé",
      "ìdánilẹ́ kọ̀ọ́",
      "àkí yèsí",
      "ṣeé ṣe",
      "kárà kátà",
      "àdé hùn",
      "àyà fi",
      "ìtà kùn",
      "gbòó gì",
      "ènìy àn",
      "kanṣo ṣo",
      "d ò",
      "d ó",
      "f ẹ",
      "f ọ́",
      "f ojú",
      "g à",
      "i ti",
      "i lẹ̀",
      "k un",
      "m e",
      "o kùn",
      "p ẹ́",
      "r an",
      "r ìn",
      "s án",
      "s ùn",
      "s ọ̀rọ̀",
      "t ẹ",
      "t ẹ",
      "y án",
      "à ṣà",
      "à yìn",
      "à mọ́",
      "è te",
      "ì ṣe",
      "ì ka",
      "ì ta",
      "ì pín",
      "ì pàdé",
      "̣ n",
      "ό ò",
      "ẹ lò",
      "ẹ gbẹ́",
      "ọ ba",
      "à gbá",
      "ọ rọ̀",
      "ì pà",
      "ì pele",
      "gb ó",
      "gb ọ́",
      "ṣ i",
      "ní í",
      "ọ̀ pọ̀",
      "ní lẹ̀",
      "ni létí",
      "lé ̣",
      "ṣẹ́ mọṣẹ́",
      "pa mọ́",
      "sí san",
      "pè jú",
      "ìw ád",
      "ń ṣẹ́",
      "ìd à",
      "bá yìí",
      "ka lẹ̀",
      "ak iti",
      "ló jú",
      "yí padà",
      "àgbà sókè",
      "pà á",
      "àt ẹ",
      "ìy àtọ̀",
      "ìfi jí",
      "ìdá dúró",
      "olù darí",
      "olù kànsí",
      "ẹ̀ rọ",
      "alá jé",
      "alá bò",
      "èrè dí",
      "ìdá dúró",
      "ìmú ṣe",
      "àb ù",
      "bẹ̀ rẹ̀",
      "bó yá",
      "ìtọ́ jú",
      "gban gba",
      "aj é",
      "rán ńṣẹ́",
      "àkàn ṣe",
      "ìsọmọ lórúkọ",
      "okùn fà",
      "àyìn dé",
      "pèjú we",
      "akiti yan",
      "alábò ójútó",
      "a gbá",
      "b ójútó",
      "d ọ",
      "d à",
      "d àn",
      "d ìb",
      "d ìí",
      "d ìmú",
      "j ό",
      "o yè",
      "o mi",
      "o kùn",
      "p ẹ́",
      "s ọ́",
      "s ọ́",
      "s áá",
      "t ak",
      "u ra",
      "w í",
      "w ẹ̀",
      "à ṣe",
      "à ṣì",
      "à sìkò",
      "à yípadà",
      "à kọ́kọ́",
      "è kó",
      "ì tà",
      "ì jí",
      "ò we",
      "ṣ in",
      "ọ n",
      "à bá",
      "à tò",
      "à mọ́",
      "ọ gọ́",
      "è te",
      "ẹ̀ rí",
      "ọ̀ yà",
      "lé rí",
      "tó nilétí",
      "sí lẹ̀",
      "rí à",
      "ìd àgbàsókè",
      "rí à",
      "ló ̣",
      "wọ́ gbà",
      "gbogbo gbòò",
      "ol ú",
      "ǹ gbà",
      "kí á",
      "dé gbà",
      "wà yìí",
      "orí ṣi",
      "fin mu",
      "ṣà fihàn",
      "jẹ́ rìí",
      "ojú tá",
      "nà ìjí",
      "ìfi tónilétí",
      "ìb ẹ̀",
      "wá yé",
      "olù múlò",
      "ẹ̀ wò",
      "jí jẹ́",
      "alá ìrí",
      "àtún pín",
      "èrò ǹgbà",
      "ìgbà dégbà",
      "yòó kù",
      "yọ rí",
      "fí fi",
      "jí ṣẹ́",
      "bẹ̀ rẹ̀",
      "dín kù",
      "fa g",
      "pàá pàá",
      "tè tè",
      "ìmú ṣẹ́ṣe",
      "ìjá bọ̀",
      "ìbẹ̀w ẹ̀",
      "ẹlò míràn",
      "àgbá yé",
      "ìpà dé",
      "ìwád ìí",
      "okùn fà",
      "sáá bà",
      "ọgọ́ rùn",
      "ojútá yé",
      "nàìjí ríà",
      "aláìrí dìmú",
      "a yé",
      "a pá",
      "a ṣọ",
      "a tọ́",
      "b ú",
      "b ójú",
      "f o",
      "f ò",
      "f ín",
      "g á",
      "h ò",
      "i ṣẹ́",
      "j ẹ̀",
      "l ọ̀",
      "m à",
      "o ko",
      "p ó",
      "r ìí",
      "s á",
      "s ẹ́",
      "s ọ̀",
      "t ú",
      "t an",
      "t ẹrù",
      "w ìrì",
      "y ẹ̀",
      "y όò",
      "à á",
      "à rò",
      "à gbá",
      "à ṣẹ",
      "ì fẹ́",
      "ì kókó",
      "ì kúnjú",
      "ù sùn",
      "ẹ bí",
      "ẹ yọ",
      "ọ kọ",
      "à ṣẹ",
      "ọ kúrò",
      "ì tẹ́",
      "gb ọ̀n",
      "á bà",
      "ṣ o",
      "ẹ̀ kọ́",
      "ẹ̀ yà",
      "ọ̀ mù",
      "pa mọ́",
      "sí bẹ̀",
      "lá jọ",
      "lá papọ̀",
      "rí rà",
      "rí ṣi",
      "ìw ú",
      "sè ̣",
      "ọ́ n",
      "ìd ì",
      "ló hùn",
      "ló kè",
      "ló òótọ́",
      "bá wo",
      "ra jà",
      "jọ jú",
      "kó ̣",
      "ẹ́ wọ́",
      "àgbà ṣe",
      "ké ke",
      "lọ́ jọ́",
      "ke ré",
      "ìy àt",
      "àkọ sílẹ̀",
      "mọ̀ dù",
      "ìṣ ò",
      "mu ṣin",
      "ìfi wé",
      "ṣí ṣí",
      "gbè sè",
      "san wó",
      "ìt ẹ́wọ́",
      "ké keré",
      "sẹ̀ múlẹ̀",
      "alá ga",
      "àà là",
      "ìgbé yà",
      "kọ̀ ọ́",
      "da rí",
      "àb ójútó",
      "olό yè",
      "rẹ́ rẹ́",
      "kán jú",
      "ṣà pèjúwe",
      "pú tà",
      "pú pọ̀",
      "ìṣò tí",
      "agbá ra",
      "só kè",
      "irin ṣẹ́",
      "na i",
      "àwò rán",
      "fọ́ ọ̀mù",
      "ìka mọ̀dù",
      "lẹ́ yìn",
      "ìdà àmú",
      "àbù dá",
      "agbá tẹrù",
      "dìb ò",
      "àṣì ṣe",
      "oríṣi ríṣi",
      "atọ́ nà",
      "bójú mu",
      "sá ábà",
      "ìtẹ́ wọ́gbà",
      "kéke ré",
      "ìtẹ́wọ́ gbà",
      "1 9",
      "a bí",
      "a gbára",
      "b ọ̀",
      "d an",
      "d ọ̀",
      "f ọ̀",
      "h ù",
      "i re",
      "i pò",
      "i hò",
      "k u",
      "l í",
      "m ó",
      "o kò",
      "o lórí",
      "s in",
      "t é",
      "t ẹrù",
      "u rú",
      "u rú",
      "à là",
      "à kọ",
      "à wí",
      "à mì",
      "à dínkù",
      "ì j",
      "ì p",
      "ì jẹ́",
      "ì kànsí",
      "ò ǹ",
      "ò gb",
      "ò té",
      "à ṣe",
      "à wù",
      "à àyè",
      "à ìṣe",
      "ọ gbọ́n",
      "ì sún",
      "ì yípadà",
      "è sì",
      "á dìí",
      "é ṣe",
      "é dé",
      "ú lò",
      "ò wò",
      "ẹ̀ dá",
      "ẹ̀ yìn",
      "ṣe éṣe",
      "lá pap",
      "ṣẹ́ mọ",
      "ìw ádìí",
      "ìd àgbà",
      "ba bá",
      "kò ό",
      "bá kan",
      "rò ̣",
      "gbà tà",
      "kó go",
      "rú urú",
      "ày àfi",
      "pà já",
      "wà á",
      "oní rúurú",
      "ṣà pèjúwe",
      "lọ́ rùn",
      "mọ́ lẹ̀",
      "dé édé",
      "rè ̣",
      "oní rú",
      "yẹ n",
      "jà re",
      "ojú tá",
      "bà á",
      "kó pa",
      "dú dú",
      "kọ já",
      "àt ẹ̀",
      "nà ìjí",
      "jẹ un",
      "kọ̀ m̀",
      "alá ṣẹ",
      "alá gbàtà",
      "tọ́ ka",
      "ìb à",
      "ìb ì",
      "òó rùn",
      "irú fẹ́",
      "èrò jà",
      "ṣẹ lẹ̀",
      "tọ́ ka",
      "àfi hàn",
      "rá rá",
      "yá là",
      "èrò ǹ",
      "oló ò",
      "tẹ́ lẹ̀",
      "àp ò",
      "tẹ́ lẹ̀",
      "fá fá",
      "bọ́ lá",
      "àì ní",
      "agbá tẹrù",
      "buwọ́ lù",
      "jό kòό",
      "ìbẹ̀ rẹ̀",
      "àgbá yé",
      "ìfiwé ra",
      "àwí jàre",
      "ògb ójú",
      "àwù jọ",
      "ìsún síwájú",
      "ìdàgbà sókè",
      "pàjá wìrì",
      "onírú urú",
      "ojútá yé",
      "nàìjí ríà",
      "kọ̀m̀ pútà",
      "1 0",
      "2 0",
      "a ti",
      "a sọ",
      "a go",
      "b é",
      "b ù",
      "b ójútó",
      "d ẹ",
      "e lé",
      "f ẹ̀",
      "f un",
      "g ùn",
      "h á",
      "j i",
      "j ó",
      "k èè",
      "m ọ́",
      "n ù",
      "n kan",
      "p ọ̀",
      "r á",
      "t h",
      "t y",
      "t ẹ́",
      "y ẹ́",
      "y ọ́",
      "à wá",
      "à le",
      "è mi",
      "ì mójútó",
      "ì parí",
      "ì yípadà",
      "ì sìn",
      "ì sanwó",
      "ò rè",
      "ò di",
      "ò ró",
      "ò gi",
      "ò pó",
      "ò dìbò",
      "ú rò",
      "̣ lú",
      "ṣ ò",
      "ṣ ọ́",
      "ẹ kún",
      "ọ kàn",
      "à mójútó",
      "à ṣì",
      "à pèjúwe",
      "à rà",
      "ọ ọdún",
      "ì s",
      "ì t",
      "ì ràn",
      "ì kànsí",
      "gb ẹ́",
      "è è",
      "ó kò",
      "ṣ ẹ̀",
      "ò kè",
      "ẹ̀ tọ́",
      "ẹ̀ tọ́",
      "ẹ̀ rọ",
      "ọ̀ dọ",
      "ní bẹ̀",
      "ọ̀ tọ̀",
      "pè ̣lú",
      "sí lẹ̀",
      "lá yé",
      "ìw úlò",
      "bá kan",
      "lá ra",
      "rí ra",
      "rí yá",
      "áà bò",
      "ń lá",
      "ù gbà",
      "tà àrà",
      "kí n",
      "gbogbo gbòò",
      "mú rí",
      "ló hùn",
      "ló kè",
      "yí yàn",
      "pà à",
      "ké é",
      "ọ̀r un",
      "ṣà gbé",
      "ṣà kóso",
      "lọ́ kàn",
      "àt ìgbàdégbà",
      "ìṣ è",
      "ìṣ ẹ̀",
      "wà á",
      "ìy ọkúrò",
      "ìb èèrè",
      "kì í",
      "lẹ́ tà",
      "àt ìgbàdégbà",
      "akọ́ ṣẹ́mọṣẹ́",
      "ẹ̀ rọ",
      "kùn à",
      "ìf owó",
      "ìgbà gbọ́",
      "gbí gbà",
      "ọ̀ kan",
      "dí ẹ̀",
      "bó finmu",
      "àb úrò",
      "kú ùgbà",
      "nígbà kúùgbà",
      "oló yè",
      "mù lẹ̀",
      "yòó kù",
      "só rí",
      "ìrí sí",
      "ìjá bọ̀",
      "kẹ́ yìn",
      "lí lò",
      "gbó lóhùn",
      "báá lẹ",
      "adé sàn",
      "ìjá fáfá",
      "ìṣò wò",
      "tè tè",
      "ib ùsùn",
      "gbòò rò",
      "burú kú",
      "fẹ sẹ̀múlẹ̀",
      "gbó lóhùn",
      "gbọ́ n",
      "àtò jọ",
      "yẹ̀ wò",
      "ìyàt ọ̀",
      "nai rà",
      "hù wà",
      "lí lo",
      "okò òwò",
      "àtẹ̀ jáde",
      "ìbà jẹ́",
      "èròǹ gbà",
      "asọ ye",
      "àle jò",
      "adésàn mí",
      "b ì",
      "b ẹ",
      "b ọ",
      "b ọ́",
      "d ì",
      "d ó",
      "d ọ́",
      "e e",
      "e jì",
      "e wé",
      "f ú",
      "f ẹ",
      "f ìdí",
      "f ẹ́",
      "f ọwọ́",
      "g é",
      "i yè",
      "i kán",
      "i gbó",
      "i gbe",
      "k áà",
      "m ọ̀",
      "o n",
      "o lówó",
      "o dò",
      "p ójú",
      "r ì",
      "s ọ̀rọ̀",
      "t ǔ",
      "t ό",
      "t ọ̀",
      "y ẹ̀wò",
      "à pò",
      "à dí",
      "à ìrò",
      "à wù",
      "á hùn",
      "è jì",
      "ì ṣ",
      "ì pa",
      "ì lẹ̀",
      "ì jì",
      "ì mùlẹ̀",
      "ò ò",
      "ò ní",
      "ò ye",
      "ò ri",
      "ń ṣe",
      "ń gá",
      "ṣ a",
      "ṣ ojú",
      "ṣ ìí",
      "ṣ ọwọ́",
      "ẹ yẹ",
      "ẹ jọ́",
      "ẹ ja",
      "ọ ọ",
      "ọ rọ",
      "ọ kúrò",
      "ọ gbọ̀n",
      "à ì",
      "à dín",
      "à bójútó",
      "ẹ gbẹ́",
      "ṣ àkóso",
      "ò té",
      "tí tọ́",
      "ẹ̀ wà",
      "ẹ̀ kún",
      "ọ̀ sẹ̀",
      "ọ̀ kọ̀ọ̀kan",
      "ọ̀ fọ̀",
      "tí tí",
      "ọ́ wọ́",
      "ọ́ jọ́",
      "ṣe pọ̀",
      "lé wọ̀n",
      "ọ̀ rí",
      "ọ̀ kọ̀ọ̀kan",
      "lá ra",
      "lá gbára",
      "lá ṣọ",
      "ṣẹ́ fúnni",
      "sí ta",
      "bí bèèrè",
      "ìw ọ̀",
      "ìd úró",
      "ìd ókò",
      "ìd áhùn",
      "gba jú",
      "ló gún",
      "kò ó",
      "kò sí",
      "bí bèèrè",
      "bá ń",
      "ra mu",
      "ra dì",
      "kí tà",
      "wọ́ pọ̀",
      "mú lẹ̀",
      "ol ó",
      "wò ̣n",
      "dá ńgá",
      "wá lé",
      "kì n",
      "ṣí sẹ̀",
      "ọmọ bìnrin",
      "ọmọ kùnrin",
      "ọ̀ kan",
      "ọ̀ ràn",
      "ọ̀ rọ̀",
      "ké té",
      "ṣà múlò",
      "pap ọ̀",
      "ìy ọkúrò",
      "gbá dùn",
      "lọ pọ̀",
      "kọsí lẹ̀",
      "èrè dí",
      "àkọsí lẹ",
      "àgbé kalẹ̀",
      "nípa sẹ̀",
      "ab ẹ́",
      "lẹ́ kọ̀ọ́",
      "ìfi yèsí",
      "ìb ejì",
      "yan jú",
      "pin pin",
      "wá rí",
      "lẹ́ nu",
      "sọ kún",
      "wó ̣",
      "pọ̀ jù",
      "ìgbé léwọ̀n",
      "san wó",
      "olù fúnni",
      "jí ṣẹ́",
      "ìb èèrè",
      "ìfi jíṣẹ́",
      "ìgbé ṣẹ́fúnni",
      "àkó bá",
      "mé jé",
      "mé je",
      "ìf ẹ́",
      "fara gbá",
      "tẹ̀ síwájú",
      "ọ̀ pọ̀",
      "ọ̀ gá",
      "ìwọ̀n ba",
      "ge re",
      "ge gere",
      "ìs ún",
      "tẹ̀ síwájú",
      "ṣẹ lẹ̀",
      "fá fá",
      "rọ rùn",
      "ìr an",
      "ìṣà múlò",
      "ìjá fáfá",
      "gbára dì",
      "elé yìí",
      "elé tǔ",
      "lí lo",
      "adé bọ́lá",
      "mẹ́ wàá",
      "ìbẹ̀ rẹ̀",
      "gbòò rò",
      "irin ṣẹ́",
      "pí pèsè",
      "pá tá",
      "lọ́ nà",
      "wú lò",
      "ọg ọ́",
      "ìdáni lójú",
      "ìdáni lẹ́kọ̀ọ́",
      "pàá pàá",
      "ìfijí ṣẹ́",
      "sọ́ nà",
      "tak o",
      "ìtà kùn",
      "àbá jáde",
      "fag ilé",
      "rìí sí",
      "sẹ́ yìn",
      "ìgbéyà wό",
      "ìṣòtí tọ́",
      "àlà kalẹ̀",
      "ìp ìlẹ̀",
      "ìjẹ́ rìísí",
      "lápap ọ̀",
      "ṣẹ́mọ ṣẹ́",
      "olóò gbé",
      "ago go",
      "kèè ké",
      "tẹ́ lẹ̀",
      "ìsìn kú",
      "òdi wọ̀n",
      "àṣì ṣe",
      "pàà rọ̀",
      "ṣàgbé kalẹ̀",
      "ìfowó pamọ́",
      "àwù jọ",
      "òri ṣà",
      "ṣìí rí",
      "ẹ̀kún rẹ́rẹ́",
      "ìwọ̀ n",
      "pátá kó",
      "0 7",
      "a lẹ́",
      "a ri",
      "a jé",
      "a mó",
      "b ì",
      "b orí",
      "b ójú",
      "b ẹ́",
      "d ún",
      "d un",
      "d ójú",
      "d áàbò",
      "e wu",
      "f è",
      "f ó",
      "f ò",
      "g ún",
      "g àn",
      "h ìn",
      "i pá",
      "i wájú",
      "j o",
      "j ọ̀",
      "j èè",
      "j ìbì",
      "k ẹ́",
      "l ẹ",
      "l ayé",
      "m ì",
      "m an",
      "m ù",
      "m ẹ́",
      "m ọjá",
      "n t",
      "n nkan",
      "o ò",
      "o rú",
      "o gun",
      "p ọ́n",
      "r ọ́",
      "r ẹ́",
      "s e",
      "s u",
      "s ẹ",
      "t ú",
      "t àn",
      "t ẹ̀",
      "t ẹ̀",
      "w w",
      "w è",
      "w ẹ́",
      "w ẹ́",
      "à já",
      "à ìb",
      "à san",
      "à jù",
      "à kù",
      "à yẹ̀wò",
      "à wo",
      "à sà",
      "à ád",
      "á fí",
      "á rín",
      "è é",
      "è lé",
      "è ké",
      "è kejì",
      "ì wọ",
      "ì mọ̀ràn",
      "í rà",
      "ò de",
      "ò jé",
      "ṣ è",
      "ṣ ú",
      "ṣ òwò",
      "ọ kọ̀",
      "ọ gbọ́n",
      "à rí",
      "à àl",
      "à papọ̀",
      "ọ rí",
      "ọ jà",
      "ì kó",
      "ì lẹ̀",
      "ì rì",
      "gb ẹ",
      "gb ẹ̀",
      "ẹ nìkan",
      "á radì",
      "ṣ é",
      "ṣ ìí",
      "ṣ àgbékalẹ̀",
      "ṣ àfihàn",
      "ò ye",
      "ò ǹ",
      "ò di",
      "ẹ́ rú",
      "wọ ̀",
      "ní lé",
      "ní wọ̀n",
      "ẹ́ k",
      "ẹ́ yìn",
      "ẹ̀ ẹ́",
      "ẹ̀ ẹ̀",
      "ẹ̀ gbọ́n",
      "an i",
      "ẹ̀ bẹ̀",
      "ẹ̀ dà",
      "ọ̀ tẹ̀",
      "ọ̀ dà",
      "ọ̀ sán",
      "ní wè",
      "ṣe un",
      "ye mu",
      "fi gagbága",
      "ṣe pọ̀",
      "lé tò",
      "ọ̀ kankan",
      "ọ̀ mù",
      "lá jọ",
      "lá sán",
      "bí bá",
      "bá ni",
      "lá gbá",
      "lá àyè",
      "rí bà",
      "ìd ì",
      "rí ra",
      "tà bi",
      "gbà rò",
      "gbà ja",
      "ba à",
      "kí á",
      "óò rè",
      "ìl ẹ́",
      "ka j",
      "ka sí",
      "ol on",
      "rò rò",
      "ày ẹ̀wò",
      "kí kọ̀",
      "dá n",
      "de re",
      "tò ̣",
      "ṣí rò",
      "pà ṣí",
      "wà há",
      "oní mọ̀",
      "án u",
      "ọmọ dé",
      "ọ̀ dọ̀",
      "ọ̀ tọ̀",
      "ké gbàja",
      "ìgb áradì",
      "ìgb ẹ́k",
      "ìl ú",
      "ta yọ",
      "ta yọ",
      "ke jì",
      "ke dere",
      "re tí",
      "nu bà",
      "ìṣ è",
      "pẹ̀ lẹ́",
      "jà rajà",
      "mọ̀ lẹ́",
      "bà jẹ́",
      "bà jẹ́",
      "yẹ̀ pẹ̀",
      "onígb è",
      "onígb ọ̀",
      "lẹ́ nu",
      "má rùn",
      "wó lé",
      "àt ìl",
      "jù lọ",
      "ìt u",
      "ìdá mọ̀",
      "orí sun",
      "orí ṣi",
      "ẹ̀ rí",
      "jí á",
      "alá ṣìírí",
      "akọ́ ṣẹ́mọṣẹ́",
      "dè nà",
      "ìgbé sẹ̀",
      "láà rín",
      "láà árín",
      "wọ́ n",
      "lọ́ jọ́",
      "kù kù",
      "mé jèè",
      "da ràn",
      "òk è",
      "dí dá",
      "mẹ́ rin",
      "mẹ́ fà",
      "fí f",
      "ìf orú",
      "jí jẹ́",
      "pá tá",
      "pá lọ̀",
      "ìmú yẹ",
      "ìbá tan",
      "ìbá ṣepọ̀",
      "bu wọ́",
      "dè nà",
      "fí fẹ̀",
      "àb ọ̀",
      "ìs à",
      "ìs àn",
      "go do",
      "dí pò",
      "lu ra",
      "nì wọ̀nyí",
      "yín ká",
      "kọ́ kọ́",
      "ja gun",
      "ìr ìn",
      "oo o",
      "kẹ́ ni",
      "ẹlẹ́ ran",
      "ọd ọọdún",
      "ìtọ́ ni",
      "ìtọ́ kasí",
      "ṣù wọ̀n",
      "bà á",
      "ṣà ájú",
      "sá yẹ́",
      "ìtọ́ ni",
      "ìjí yìn",
      "ná írà",
      "só rí",
      "láì sí",
      "wu ye",
      "ará yé",
      "lό rí",
      "lọ́ wọ́",
      "ru g",
      "ọ̀tọ̀ ọ̀tọ̀",
      "tọ́ ka",
      "ìta jàrajà",
      "ìpín lẹ̀",
      "ọ̀pọ̀ lọpọ̀",
      "kíá kíá",
      "ṣo ṣo",
      "lájọ lájọ",
      "ìwú re",
      "ìṣò títọ́",
      "abí ọ́",
      "àkọ sílẹ̀",
      "òǹ rajà",
      "àṣe yọrí",
      "20 07",
      "elé yìí",
      "ṣẹ̀ dá",
      "kín ni",
      "kéé kèèké",
      "ìṣẹ̀ lẹ̀",
      "àìrò tẹ́lẹ̀",
      "àdín kù",
      "ọ́wọ́ tó",
      "báń kì",
      "dáńgá jíá",
      "abẹ́ lé",
      "méjé èjì",
      "ìsún síwájú",
      "amó ríyá",
      "bójú mu",
      "jìbì tì",
      "mọjá de",
      "àjá lù",
      "àád ọ́",
      "ààl à",
      "ọrí sí",
      "ṣìí rí",
      "òdi wọ̀n",
      "níwè é",
      "lágbá ra",
      "olon go",
      "wàhá là",
      "mọ̀lẹ́ bí",
      "onígbọ̀ wọ́",
      "kùkù té",
      "méjèè jì",
      "ìforú kọsílẹ̀",
      "a á",
      "a á",
      "a ṣ",
      "a gbé",
      "a dá",
      "a là",
      "a ta",
      "a yẹ",
      "a má",
      "a gbè",
      "a tọ́",
      "a darí",
      "a ṣojú",
      "b ìl",
      "b orí",
      "b ẹ̀",
      "d u",
      "d ú",
      "d ẹ́",
      "d ẹ̀",
      "d ìd",
      "d ìdí",
      "d ójú",
      "d ìí",
      "d ẹr",
      "d olóògbé",
      "f ọ́",
      "f ìdí",
      "f orúkọ",
      "f ẹnu",
      "g í",
      "g é",
      "g ẹ̀",
      "g ọ̀",
      "g án",
      "g ùn",
      "g ọ̀",
      "g édé",
      "g ìrì",
      "h ún",
      "h áà",
      "h ù",
      "h ee",
      "i r",
      "i yì",
      "i lú",
      "i kọ̀",
      "i fá",
      "i pá",
      "i man",
      "j ín",
      "j ọ́",
      "k ό",
      "k ẹ",
      "k ìl",
      "k án",
      "m úná",
      "m ọ́",
      "m ẹ̀yà",
      "n lẹ̀",
      "n nà",
      "o ń",
      "o un",
      "o rin",
      "o gún",
      "p ọn",
      "r ún",
      "s é",
      "s ú",
      "s ẹ",
      "s ún",
      "t ọkọ",
      "t ọrọ",
      "w ì",
      "y i",
      "y ìw",
      "y apa",
      "y àtọ̀",
      "à tí",
      "à rí",
      "à rẹ̀",
      "à yè",
      "à ṣí",
      "à gá",
      "à mójútó",
      "à jò",
      "à pèjúwe",
      "à yẹ̀wò",
      "é we",
      "ì h",
      "ì jú",
      "ì sì",
      "ì kó",
      "ì gbè",
      "ì jọba",
      "ì yàn",
      "ì jà",
      "ì kọ́",
      "ì kópa",
      "ì mọ̀",
      "ì lérí",
      "í sì",
      "ò pò",
      "ò míràn",
      "ó rí",
      "ó gun",
      "ú pa",
      "ú jẹ́",
      "ú ró",
      "ń kì",
      "ń kẹ́",
      "ǹ sì",
      "ṣ u",
      "ṣ án",
      "ẹ ní",
      "ẹ nìkan",
      "ọ ọ́",
      "ọ rọ̀",
      "à lé",
      "à mọ̀",
      "à san",
      "à bò",
      "à dí",
      "à sìkò",
      "à ṣà",
      "à wárí",
      "à mì",
      "à rọ́",
      "ọ ja",
      "ọ pinpin",
      "ì lé",
      "ì lò",
      "ì kọ́",
      "ì jẹ́rìí",
      "ì mọ̀",
      "gb ọ́",
      "ẹ nì",
      "é bù",
      "ó tí",
      "ó kí",
      "ṣ ẹ́",
      "ṣ ọ̀wọ́",
      "ṣ èè",
      "ṣ ókí",
      "ò un",
      "ò ṣùwọ̀n",
      "ní jà",
      "tí tẹ̀lé",
      "ẹ̀ pà",
      "ẹ̀ yẹ",
      "ẹ̀ mí",
      "ẹ̀ dà",
      "ẹ̀ sìn",
      "ẹ̀ ẹ́",
      "ẹ̀ lé",
      "ẹ̀ yìn",
      "ẹ̀ mí",
      "ẹ̀ me",
      "ọ̀ dàn",
      "ọ̀ jọ̀",
      "ní í",
      "ní wọ̀n",
      "ní yà",
      "ni kú",
      "ni lójú",
      "ni sọ̀rọ̀",
      "kan ṣoṣo",
      "fi tì",
      "ọ̀ daràn",
      "ọ̀ hún",
      "sí ta",
      "sè ̣",
      "lá dé",
      "lá re",
      "lá bẹ́",
      "àn á",
      "àn újẹ́",
      "pa tà",
      "ìw é",
      "ìw ọ̀",
      "sí s",
      "sí sọ",
      "bá ńkì",
      "lá ìfi",
      "lá ìbì",
      "lá bàá",
      "lá rug",
      "ìd a",
      "ìd ójú",
      "ìd úró",
      "àti jọ́",
      "rí n",
      "rí rà",
      "rí ṣi",
      "ló nì",
      "ló òrè",
      "bá ramu",
      "rò yìn",
      "ra jà",
      "wọ́ pọ̀",
      "gbé yẹ̀wò",
      "ọj a",
      "ọj ọ́",
      "kí kó",
      "kí bi",
      "kí ko",
      "kó wó",
      "kó òrè",
      "wọ́ tó",
      "yé è",
      "ol ú",
      "kò ̣",
      "ày àn",
      "ày ọrísí",
      "ak ọjà",
      "ak éwe",
      "kí tà",
      "kí kùnà",
      "dé bi",
      "dá hùn",
      "dá mọ̀ràn",
      "dá kun",
      "dá godo",
      "dá nilójú",
      "gbè sè",
      "wá rí",
      "wá dìí",
      "kì nì",
      "wà ràn",
      "oní tọ̀",
      "ta ya",
      "ke je",
      "mọ́ ra",
      "di di",
      "dé lẹ̀",
      "àt ẹ̀",
      "àt ẹ̀yìn",
      "àt ìlẹ́",
      "àt úpa",
      "nu mọ́",
      "ìṣ ètò",
      "ìṣ àmúlò",
      "yẹ ra",
      "tò fò",
      "dá rúkọ",
      "dá àbò",
      "mọ̀ ọ́",
      "ojú ṣàájú",
      "ìṣ í",
      "ìṣ áájú",
      "kó ̣",
      "olù kégbàja",
      "ab ọ́",
      "nípa sẹ̀",
      "mu mi",
      "ìb ànújẹ́",
      "onígb ọ̀wọ́",
      "pe ge",
      "wọ̀n yìí",
      "kì n",
      "lẹ́ kùn",
      "àmú dójú",
      "ìgbé lárug",
      "jẹ yọ",
      "ìt an",
      "ìt ìjú",
      "ìdá padà",
      "olù jẹ́rìí",
      "olù kópa",
      "orí lẹ̀",
      "jí dé",
      "alá patà",
      "ìdá láre",
      "ẹ̀ dà",
      "àfi sùn",
      "àà yè",
      "àtún yẹ̀wò",
      "àtún yẹ̀wò",
      "àkó jọ",
      "kọ̀ wé",
      "ẹni kẹ́ni",
      "kẹ ta",
      "lọ́ rùn",
      "gbí gbà",
      "kù lé",
      "pọ̀ jù",
      "ìf ọ̀rọ̀",
      "fara mọ́",
      "ìgbà padà",
      "yé dẹr",
      "dí je",
      "tọ́ rọ̀",
      "mẹ́ jọ",
      "mẹ́ wàá",
      "mẹ́ ẹ̀ẹ́",
      "jù lọ",
      "àfi wé",
      "àfi jíṣẹ́",
      "ìyá bọ̀",
      "dà á",
      "dà bí",
      "bó yemu",
      "fí fẹ̀",
      "fí ìsì",
      "sùn wọ̀n",
      "wé rọ̀",
      "ìf ura",
      "ìf ìfẹ́",
      "ọ́ rùn",
      "ìmú ṣẹ́ṣe",
      "ìbá nisọ̀rọ̀",
      "kú rú",
      "dí ẹ̀",
      "èrò jà",
      "bẹ̀ bẹ̀",
      "jẹ yọ",
      "pí pa",
      "gi di",
      "ọlọ́ jọ́",
      "láì ṣe",
      "ìyà rá",
      "fá fitì",
      "gbára lé",
      "elé tù",
      "rẹ́ sì",
      "àp ótí",
      "ẹni kẹ́",
      "ṣẹ̀ ṣẹ̀",
      "ìdáni mọ̀",
      "ìdáni lójú",
      "mẹ́ ta",
      "mẹ́ fà",
      "àì sí",
      "ká sẹ̀",
      "ìjí ròrò",
      "àbá jáde",
      "kọ̀ ọ̀kan",
      "sísan wó",
      "fojú sùn",
      "do do",
      "ib ú",
      "mọ̀ lò",
      "àwò dì",
      "po lówó",
      "ọg ọ́rùn",
      "dó gún",
      "fẹ nu",
      "fojú sùn",
      "gbọ́ dọ̀",
      "ìfijí ṣẹ́",
      "sọ́ tọ̀",
      "àṣe parí",
      "ìtà pá",
      "lọ́ nà",
      "fag ilé",
      "tú tù",
      "tan i",
      "àrò kọ",
      "ìwú lò",
      "ìṣò ro",
      "ìgbéyà wó",
      "kánjú kánjú",
      "ìṣòtí tọ́",
      "dan dan",
      "ìj ìyà",
      "yọ́ nú",
      "àwá rí",
      "ògi ri",
      "ògi dì",
      "ṣọ́ ra",
      "ìs ọ̀rí",
      "ìt ọpinpin",
      "ọ̀tọ̀ ọ̀tọ̀",
      "ìṣè wádìí",
      "dó ko",
      "iyè méjì",
      "káà kiri",
      "ìjì nlẹ̀",
      "ìdúró fún",
      "ìdókò wò",
      "gbajú mọ̀",
      "ọgọ́ rùn",
      "ari wo",
      "tú mọ̀",
      "tẹ̀ lé",
      "àjù mọ̀lò",
      "àkù dé",
      "ṣú gà",
      "ìrì nnà",
      "òǹ rajà",
      "ọ̀dà lẹ̀",
      "pàṣí pààrọ̀",
      "ìgbẹ́k ẹ̀lé",
      "onígbè déke",
      "ìtu mọ̀",
      "ìsà lẹ̀",
      "sáyẹ́ ǹsì",
      "aá wọ̀",
      "aṣ òfin",
      "agbé ròyìn",
      "ayẹ yẹ",
      "amá yédẹr",
      "agbè gbè",
      "atọ́ nà",
      "bìl ísì",
      "dìd e",
      "fọ́ ọ̀mù",
      "fẹnu kò",
      "kìl ọ̀",
      "múná dóko",
      "tọkọ taya",
      "àṣí rí",
      "àgá dágodo",
      "ìgbè rí",
      "ọọ́ fíìsì",
      "àlé ébù",
      "àsan sílẹ̀",
      "àdí rẹ́sì",
      "àṣà rò",
      "àrọ́ wọ́tó",
      "ṣọ̀wọ́ n",
      "ṣèè ṣì",
      "ẹ̀me jì",
      "ọ̀jọ̀ gbọ́n",
      "ìwọ̀ n",
      "láìbì kítà",
      "ìdójú tòfò",
      "lóòrè kóòrè",
      "kíko rò",
      "akọjà fúnni",
      "akéwe jẹ",
      "kìnì ún",
      "onítọ̀ ún",
      "àtìlẹ́ yìn",
      "àtúpa lẹ̀",
      "pege dé",
      "ìgbélárug ẹ",
      "mẹ́ẹ̀ẹ́ dógún",
      "ìfìfẹ́ hàn",
      "ẹnikẹ́ ni",
      "amáyédẹr ùn",
      "4 4",
      "5 0",
      "a f",
      "a r",
      "a wọn",
      "a rí",
      "a kó",
      "a mú",
      "a já",
      "a sọ",
      "a jí",
      "a gún",
      "a pá",
      "a fín",
      "a rá",
      "a wuye",
      "b p",
      "b ùn",
      "b ẹ̀",
      "b éèrè",
      "c e",
      "d ọ́",
      "d ù",
      "d ìdí",
      "d in",
      "d èyí",
      "d òwò",
      "d ọọdún",
      "e s",
      "e é",
      "e tí",
      "e ré",
      "e po",
      "e ku",
      "e wì",
      "f ì",
      "f ù",
      "f ọ",
      "f ì",
      "f ìn",
      "f ẹ́",
      "f ọ́",
      "f ura",
      "f ọkàn",
      "g è",
      "g í",
      "g ú",
      "g ìd",
      "g ẹ̀ẹ́",
      "h u",
      "h í",
      "h ẹ",
      "i f",
      "i l",
      "i s",
      "i yè",
      "i gbá",
      "i dà",
      "i bẹ̀",
      "i wájú",
      "i fẹ̀",
      "i ṣẹ́",
      "j ìdí",
      "j in",
      "j ìyà",
      "k ǒ",
      "k rí",
      "k ow",
      "k ọ̀rọ̀",
      "k óòrè",
      "l ì",
      "l ì",
      "l àti",
      "l óòrè",
      "m s",
      "m è",
      "m ò",
      "m ́",
      "m in",
      "m ín",
      "m ẹ́",
      "n g",
      "n ù",
      "n dé",
      "n nà",
      "n kọ́",
      "n nì",
      "n ọ́",
      "o g",
      "o y",
      "o rò",
      "o ró",
      "o ro",
      "o dù",
      "o jo",
      "o didi",
      "p ẹ",
      "p ọ",
      "p ẹ́",
      "p ọ̀",
      "p ọn",
      "p ẹrẹ",
      "p olongo",
      "r ì",
      "r áà",
      "r àk",
      "r ọ́wọ́tó",
      "s ù",
      "s àt",
      "s ójú",
      "s tì",
      "s ẹ́yìn",
      "t o",
      "t u",
      "t oní",
      "t ọmọ",
      "t ẹ́",
      "t ọ̀nà",
      "t ẹlẹ́",
      "t ìgbàdégbà",
      "t ìfura",
      "u wọ́",
      "u re",
      "w è",
      "w ẹ",
      "w èrè",
      "x ty",
      "y ò",
      "y ùn",
      "y aba",
      "­ ­",
      "à j",
      "à kan",
      "à bí",
      "à pè",
      "à wa",
      "à so",
      "à yọ",
      "à dúrà",
      "à gbó",
      "à ṣa",
      "à dán",
      "à ìsàn",
      "à sùnwọ̀n",
      "à rọ́wọ́tó",
      "á dí",
      "è wọ̀",
      "é è",
      "é lò",
      "ì ní",
      "ì ṣẹ́",
      "ì lò",
      "ì kọ",
      "ì yó",
      "ì rẹ̀",
      "ì pà",
      "ì sọ",
      "ì jẹ",
      "ì kà",
      "ì pá",
      "ì ko",
      "ì kẹ́",
      "ì tọ́",
      "ì hùwà",
      "ì kítà",
      "ì gbáradì",
      "ì kọ̀wé",
      "ì polówó",
      "í lù",
      "ò bí",
      "ò rù",
      "ò rùn",
      "ò ru",
      "ò wú",
      "ò fú",
      "ó ó",
      "ó ún",
      "ó kò",
      "ó pe",
      "ó tọ́",
      "ó finmu",
      "ù rù",
      "ń jẹ́",
      "ń lu",
      "ń gbádùn",
      "ǔ n",
      "ǹ tak",
      "ǹ nkan",
      "ǹ jo",
      "̣ tà",
      "ḿ bé",
      "ṅ kan",
      "ṅ kàn",
      "ṣ ó",
      "ṣ ọ̀",
      "ṣ alá",
      "ẹ lẹ̀",
      "ẹ rẹ̀",
      "ẹ dọ̀",
      "ẹ nì",
      "ẹ sẹ̀",
      "ẹ kùn",
      "ẹ bọ",
      "ọ gbà",
      "ọ wọ́",
      "ọ gbọ́n",
      "ọ dọ",
      "ọ lọ́",
      "ọ dẹ",
      "ọ pinpin",
      "ọ dun",
      "à ṣ",
      "à lẹ̀",
      "à rò",
      "à wò",
      "à pé",
      "à ìṣ",
      "à ìrò",
      "à sọ",
      "à rọ̀",
      "à bọ̀",
      "à sùn",
      "à bù",
      "à fojúsùn",
      "í me",
      "ọ gbọ́n",
      "ọ kọ̀",
      "ọ lọ́",
      "ọ jọ́",
      "ì ní",
      "ì gbo",
      "ì kí",
      "ì ta",
      "ì kọ",
      "ì sọ",
      "ì wọ̀nyí",
      "ì jẹ",
      "ì jẹ́",
      "ì kúnjú",
      "ì parí",
      "ì ṣàkóso",
      "gb ọ̀",
      "gb ìjì",
      "gb ìyàn",
      "è dìdí",
      "è lì",
      "ẹ yìn",
      "ẹ jọ́",
      "ẹ sẹ̀múlẹ̀",
      "á ni",
      "á tà",
      "á dọ́",
      "ti se",
      "ṣ í",
      "ṣ è",
      "ṣ ò",
      "ṣ àtúnṣe",
      "ṣ àǹfààní",
      "ṣ àmúlò",
      "ṣ okùnfà",
      "ò tí",
      "ní ní",
      "ní láti",
      "ní yàn",
      "ní jọ́",
      "ní bo",
      "ní wájú",
      "ní sà",
      "ní fẹ̀",
      "ní mọ̀ràn",
      "ní pọn",
      "tí tẹ̀",
      "wọn ú",
      "ẹ̀ dọ̀",
      "ẹ̀ kán",
      "ẹ̀ ṣẹ̀",
      "ẹ̀ hìn",
      "an u",
      "an yàn",
      "ún rẹ́rẹ́",
      "ún rẹ́rẹ́",
      "ẹ̀ sùn",
      "ọ̀ la",
      "ọ̀ tún",
      "ọ̀ kankan",
      "ọ̀ pá",
      "ọ̀ bùn",
      "ọ̀ yọ́",
      "ọ̀ bẹ",
      "ní sí",
      "ní lá",
      "ní lẹ̀",
      "ní ṣojú",
      "ní fẹ̀",
      "ní ṣókí",
      "tí tẹ̀",
      "tí tẹ",
      "ni ra",
      "ni bú",
      "ni níyà",
      "ọ́ dé",
      "ṣe bí",
      "ṣe ré",
      "fún ra",
      "lé rò",
      "lé èwọ̀",
      "fi yè",
      "fi kún",
      "fi hàn",
      "fi yèsí",
      "ṣe déédé",
      "ṣẹ́ fúnni",
      "lé lẹ̀",
      "lé ̣tà",
      "ọ̀ sẹ̀",
      "ọ̀ gá",
      "ọ̀ wọ́",
      "fún ra",
      "sí ṣẹ́",
      "sí wá",
      "sí lẹ̀",
      "sí sọ̀",
      "lá mọ̀",
      "lá ìfi",
      "lá rá",
      "lá kà",
      "lá rọ̀",
      "lá ṣẹ",
      "tó bi",
      "àn a",
      "pa ra",
      "pa mí",
      "ìw òye",
      "sí bì",
      "bí ye",
      "bí mọ",
      "bí adé",
      "bá à",
      "bá lẹ̀",
      "bá ra",
      "bá jù",
      "bá wo",
      "bá dámọ̀ràn",
      "lá ày",
      "lá re",
      "lá kọ̀ọ́",
      "lá ṣìírí",
      "lá tìgbàdégbà",
      "rí hun",
      "rí bá",
      "rí mi",
      "rí kà",
      "rí gà",
      "ọ́ kọ́",
      "ìd arí",
      "ow o",
      "ow ό",
      "ìd áàbò",
      "ìd ókò",
      "àti ṣe",
      "àti pé",
      "àti pé",
      "jú gba",
      "gba jà",
      "gba júgba",
      "gbà gbé",
      "gbà dúrà",
      "gbà ǹjo",
      "ló ti",
      "ló dé",
      "ló bìnrin",
      "ló ru",
      "ló nibú",
      "ba ra",
      "kò rí",
      "kò sùn",
      "kò pẹ́",
      "in á",
      "in mi",
      "rò rò",
      "gbé kalẹ̀",
      "ilé dì",
      "gbà gbọ́",
      "gbà ja",
      "gbé wọ̀n",
      "gbé yẹ̀wò",
      "ọj ọ",
      "kí ni",
      "kí kọ̀",
      "yí yẹ",
      "yí yá",
      "yí yàn",
      "àk ọ́kọ́",
      "ìdíye le",
      "óò ó",
      "kó ríyá",
      "ka rùn",
      "yé ké",
      "mú lẹ̀",
      "mú yìw",
      "ǹ gbà",
      "wò ye",
      "rè wà",
      "pé ye",
      "pé jọ",
      "rò ̣",
      "jẹ́ rìí",
      "nǹkan kan",
      "ày è",
      "ày ọkúrò",
      "jọ jú",
      "jọ ra",
      "wò ye",
      "wò ̣n",
      "ak ọ́",
      "iye bíye",
      "kí kọ́",
      "kí kéde",
      "dé lé",
      "dé ṣeré",
      "dá kà",
      "dá bàá",
      "dá nù",
      "wá ndé",
      "kì kí",
      "ló rúkọ",
      "yẹ pẹrẹ",
      "èè yán",
      "ṣí ṣètò",
      "ṣí ṣé",
      "nǹkan kan",
      "pà dánù",
      "oní lé",
      "oní gbèdéke",
      "oní muṣin",
      "án ì",
      "orí lẹ̀",
      "orí kì",
      "ọmọ lú",
      "ọ̀ nà",
      "ọ̀ mù",
      "ọ̀ gọ̀",
      "kú ù",
      "kú lẹ̀",
      "kú lí",
      "má á",
      "má rùn",
      "àgbà yé",
      "lú mọ",
      "ọ̀r é",
      "ṣà ṣà",
      "ṣà ǹfààní",
      "ṣà wárí",
      "ìgb ó",
      "ìgb ọ́",
      "ìgb ani",
      "ìl ì",
      "lọ́ ọ́",
      "lọ́ lẹ̀",
      "lọ́ sẹ̀",
      "lọ́ rẹ",
      "yìn tì",
      "ìy áà",
      "ojú mọ́",
      "ojú lù",
      "mọ́ wọ́",
      "mọ́ ná",
      "mọ́ gà",
      "mọ́ yán",
      "dé bi",
      "pà dá",
      "àgbé jáde",
      "àgbé wọlé",
      "nu bà",
      "oní mọ̀",
      "ìṣ ura",
      "ìṣ àmójútó",
      "kún kún",
      "kún rẹ́",
      "gbá déṣeré",
      "jà ṅkàn",
      "já wé",
      "tò ótọ́",
      "àmú yẹ",
      "àmú jáde",
      "àmú dójú",
      "dá tà",
      "ojú rere",
      "ìṣ ura",
      "ìṣ ẹlẹ̀",
      "bà rà",
      "bà rígà",
      "onígb ọ̀wọ́",
      "ìy àtò",
      "ìmọ̀ ràn",
      "wọ̀n yẹn",
      "olù kọ́",
      "olù kópa",
      "olù bádámọ̀ràn",
      "àgbé yẹ̀wò",
      "lórí i",
      "lẹ́ sẹ̀",
      "dọ̀ bálẹ̀",
      "ìfi nú",
      "ìfi lọ́lẹ̀",
      "ìb ùsùn",
      "ìb ẹrẹ̀",
      "má ro",
      "kọ rúkọ",
      "yan jú",
      "ṣí ṣètò",
      "já ra",
      "nì nú",
      "wá dìí",
      "wọ̀n yẹn",
      "lẹ́ kaj",
      "lẹ́ ẹ̀mejì",
      "wó sílẹ̀",
      "wó ̣n",
      "gbè rú",
      "pọ̀ n",
      "fẹ́ ni",
      "fẹ́ ràn",
      "fẹ́ fẹ́",
      "àmú kúrò",
      "ìgbé jáde",
      "ìgbé sẹ̀",
      "akọ́ jàfúnni",
      "kún á",
      "ìdá jọ́",
      "ìdá mẹ́wàá",
      "ìdá láre",
      "olù gbó",
      "olù wòye",
      "ké té",
      "ṣẹ́ ṣe",
      "àjọ sọ",
      "ẹ̀ lé",
      "ẹ̀ bẹ̀",
      "jí í",
      "jí jẹ",
      "alá bọ́",
      "alá kòó",
      "alá ìsàn",
      "alá ǹtak",
      "alá ìl",
      "alá dà",
      "alá ṣìírí",
      "alá ìní",
      "tọ́ jú",
      "ìb uwọ́",
      "ìdá mọ̀",
      "ìdá jí",
      "ẹ̀ yà",
      "ẹ̀ kúnrẹ́",
      "ìfi lọ́",
      "irú fẹ́",
      "mí ì",
      "mí mójútó",
      "mí múlò",
      "yà rá",
      "àà rin",
      "àà rọ̀",
      "ré ré",
      "ṣù gbọ́n",
      "la h",
      "la iman",
      "ìgbé ga",
      "ìgbé sẹ",
      "ìgbé ṣẹ́fúnni",
      "òó tọ́",
      "àkó so",
      "ká bá",
      "ká rí",
      "ká ma",
      "kọ̀ m̀",
      "bò ̣",
      "sẹ̀ dé",
      "bẹ́ẹ̀ ni",
      "kẹ jọ",
      "kẹ rin",
      "kẹ fà",
      "kẹ wàá",
      "níbi kíbi",
      "lọ́ nà",
      "lọ́ kàn",
      "lọ́ dún",
      "kù tú",
      "ìf ẹ́",
      "ìf orúkọ",
      "ìf òò",
      "ìf ẹ̀yìn",
      "ìf ẹsẹ̀múlẹ̀",
      "fara jọ",
      "fara mọ",
      "fara mọ́",
      "rọ̀ bì",
      "da il",
      "ró ye",
      "bò ńkẹ́",
      "gẹ́ ẹ́",
      "ìgbà wọlé",
      "tẹ̀ le",
      "tẹ̀ dó",
      "tún dé",
      "gbí gbáradì",
      "ọ̀ nà",
      "àtún yẹ̀wò",
      "àtún pín",
      "dí dùn",
      "tọ́ jú",
      "tọ́ kasí",
      "lọ́wọ́ lọ́wọ́",
      "mẹ́ sàn",
      "mẹ́ rìn",
      "mẹ́ nubà",
      "rá ílù",
      "wí wà",
      "wí jọ́",
      "wí ire",
      "láà rín",
      "dà yìí",
      "àp áà",
      "àp ọ́n",
      "fí fún",
      "fí fagilé",
      "ìf órí",
      "ìf ọwọ́",
      "yá ra",
      "yá sà",
      "ọ́ ràn",
      "ìmú ṣẹ",
      "bẹ̀ rẹ̀",
      "yá ra",
      "ìbá à",
      "méjì lá",
      "fí fúnni",
      "fí faramọ́",
      "àb ẹ̀",
      "ìp oló",
      "ìp ìlẹ̀",
      "yíyan jú",
      "fà àyè",
      "fà dákà",
      "kú lù",
      "yorù ba",
      "ìs ọ̀rọ̀",
      "ìs inmi",
      "án dú",
[...]
